#include "model_data.h"

// We need to keep the data array aligned on some architectures.
#ifdef __has_attribute
#define HAVE_ATTRIBUTE(x) __has_attribute(x)
#else
#define HAVE_ATTRIBUTE(x) 0
#endif
#if HAVE_ATTRIBUTE(aligned) || (defined(__GNUC__) && !defined(__clang__))
#define DATA_ALIGN_ATTRIBUTE __attribute__((aligned(4)))
#else
#define DATA_ALIGN_ATTRIBUTE
#endif

const unsigned char mnist_qat_model_tflite[] DATA_ALIGN_ATTRIBUTE = {
  0x1c, 0x00, 0x00, 0x00, 0x54, 0x46, 0x4c, 0x33, 0x14, 0x00, 0x20, 0x00,
  0x1c, 0x00, 0x18, 0x00, 0x14, 0x00, 0x10, 0x00, 0x0c, 0x00, 0x00, 0x00,
  0x08, 0x00, 0x04, 0x00, 0x14, 0x00, 0x00, 0x00, 0x1c, 0x00, 0x00, 0x00,
  0x8c, 0x00, 0x00, 0x00, 0x0c, 0x01, 0x00, 0x00, 0xe4, 0x08, 0x00, 0x00,
  0xf4, 0x08, 0x00, 0x00, 0x50, 0x1f, 0x00, 0x00, 0x03, 0x00, 0x00, 0x00,
  0x01, 0x00, 0x00, 0x00, 0x10, 0x00, 0x00, 0x00, 0x00, 0x00, 0x0a, 0x00,
  0x10, 0x00, 0x0c, 0x00, 0x08, 0x00, 0x04, 0x00, 0x0a, 0x00, 0x00, 0x00,
  0x0c, 0x00, 0x00, 0x00, 0x1c, 0x00, 0x00, 0x00, 0x38, 0x00, 0x00, 0x00,
  0x0f, 0x00, 0x00, 0x00, 0x73, 0x65, 0x72, 0x76, 0x69, 0x6e, 0x67, 0x5f,
  0x64, 0x65, 0x66, 0x61, 0x75, 0x6c, 0x74, 0x00, 0x01, 0x00, 0x00, 0x00,
  0x04, 0x00, 0x00, 0x00, 0x74, 0xff, 0xff, 0xff, 0x15, 0x00, 0x00, 0x00,
  0x04, 0x00, 0x00, 0x00, 0x05, 0x00, 0x00, 0x00, 0x64, 0x65, 0x6e, 0x73,
  0x65, 0x00, 0x00, 0x00, 0x01, 0x00, 0x00, 0x00, 0x04, 0x00, 0x00, 0x00,
  0xfe, 0xf6, 0xff, 0xff, 0x04, 0x00, 0x00, 0x00, 0x07, 0x00, 0x00, 0x00,
  0x69, 0x6e, 0x70, 0x75, 0x74, 0x5f, 0x31, 0x00, 0x03, 0x00, 0x00, 0x00,
  0x5c, 0x00, 0x00, 0x00, 0x2c, 0x00, 0x00, 0x00, 0x04, 0x00, 0x00, 0x00,
  0xb8, 0xff, 0xff, 0xff, 0x19, 0x00, 0x00, 0x00, 0x04, 0x00, 0x00, 0x00,
  0x13, 0x00, 0x00, 0x00, 0x43, 0x4f, 0x4e, 0x56, 0x45, 0x52, 0x53, 0x49,
  0x4f, 0x4e, 0x5f, 0x4d, 0x45, 0x54, 0x41, 0x44, 0x41, 0x54, 0x41, 0x00,
  0xdc, 0xff, 0xff, 0xff, 0x18, 0x00, 0x00, 0x00, 0x04, 0x00, 0x00, 0x00,
  0x13, 0x00, 0x00, 0x00, 0x6d, 0x69, 0x6e, 0x5f, 0x72, 0x75, 0x6e, 0x74,
  0x69, 0x6d, 0x65, 0x5f, 0x76, 0x65, 0x72, 0x73, 0x69, 0x6f, 0x6e, 0x00,
  0x08, 0x00, 0x0c, 0x00, 0x08, 0x00, 0x04, 0x00, 0x08, 0x00, 0x00, 0x00,
  0x17, 0x00, 0x00, 0x00, 0x04, 0x00, 0x00, 0x00, 0x13, 0x00, 0x00, 0x00,
  0x6d, 0x69, 0x6e, 0x5f, 0x72, 0x75, 0x6e, 0x74, 0x69, 0x6d, 0x65, 0x5f,
  0x76, 0x65, 0x72, 0x73, 0x69, 0x6f, 0x6e, 0x00, 0x1a, 0x00, 0x00, 0x00,
  0xd4, 0x07, 0x00, 0x00, 0xcc, 0x07, 0x00, 0x00, 0xb4, 0x07, 0x00, 0x00,
  0x7c, 0x07, 0x00, 0x00, 0x7c, 0x06, 0x00, 0x00, 0x0c, 0x06, 0x00, 0x00,
  0x7c, 0x04, 0x00, 0x00, 0x2c, 0x04, 0x00, 0x00, 0x8c, 0x03, 0x00, 0x00,
  0x3c, 0x03, 0x00, 0x00, 0x6c, 0x02, 0x00, 0x00, 0x2c, 0x02, 0x00, 0x00,
  0xb0, 0x01, 0x00, 0x00, 0x70, 0x01, 0x00, 0x00, 0xf4, 0x00, 0x00, 0x00,
  0xec, 0x00, 0x00, 0x00, 0xe4, 0x00, 0x00, 0x00, 0xdc, 0x00, 0x00, 0x00,
  0xd4, 0x00, 0x00, 0x00, 0xcc, 0x00, 0x00, 0x00, 0xc4, 0x00, 0x00, 0x00,
  0xbc, 0x00, 0x00, 0x00, 0xb4, 0x00, 0x00, 0x00, 0x94, 0x00, 0x00, 0x00,
  0x74, 0x00, 0x00, 0x00, 0x04, 0x00, 0x00, 0x00, 0x02, 0xf8, 0xff, 0xff,
  0x04, 0x00, 0x00, 0x00, 0x60, 0x00, 0x00, 0x00, 0x0c, 0x00, 0x00, 0x00,
  0x08, 0x00, 0x0e, 0x00, 0x08, 0x00, 0x04, 0x00, 0x08, 0x00, 0x00, 0x00,
  0x10, 0x00, 0x00, 0x00, 0x28, 0x00, 0x00, 0x00, 0x00, 0x00, 0x06, 0x00,
  0x08, 0x00, 0x04, 0x00, 0x06, 0x00, 0x00, 0x00, 0x04, 0x00, 0x00, 0x00,
  0x01, 0x00, 0x00, 0x00, 0xeb, 0x03, 0x00, 0x00, 0x0c, 0x00, 0x18, 0x00,
  0x14, 0x00, 0x10, 0x00, 0x0c, 0x00, 0x04, 0x00, 0x0c, 0x00, 0x00, 0x00,
  0x06, 0xab, 0xbf, 0x65, 0x40, 0x87, 0x9f, 0x75, 0x02, 0x00, 0x00, 0x00,
  0x02, 0x00, 0x00, 0x00, 0x04, 0x00, 0x00, 0x00, 0x06, 0x00, 0x00, 0x00,
  0x32, 0x2e, 0x31, 0x39, 0x2e, 0x30, 0x00, 0x00, 0x6e, 0xf8, 0xff, 0xff,
  0x04, 0x00, 0x00, 0x00, 0x10, 0x00, 0x00, 0x00, 0x00, 0x00, 0x00, 0x00,
  0x00, 0x00, 0x00, 0x00, 0x00, 0x00, 0x00, 0x00, 0x00, 0x00, 0x00, 0x00,
  0x8a, 0xf8, 0xff, 0xff, 0x04, 0x00, 0x00, 0x00, 0x10, 0x00, 0x00, 0x00,
  0x31, 0x2e, 0x31, 0x34, 0x2e, 0x30, 0x00, 0x00, 0x00, 0x00, 0x00, 0x00,
  0x00, 0x00, 0x00, 0x00, 0x90, 0xe3, 0xff, 0xff, 0x94, 0xe3, 0xff, 0xff,
  0x98, 0xe3, 0xff, 0xff, 0x9c, 0xe3, 0xff, 0xff, 0xa0, 0xe3, 0xff, 0xff,
  0xa4, 0xe3, 0xff, 0xff, 0xa8, 0xe3, 0xff, 0xff, 0xac, 0xe3, 0xff, 0xff,
  0xc6, 0xf8, 0xff, 0xff, 0x04, 0x00, 0x00, 0x00, 0x6c, 0x00, 0x00, 0x00,
  0xd0, 0x81, 0xde, 0x00, 0x00, 0x00, 0x00, 0x00, 0x00, 0x00, 0x00, 0x89,
  0x6f, 0x00, 0x81, 0x4f, 0x00, 0x85, 0x40, 0x39, 0xd8, 0x3a, 0x00, 0xcf,
  0xbd, 0xc1, 0x81, 0x00, 0x00, 0x8a, 0x00, 0x00, 0x00, 0x00, 0x00, 0x7f,
  0x81, 0x00, 0x00, 0xe5, 0xd9, 0x00, 0x00, 0x00, 0xdd, 0x00, 0x00, 0x00,
  0x00, 0x00, 0x81, 0xa9, 0x00, 0x00, 0x7f, 0x00, 0x99, 0x47, 0x00, 0xc5,
  0x76, 0x00, 0x00, 0x81, 0xc7, 0xd2, 0x8f, 0x33, 0x00, 0xdf, 0x00, 0x00,
  0x97, 0x81, 0x00, 0x00, 0x3f, 0xb4, 0x00, 0x00, 0x00, 0x00, 0x00, 0x00,
  0x47, 0xdb, 0xaf, 0x7f, 0x00, 0xb2, 0x72, 0x00, 0x00, 0x7f, 0x64, 0xd2,
  0x7a, 0x00, 0x95, 0x00, 0x00, 0x40, 0x00, 0x44, 0x6e, 0x00, 0x00, 0x7f,
  0x3e, 0xf9, 0xff, 0xff, 0x04, 0x00, 0x00, 0x00, 0x30, 0x00, 0x00, 0x00,
  0xf7, 0x1c, 0x00, 0x00, 0x36, 0x2f, 0x00, 0x00, 0x4e, 0x2e, 0x00, 0x00,
  0x52, 0x00, 0x00, 0x00, 0xa9, 0x23, 0x00, 0x00, 0x44, 0x64, 0x00, 0x00,
  0x28, 0xc1, 0xff, 0xff, 0x37, 0x3b, 0x00, 0x00, 0xc1, 0x1d, 0x00, 0x00,
  0x2a, 0x02, 0x00, 0x00, 0xdb, 0x44, 0x00, 0x00, 0xca, 0x3d, 0x00, 0x00,
  0x7a, 0xf9, 0xff, 0xff, 0x04, 0x00, 0x00, 0x00, 0x6c, 0x00, 0x00, 0x00,
  0x05, 0x81, 0x2d, 0x4e, 0x62, 0xdb, 0x75, 0x3f, 0x41, 0x03, 0xa0, 0x17,
  0x36, 0x9e, 0x0d, 0x88, 0x23, 0xed, 0x39, 0xfb, 0xda, 0xde, 0xd9, 0x43,
  0x45, 0xc6, 0x22, 0x38, 0x56, 0xe3, 0x81, 0x81, 0xa7, 0xf2, 0x22, 0xd6,
  0xe3, 0x2c, 0x39, 0xfb, 0x14, 0xb8, 0x7f, 0x17, 0x14, 0x42, 0xc4, 0xdd,
  0x17, 0x19, 0x33, 0x59, 0xfd, 0xf4, 0xd2, 0x11, 0xff, 0xb7, 0x0b, 0xae,
  0x43, 0xda, 0x2a, 0x7f, 0xf7, 0xe4, 0x22, 0x1c, 0xab, 0x36, 0x21, 0xfb,
  0xfb, 0x57, 0x46, 0x28, 0xfd, 0x31, 0x24, 0xef, 0xe7, 0x7f, 0x81, 0xde,
  0x7f, 0x66, 0x7f, 0x41, 0x81, 0x25, 0x8d, 0x9d, 0x09, 0x13, 0x19, 0xe9,
  0xe5, 0xca, 0xef, 0x0b, 0xc5, 0x7f, 0xd0, 0x6e, 0x81, 0x05, 0x54, 0x81,
  0xf2, 0xf9, 0xff, 0xff, 0x04, 0x00, 0x00, 0x00, 0x30, 0x00, 0x00, 0x00,
  0xba, 0xdb, 0xff, 0xff, 0x2b, 0x0f, 0x00, 0x00, 0x74, 0xcd, 0xff, 0xff,
  0x59, 0x02, 0x00, 0x00, 0xf0, 0xfa, 0xff, 0xff, 0x14, 0xfd, 0xff, 0xff,
  0xa0, 0x08, 0x00, 0x00, 0x69, 0x04, 0x00, 0x00, 0x6d, 0x1d, 0x00, 0x00,
  0xc4, 0xfe, 0xff, 0xff, 0x81, 0x0c, 0x00, 0x00, 0x4b, 0x2c, 0x00, 0x00,
  0x2e, 0xfa, 0xff, 0xff, 0x04, 0x00, 0x00, 0x00, 0xc0, 0x00, 0x00, 0x00,
  0x00, 0x00, 0xb8, 0x00, 0x00, 0x92, 0x00, 0x00, 0x00, 0x00, 0x96, 0x7f,
  0x00, 0xd0, 0xd8, 0x00, 0x00, 0xcf, 0xc9, 0x00, 0x00, 0x81, 0xcd, 0x40,
  0xb4, 0x00, 0x00, 0xad, 0x7b, 0x00, 0x00, 0x00, 0xb9, 0x00, 0x66, 0x7f,
  0x00, 0xc8, 0xcc, 0x00, 0xbd, 0x00, 0x00, 0x00, 0x00, 0x00, 0x81, 0x3e,
  0xb6, 0x00, 0x22, 0x00, 0x81, 0xdb, 0x00, 0x00, 0xca, 0x00, 0x00, 0x4a,
  0x4d, 0x00, 0x00, 0xcc, 0x00, 0x81, 0x00, 0xd1, 0x2d, 0xd9, 0x27, 0xcd,
  0x00, 0x00, 0x00, 0x00, 0x00, 0xce, 0x9d, 0x66, 0x68, 0x48, 0x00, 0x81,
  0x00, 0x33, 0x81, 0x00, 0xe0, 0x00, 0x00, 0x00, 0x00, 0x00, 0x00, 0xe6,
  0xaa, 0x00, 0x81, 0x4d, 0x9a, 0x00, 0x00, 0x7e, 0x00, 0x00, 0x00, 0x00,
  0x00, 0x81, 0x2c, 0x00, 0x00, 0x34, 0xa5, 0x00, 0x00, 0x00, 0x9e, 0x00,
  0x00, 0xc5, 0xd7, 0x00, 0xb5, 0x26, 0x5b, 0x24, 0xb6, 0x00, 0x81, 0x00,
  0x1e, 0x00, 0x00, 0x00, 0x71, 0xbf, 0x7f, 0x00, 0x00, 0x00, 0x35, 0x00,
  0x9f, 0x2d, 0x00, 0x00, 0x7f, 0x00, 0x9e, 0xaf, 0x00, 0x36, 0x82, 0x45,
  0x8c, 0x00, 0x16, 0x00, 0x26, 0x00, 0x00, 0x23, 0x1f, 0x27, 0x81, 0x30,
  0x81, 0x00, 0x00, 0x00, 0x00, 0x82, 0x00, 0x00, 0x00, 0x00, 0xbb, 0x37,
  0x75, 0xb7, 0xa3, 0x00, 0x00, 0xca, 0x00, 0x81, 0x7c, 0x38, 0x00, 0x00,
  0xfa, 0xfa, 0xff, 0xff, 0x04, 0x00, 0x00, 0x00, 0x40, 0x00, 0x00, 0x00,
  0x65, 0x09, 0x00, 0x00, 0x85, 0x0a, 0x00, 0x00, 0x8d, 0xf5, 0xff, 0xff,
  0xc7, 0x0d, 0x00, 0x00, 0xea, 0x05, 0x00, 0x00, 0x0a, 0x09, 0x00, 0x00,
  0x9d, 0xfc, 0xff, 0xff, 0xd9, 0x0f, 0x00, 0x00, 0x37, 0xf6, 0xff, 0xff,
  0x78, 0x02, 0x00, 0x00, 0x36, 0x13, 0x00, 0x00, 0xe2, 0xfb, 0xff, 0xff,
  0x18, 0x3c, 0x00, 0x00, 0x4e, 0xee, 0xff, 0xff, 0x8e, 0x17, 0x00, 0x00,
  0xbb, 0xf4, 0xff, 0xff, 0x46, 0xfb, 0xff, 0xff, 0x04, 0x00, 0x00, 0x00,
  0x90, 0x00, 0x00, 0x00, 0x81, 0x4d, 0x37, 0x47, 0x26, 0x73, 0xcc, 0x26,
  0x26, 0x6b, 0xa3, 0x90, 0x7f, 0x45, 0xd7, 0x7f, 0xa1, 0x46, 0x7f, 0x1a,
  0x36, 0x4e, 0x81, 0x34, 0x2e, 0x6f, 0xa1, 0x81, 0x79, 0x43, 0x8b, 0x6a,
  0xb4, 0x4e, 0x71, 0x15, 0x37, 0xe2, 0xa5, 0x48, 0x0b, 0x2f, 0xb9, 0xee,
  0x00, 0x0f, 0x81, 0x06, 0x6f, 0xb8, 0xfb, 0x7f, 0x11, 0x64, 0x38, 0xf2,
  0x50, 0x5b, 0x81, 0x19, 0x56, 0x57, 0xfd, 0x2b, 0x41, 0xde, 0x07, 0xc3,
  0x24, 0x7f, 0x10, 0x03, 0x7f, 0x7f, 0xa9, 0x01, 0x55, 0x7f, 0xf6, 0x59,
  0x3e, 0x1a, 0x2a, 0x1f, 0x55, 0x57, 0xcb, 0xfc, 0x62, 0x6e, 0xd6, 0xea,
  0x52, 0x6a, 0x01, 0x3d, 0x8a, 0x86, 0x48, 0x4a, 0x9a, 0x29, 0x4e, 0x81,
  0x1b, 0x37, 0xd7, 0x01, 0x1c, 0x36, 0x8d, 0xf3, 0xce, 0xc2, 0x73, 0xec,
  0x81, 0x5c, 0x2c, 0x8d, 0x43, 0x76, 0xc4, 0x2d, 0x76, 0x6e, 0x8c, 0x49,
  0x42, 0x81, 0x61, 0x2e, 0xa8, 0x7b, 0x07, 0x8f, 0x54, 0x59, 0xe3, 0x53,
  0x75, 0x68, 0xe0, 0x33, 0xe2, 0xfb, 0xff, 0xff, 0x04, 0x00, 0x00, 0x00,
  0x40, 0x00, 0x00, 0x00, 0x42, 0xfa, 0xff, 0xff, 0xdf, 0x07, 0x00, 0x00,
  0xe8, 0xdc, 0xff, 0xff, 0x3a, 0xd7, 0xff, 0xff, 0x68, 0xf9, 0xff, 0xff,
  0x37, 0x98, 0xff, 0xff, 0xca, 0x0f, 0x00, 0x00, 0xe7, 0xfc, 0xff, 0xff,
  0x63, 0xf9, 0xff, 0xff, 0x90, 0xe9, 0xff, 0xff, 0xb9, 0x41, 0x00, 0x00,
  0x13, 0xff, 0xff, 0xff, 0x07, 0x78, 0xff, 0xff, 0xdd, 0xf7, 0xff, 0xff,
  0x90, 0x3c, 0x00, 0x00, 0x99, 0xe9, 0xff, 0xff, 0x2e, 0xfc, 0xff, 0xff,
  0x04, 0x00, 0x00, 0x00, 0x80, 0x01, 0x00, 0x00, 0xce, 0xcf, 0x2a, 0x51,
  0x00, 0x56, 0x00, 0x00, 0x00, 0xcd, 0x1f, 0x2c, 0x81, 0x5a, 0x00, 0x00,
  0x64, 0x00, 0xab, 0x00, 0xac, 0xd9, 0x00, 0xc8, 0x00, 0x00, 0x62, 0x4b,
  0x7f, 0x00, 0x1d, 0x00, 0x00, 0x6c, 0x62, 0x50, 0xba, 0x81, 0xbf, 0xac,
  0x00, 0x00, 0x74, 0x76, 0x89, 0x9f, 0x00, 0x00, 0x7f, 0x00, 0x23, 0x35,
  0xae, 0xc8, 0x00, 0xdb, 0x00, 0x00, 0x17, 0x55, 0xd9, 0x00, 0x20, 0x00,
  0xdd, 0x00, 0x00, 0x00, 0x54, 0x61, 0x00, 0x3c, 0x47, 0x00, 0x81, 0xdb,
  0x39, 0x00, 0x00, 0x45, 0xdb, 0x11, 0x00, 0x00, 0x26, 0x00, 0x00, 0x7f,
  0x00, 0x00, 0x00, 0x00, 0x00, 0xe1, 0x00, 0x00, 0x00, 0x70, 0x00, 0xc1,
  0x00, 0x00, 0x00, 0xc2, 0x00, 0xbd, 0x9f, 0x00, 0x00, 0x26, 0x00, 0x7f,
  0x00, 0xce, 0x00, 0x00, 0x00, 0x72, 0x7f, 0x76, 0x00, 0x79, 0x00, 0xc4,
  0x2a, 0x00, 0x00, 0x00, 0x00, 0x26, 0x81, 0xca, 0x00, 0x00, 0x00, 0x00,
  0x00, 0x00, 0x00, 0x00, 0xbd, 0x00, 0x00, 0x7e, 0x00, 0x00, 0x4d, 0xc1,
  0x00, 0x7f, 0x00, 0x00, 0x00, 0xa4, 0x94, 0x00, 0x40, 0x57, 0x4a, 0x50,
  0xd2, 0x7f, 0x00, 0x00, 0x2c, 0x3d, 0x00, 0x00, 0x00, 0x00, 0xa8, 0x9d,
  0x48, 0x00, 0x58, 0x3d, 0x00, 0x00, 0xc7, 0x00, 0x00, 0x00, 0x00, 0x00,
  0xb2, 0x00, 0xcf, 0x00, 0x64, 0x00, 0x7f, 0x3d, 0x81, 0x26, 0x00, 0x39,
  0x5f, 0xc6, 0x96, 0x4b, 0x00, 0x00, 0x00, 0x00, 0xda, 0xc1, 0x00, 0x00,
  0x00, 0x00, 0x00, 0x00, 0x1a, 0x25, 0x00, 0x3a, 0x00, 0x2b, 0xc0, 0xc3,
  0x7f, 0x00, 0x36, 0x00, 0x00, 0xbe, 0x00, 0x00, 0x68, 0x56, 0x00, 0x00,
  0x00, 0x7f, 0xbe, 0xb7, 0x5f, 0x00, 0x00, 0x00, 0x00, 0x00, 0xbc, 0x00,
  0x00, 0x00, 0x00, 0x00, 0x7f, 0x2b, 0x00, 0x00, 0x00, 0x3d, 0x9f, 0x3a,
  0xdc, 0x00, 0x00, 0x00, 0x7f, 0x00, 0x00, 0x17, 0x00, 0x16, 0x00, 0xe0,
  0x00, 0x00, 0xe1, 0x00, 0x3a, 0xa7, 0xc4, 0x31, 0x00, 0x23, 0x2b, 0x00,
  0x00, 0x7f, 0x57, 0xdb, 0xc5, 0x39, 0xbc, 0x00, 0x00, 0x00, 0x00, 0x3a,
  0x00, 0x46, 0x1d, 0x7f, 0x30, 0x1e, 0x00, 0xd2, 0x16, 0x00, 0x00, 0xc1,
  0x00, 0x00, 0x00, 0x00, 0x3b, 0x00, 0x00, 0x54, 0x7f, 0x00, 0xb9, 0x00,
  0x00, 0x00, 0xb2, 0x4e, 0x81, 0x32, 0x33, 0x00, 0x4a, 0xe1, 0xbd, 0x24,
  0xda, 0x00, 0x32, 0x00, 0xc6, 0x00, 0x00, 0x00, 0x00, 0xc0, 0xa6, 0x00,
  0x00, 0x00, 0x7f, 0x00, 0x40, 0x75, 0x4a, 0x00, 0x00, 0x00, 0x00, 0x00,
  0x3e, 0x26, 0x00, 0x1c, 0x00, 0x91, 0xbc, 0xb3, 0x00, 0x00, 0x7f, 0x48,
  0x00, 0xaa, 0x00, 0x00, 0x00, 0xb5, 0xa5, 0x3d, 0x00, 0x00, 0x00, 0xc7,
  0x00, 0x00, 0x4c, 0x7f, 0x51, 0x00, 0x00, 0x00, 0xba, 0xfd, 0xff, 0xff,
  0x04, 0x00, 0x00, 0x00, 0x60, 0x00, 0x00, 0x00, 0x37, 0xfb, 0xff, 0xff,
  0x2c, 0xfe, 0xff, 0xff, 0xa4, 0x05, 0x00, 0x00, 0xa0, 0xfd, 0xff, 0xff,
  0xc1, 0xfb, 0xff, 0xff, 0xd3, 0xfe, 0xff, 0xff, 0xf1, 0x02, 0x00, 0x00,
  0xfb, 0xf2, 0xff, 0xff, 0x11, 0x01, 0x00, 0x00, 0x2b, 0xfb, 0xff, 0xff,
  0xac, 0xfb, 0xff, 0xff, 0x27, 0x00, 0x00, 0x00, 0xa6, 0x0b, 0x00, 0x00,
  0xeb, 0xfc, 0xff, 0xff, 0x93, 0x00, 0x00, 0x00, 0x07, 0xfc, 0xff, 0xff,
  0x24, 0x00, 0x00, 0x00, 0xe3, 0xfa, 0xff, 0xff, 0xa2, 0xf9, 0xff, 0xff,
  0x61, 0xfb, 0xff, 0xff, 0xfc, 0x05, 0x00, 0x00, 0x69, 0xf6, 0xff, 0xff,
  0x80, 0x05, 0x00, 0x00, 0x89, 0xff, 0xff, 0xff, 0x26, 0xfe, 0xff, 0xff,
  0x04, 0x00, 0x00, 0x00, 0xf0, 0x00, 0x00, 0x00, 0x00, 0x00, 0xa0, 0x81,
  0x00, 0x9e, 0x51, 0x00, 0x40, 0x33, 0x53, 0x00, 0x8b, 0x27, 0x4c, 0xcd,
  0x00, 0x00, 0x9d, 0x00, 0x00, 0x00, 0x00, 0x00, 0x58, 0xb2, 0x00, 0x00,
  0xdc, 0x23, 0x00, 0x23, 0xd4, 0x3c, 0xe1, 0xd8, 0x00, 0xc3, 0xe1, 0x81,
  0x00, 0x00, 0x47, 0x98, 0x2b, 0xae, 0x00, 0x00, 0x00, 0x00, 0x00, 0x8c,
  0x00, 0x00, 0xc3, 0x82, 0x00, 0x88, 0x00, 0x00, 0x5e, 0xad, 0x00, 0x00,
  0x6f, 0x81, 0x88, 0x00, 0x6c, 0x00, 0x4d, 0x78, 0xd8, 0x00, 0x4d, 0x00,
  0x9d, 0x00, 0x9f, 0x00, 0xe0, 0x81, 0xa1, 0x00, 0x00, 0x00, 0x00, 0x00,
  0x00, 0x42, 0x00, 0x00, 0x00, 0x36, 0x46, 0x00, 0x00, 0xc9, 0x58, 0x49,
  0x2c, 0x00, 0x3c, 0xcb, 0x32, 0x42, 0x00, 0xb6, 0x00, 0xa5, 0x81, 0x00,
  0x00, 0xa7, 0xcd, 0x00, 0x27, 0xbc, 0x00, 0x8a, 0xbf, 0x00, 0x00, 0x00,
  0x00, 0x3a, 0x94, 0x51, 0x81, 0xd7, 0xc7, 0x00, 0x00, 0x53, 0x4f, 0x00,
  0x00, 0x00, 0x00, 0x00, 0x00, 0x00, 0x00, 0x00, 0x00, 0x81, 0x8c, 0x90,
  0x4f, 0x51, 0x00, 0x00, 0x00, 0x00, 0x4f, 0xdb, 0x49, 0x00, 0x00, 0x00,
  0x00, 0x00, 0x00, 0x3e, 0x2d, 0x00, 0x8d, 0xa4, 0x00, 0x00, 0x00, 0x3c,
  0x93, 0x00, 0x00, 0xad, 0xb4, 0x00, 0x00, 0x3f, 0x00, 0x59, 0x00, 0x8b,
  0xa9, 0x00, 0x00, 0x81, 0x25, 0x9a, 0x5f, 0x00, 0x00, 0x00, 0xc1, 0x00,
  0x00, 0xb4, 0x00, 0x3c, 0x3e, 0x00, 0xbf, 0xb9, 0x00, 0x00, 0x00, 0x4e,
  0x00, 0x2d, 0x00, 0x38, 0x81, 0x47, 0xce, 0x00, 0xb9, 0x3d, 0x00, 0x3a,
  0x00, 0x00, 0x00, 0x00, 0x00, 0x00, 0x00, 0x50, 0x00, 0x00, 0x92, 0x00,
  0x81, 0xcf, 0x00, 0x00, 0x91, 0x00, 0x00, 0x31, 0x22, 0xff, 0xff, 0xff,
  0x04, 0x00, 0x00, 0x00, 0x28, 0x00, 0x00, 0x00, 0x2f, 0xfd, 0xff, 0xff,
  0xcd, 0x03, 0x00, 0x00, 0xb9, 0x04, 0x00, 0x00, 0xb1, 0x03, 0x00, 0x00,
  0xba, 0xfd, 0xff, 0xff, 0xb6, 0xfb, 0xff, 0xff, 0x33, 0xfe, 0xff, 0xff,
  0xe9, 0x00, 0x00, 0x00, 0x34, 0xfb, 0xff, 0xff, 0xc0, 0x03, 0x00, 0x00,
  0x56, 0xff, 0xff, 0xff, 0x04, 0x00, 0x00, 0x00, 0x08, 0x00, 0x00, 0x00,
  0x01, 0x00, 0x00, 0x00, 0x02, 0x00, 0x00, 0x00, 0x54, 0xea, 0xff, 0xff,
  0x58, 0xea, 0xff, 0xff, 0x0f, 0x00, 0x00, 0x00, 0x4d, 0x4c, 0x49, 0x52,
  0x20, 0x43, 0x6f, 0x6e, 0x76, 0x65, 0x72, 0x74, 0x65, 0x64, 0x2e, 0x00,
  0x01, 0x00, 0x00, 0x00, 0x14, 0x00, 0x00, 0x00, 0x00, 0x00, 0x0e, 0x00,
  0x18, 0x00, 0x14, 0x00, 0x10, 0x00, 0x0c, 0x00, 0x08, 0x00, 0x04, 0x00,
  0x0e, 0x00, 0x00, 0x00, 0x14, 0x00, 0x00, 0x00, 0x1c, 0x00, 0x00, 0x00,
  0x50, 0x02, 0x00, 0x00, 0x54, 0x02, 0x00, 0x00, 0x58, 0x02, 0x00, 0x00,
  0x04, 0x00, 0x00, 0x00, 0x6d, 0x61, 0x69, 0x6e, 0x00, 0x00, 0x00, 0x00,
  0x08, 0x00, 0x00, 0x00, 0xec, 0x01, 0x00, 0x00, 0x84, 0x01, 0x00, 0x00,
  0x34, 0x01, 0x00, 0x00, 0xec, 0x00, 0x00, 0x00, 0xac, 0x00, 0x00, 0x00,
  0x78, 0x00, 0x00, 0x00, 0x40, 0x00, 0x00, 0x00, 0x04, 0x00, 0x00, 0x00,
  0xa6, 0xfe, 0xff, 0xff, 0x1c, 0x00, 0x00, 0x00, 0x00, 0x00, 0x00, 0x09,
  0x1c, 0x00, 0x00, 0x00, 0x20, 0x00, 0x00, 0x00, 0x04, 0x00, 0x00, 0x00,
  0x00, 0x00, 0x06, 0x00, 0x08, 0x00, 0x04, 0x00, 0x06, 0x00, 0x00, 0x00,
  0x00, 0x00, 0x80, 0x3f, 0x01, 0x00, 0x00, 0x00, 0x15, 0x00, 0x00, 0x00,
  0x01, 0x00, 0x00, 0x00, 0x14, 0x00, 0x00, 0x00, 0xde, 0xfe, 0xff, 0xff,
  0x14, 0x00, 0x00, 0x00, 0x00, 0x00, 0x00, 0x08, 0x10, 0x00, 0x00, 0x00,
  0x14, 0x00, 0x00, 0x00, 0x03, 0x00, 0x00, 0x00, 0x20, 0xeb, 0xff, 0xff,
  0x01, 0x00, 0x00, 0x00, 0x14, 0x00, 0x00, 0x00, 0x03, 0x00, 0x00, 0x00,
  0x13, 0x00, 0x00, 0x00, 0x03, 0x00, 0x00, 0x00, 0x02, 0x00, 0x00, 0x00,
  0x12, 0xff, 0xff, 0xff, 0x14, 0x00, 0x00, 0x00, 0x00, 0x00, 0x00, 0x1b,
  0x10, 0x00, 0x00, 0x00, 0x14, 0x00, 0x00, 0x00, 0x02, 0x00, 0x00, 0x00,
  0x54, 0xeb, 0xff, 0xff, 0x01, 0x00, 0x00, 0x00, 0x13, 0x00, 0x00, 0x00,
  0x02, 0x00, 0x00, 0x00, 0x12, 0x00, 0x00, 0x00, 0x01, 0x00, 0x00, 0x00,
  0xde, 0xfe, 0xff, 0xff, 0x10, 0x00, 0x00, 0x00, 0x00, 0x00, 0x00, 0x01,
  0x18, 0x00, 0x00, 0x00, 0x1c, 0x00, 0x00, 0x00, 0xd0, 0xfe, 0xff, 0xff,
  0x00, 0x00, 0x00, 0x01, 0x01, 0x00, 0x00, 0x00, 0x01, 0x00, 0x00, 0x00,
  0x01, 0x00, 0x00, 0x00, 0x12, 0x00, 0x00, 0x00, 0x03, 0x00, 0x00, 0x00,
  0x11, 0x00, 0x00, 0x00, 0x05, 0x00, 0x00, 0x00, 0x04, 0x00, 0x00, 0x00,
  0x7e, 0xff, 0xff, 0xff, 0x14, 0x00, 0x00, 0x00, 0x00, 0x00, 0x00, 0x02,
  0x20, 0x00, 0x00, 0x00, 0x24, 0x00, 0x00, 0x00, 0x01, 0x00, 0x00, 0x00,
  0x6e, 0xff, 0xff, 0xff, 0x00, 0x00, 0x00, 0x01, 0x01, 0x00, 0x00, 0x00,
  0x02, 0x00, 0x00, 0x00, 0x02, 0x00, 0x00, 0x00, 0x01, 0x00, 0x00, 0x00,
  0x11, 0x00, 0x00, 0x00, 0x03, 0x00, 0x00, 0x00, 0x10, 0x00, 0x00, 0x00,
  0x07, 0x00, 0x00, 0x00, 0x06, 0x00, 0x00, 0x00, 0x5e, 0xff, 0xff, 0xff,
  0x10, 0x00, 0x00, 0x00, 0x00, 0x00, 0x00, 0x01, 0x18, 0x00, 0x00, 0x00,
  0x1c, 0x00, 0x00, 0x00, 0x50, 0xff, 0xff, 0xff, 0x00, 0x00, 0x00, 0x01,
  0x01, 0x00, 0x00, 0x00, 0x01, 0x00, 0x00, 0x00, 0x01, 0x00, 0x00, 0x00,
  0x10, 0x00, 0x00, 0x00, 0x03, 0x00, 0x00, 0x00, 0x0f, 0x00, 0x00, 0x00,
  0x09, 0x00, 0x00, 0x00, 0x08, 0x00, 0x00, 0x00, 0x00, 0x00, 0x0e, 0x00,
  0x1a, 0x00, 0x14, 0x00, 0x10, 0x00, 0x0c, 0x00, 0x0b, 0x00, 0x04, 0x00,
  0x0e, 0x00, 0x00, 0x00, 0x24, 0x00, 0x00, 0x00, 0x00, 0x00, 0x00, 0x02,
  0x30, 0x00, 0x00, 0x00, 0x34, 0x00, 0x00, 0x00, 0x01, 0x00, 0x00, 0x00,
  0x00, 0x00, 0x0e, 0x00, 0x14, 0x00, 0x00, 0x00, 0x10, 0x00, 0x0c, 0x00,
  0x08, 0x00, 0x07, 0x00, 0x0e, 0x00, 0x00, 0x00, 0x00, 0x00, 0x00, 0x01,
  0x01, 0x00, 0x00, 0x00, 0x01, 0x00, 0x00, 0x00, 0x01, 0x00, 0x00, 0x00,
  0x01, 0x00, 0x00, 0x00, 0x0f, 0x00, 0x00, 0x00, 0x03, 0x00, 0x00, 0x00,
  0x0e, 0x00, 0x00, 0x00, 0x0b, 0x00, 0x00, 0x00, 0x0a, 0x00, 0x00, 0x00,
  0x00, 0x00, 0x0e, 0x00, 0x14, 0x00, 0x00, 0x00, 0x10, 0x00, 0x0c, 0x00,
  0x0b, 0x00, 0x04, 0x00, 0x0e, 0x00, 0x00, 0x00, 0x1c, 0x00, 0x00, 0x00,
  0x00, 0x00, 0x00, 0x01, 0x24, 0x00, 0x00, 0x00, 0x28, 0x00, 0x00, 0x00,
  0x0c, 0x00, 0x10, 0x00, 0x00, 0x00, 0x0c, 0x00, 0x08, 0x00, 0x07, 0x00,
  0x0c, 0x00, 0x00, 0x00, 0x00, 0x00, 0x00, 0x01, 0x02, 0x00, 0x00, 0x00,
  0x02, 0x00, 0x00, 0x00, 0x01, 0x00, 0x00, 0x00, 0x0e, 0x00, 0x00, 0x00,
  0x03, 0x00, 0x00, 0x00, 0x00, 0x00, 0x00, 0x00, 0x0d, 0x00, 0x00, 0x00,
  0x0c, 0x00, 0x00, 0x00, 0x01, 0x00, 0x00, 0x00, 0x15, 0x00, 0x00, 0x00,
  0x01, 0x00, 0x00, 0x00, 0x00, 0x00, 0x00, 0x00, 0x16, 0x00, 0x00, 0x00,
  0x44, 0x13, 0x00, 0x00, 0xe8, 0x12, 0x00, 0x00, 0x00, 0x12, 0x00, 0x00,
  0x2c, 0x11, 0x00, 0x00, 0xb8, 0x0f, 0x00, 0x00, 0x34, 0x0e, 0x00, 0x00,
  0x20, 0x0d, 0x00, 0x00, 0xe4, 0x0b, 0x00, 0x00, 0xd0, 0x0a, 0x00, 0x00,
  0xac, 0x09, 0x00, 0x00, 0xc8, 0x08, 0x00, 0x00, 0xd0, 0x07, 0x00, 0x00,
  0xe8, 0x06, 0x00, 0x00, 0xf4, 0x05, 0x00, 0x00, 0x20, 0x05, 0x00, 0x00,
  0x3c, 0x04, 0x00, 0x00, 0x60, 0x03, 0x00, 0x00, 0x7c, 0x02, 0x00, 0x00,
  0xa0, 0x01, 0x00, 0x00, 0x14, 0x01, 0x00, 0x00, 0x80, 0x00, 0x00, 0x00,
  0x04, 0x00, 0x00, 0x00, 0x2a, 0xed, 0xff, 0xff, 0x00, 0x00, 0x00, 0x01,
  0x18, 0x00, 0x00, 0x00, 0x20, 0x00, 0x00, 0x00, 0x3c, 0x00, 0x00, 0x00,
  0x16, 0x00, 0x00, 0x00, 0x00, 0x00, 0x00, 0x09, 0x50, 0x00, 0x00, 0x00,
  0x02, 0x00, 0x00, 0x00, 0xff, 0xff, 0xff, 0xff, 0x0a, 0x00, 0x00, 0x00,
  0x0c, 0xed, 0xff, 0xff, 0x08, 0x00, 0x00, 0x00, 0x10, 0x00, 0x00, 0x00,
  0x01, 0x00, 0x00, 0x00, 0x80, 0xff, 0xff, 0xff, 0xff, 0xff, 0xff, 0xff,
  0x01, 0x00, 0x00, 0x00, 0x00, 0x00, 0x80, 0x3b, 0x19, 0x00, 0x00, 0x00,
  0x53, 0x74, 0x61, 0x74, 0x65, 0x66, 0x75, 0x6c, 0x50, 0x61, 0x72, 0x74,
  0x69, 0x74, 0x69, 0x6f, 0x6e, 0x65, 0x64, 0x43, 0x61, 0x6c, 0x6c, 0x3a,
  0x30, 0x00, 0x00, 0x00, 0x02, 0x00, 0x00, 0x00, 0x01, 0x00, 0x00, 0x00,
  0x0a, 0x00, 0x00, 0x00, 0xa2, 0xed, 0xff, 0xff, 0x00, 0x00, 0x00, 0x01,
  0x18, 0x00, 0x00, 0x00, 0x20, 0x00, 0x00, 0x00, 0x3c, 0x00, 0x00, 0x00,
  0x15, 0x00, 0x00, 0x00, 0x00, 0x00, 0x00, 0x09, 0x68, 0x00, 0x00, 0x00,
  0x02, 0x00, 0x00, 0x00, 0xff, 0xff, 0xff, 0xff, 0x0a, 0x00, 0x00, 0x00,
  0x84, 0xed, 0xff, 0xff, 0x08, 0x00, 0x00, 0x00, 0x10, 0x00, 0x00, 0x00,
  0x01, 0x00, 0x00, 0x00, 0x34, 0x00, 0x00, 0x00, 0x00, 0x00, 0x00, 0x00,
  0x01, 0x00, 0x00, 0x00, 0xbd, 0x1a, 0x1d, 0x3e, 0x30, 0x00, 0x00, 0x00,
  0x74, 0x69, 0x6e, 0x79, 0x5f, 0x64, 0x73, 0x63, 0x6e, 0x6e, 0x2f, 0x64,
  0x65, 0x6e, 0x73, 0x65, 0x2f, 0x4d, 0x61, 0x74, 0x4d, 0x75, 0x6c, 0x3b,
  0x74, 0x69, 0x6e, 0x79, 0x5f, 0x64, 0x73, 0x63, 0x6e, 0x6e, 0x2f, 0x64,
  0x65, 0x6e, 0x73, 0x65, 0x2f, 0x42, 0x69, 0x61, 0x73, 0x41, 0x64, 0x64,
  0x00, 0x00, 0x00, 0x00, 0x02, 0x00, 0x00, 0x00, 0x01, 0x00, 0x00, 0x00,
  0x0a, 0x00, 0x00, 0x00, 0x32, 0xee, 0xff, 0xff, 0x00, 0x00, 0x00, 0x01,
  0x18, 0x00, 0x00, 0x00, 0x20, 0x00, 0x00, 0x00, 0x3c, 0x00, 0x00, 0x00,
  0x14, 0x00, 0x00, 0x00, 0x00, 0x00, 0x00, 0x09, 0x60, 0x00, 0x00, 0x00,
  0x02, 0x00, 0x00, 0x00, 0xff, 0xff, 0xff, 0xff, 0x18, 0x00, 0x00, 0x00,
  0x14, 0xee, 0xff, 0xff, 0x08, 0x00, 0x00, 0x00, 0x10, 0x00, 0x00, 0x00,
  0x01, 0x00, 0x00, 0x00, 0x80, 0xff, 0xff, 0xff, 0xff, 0xff, 0xff, 0xff,
  0x01, 0x00, 0x00, 0x00, 0x13, 0x2a, 0x93, 0x3c, 0x28, 0x00, 0x00, 0x00,
  0x74, 0x69, 0x6e, 0x79, 0x5f, 0x64, 0x73, 0x63, 0x6e, 0x6e, 0x2f, 0x67,
  0x6c, 0x6f, 0x62, 0x61, 0x6c, 0x5f, 0x61, 0x76, 0x65, 0x72, 0x61, 0x67,
  0x65, 0x5f, 0x70, 0x6f, 0x6f, 0x6c, 0x69, 0x6e, 0x67, 0x32, 0x64, 0x2f,
  0x4d, 0x65, 0x61, 0x6e, 0x00, 0x00, 0x00, 0x00, 0x02, 0x00, 0x00, 0x00,
  0x01, 0x00, 0x00, 0x00, 0x18, 0x00, 0x00, 0x00, 0xba, 0xee, 0xff, 0xff,
  0x00, 0x00, 0x00, 0x01, 0x18, 0x00, 0x00, 0x00, 0x28, 0x00, 0x00, 0x00,
  0x48, 0x00, 0x00, 0x00, 0x13, 0x00, 0x00, 0x00, 0x00, 0x00, 0x00, 0x09,
  0xa8, 0x00, 0x00, 0x00, 0x04, 0x00, 0x00, 0x00, 0xff, 0xff, 0xff, 0xff,
  0x07, 0x00, 0x00, 0x00, 0x07, 0x00, 0x00, 0x00, 0x18, 0x00, 0x00, 0x00,
  0xa4, 0xee, 0xff, 0xff, 0x08, 0x00, 0x00, 0x00, 0x14, 0x00, 0x00, 0x00,
  0x01, 0x00, 0x00, 0x00, 0x80, 0xff, 0xff, 0xff, 0xff, 0xff, 0xff, 0xff,
  0x00, 0x00, 0x00, 0x00, 0x01, 0x00, 0x00, 0x00, 0x94, 0x0f, 0xda, 0x3d,
  0x64, 0x00, 0x00, 0x00, 0x74, 0x69, 0x6e, 0x79, 0x5f, 0x64, 0x73, 0x63,
  0x6e, 0x6e, 0x2f, 0x72, 0x65, 0x5f, 0x6c, 0x75, 0x5f, 0x34, 0x2f, 0x52,
  0x65, 0x6c, 0x75, 0x3b, 0x74, 0x69, 0x6e, 0x79, 0x5f, 0x64, 0x73, 0x63,
  0x6e, 0x6e, 0x2f, 0x62, 0x61, 0x74, 0x63, 0x68, 0x5f, 0x6e, 0x6f, 0x72,
  0x6d, 0x61, 0x6c, 0x69, 0x7a, 0x61, 0x74, 0x69, 0x6f, 0x6e, 0x5f, 0x34,
  0x2f, 0x46, 0x75, 0x73, 0x65, 0x64, 0x42, 0x61, 0x74, 0x63, 0x68, 0x4e,
  0x6f, 0x72, 0x6d, 0x56, 0x33, 0x3b, 0x74, 0x69, 0x6e, 0x79, 0x5f, 0x64,
  0x73, 0x63, 0x6e, 0x6e, 0x2f, 0x63, 0x6f, 0x6e, 0x76, 0x32, 0x64, 0x5f,
  0x32, 0x2f, 0x43, 0x6f, 0x6e, 0x76, 0x32, 0x44, 0x00, 0x00, 0x00, 0x00,
  0x04, 0x00, 0x00, 0x00, 0x01, 0x00, 0x00, 0x00, 0x07, 0x00, 0x00, 0x00,
  0x07, 0x00, 0x00, 0x00, 0x18, 0x00, 0x00, 0x00, 0x92, 0xef, 0xff, 0xff,
  0x00, 0x00, 0x00, 0x01, 0x18, 0x00, 0x00, 0x00, 0x28, 0x00, 0x00, 0x00,
  0x44, 0x00, 0x00, 0x00, 0x12, 0x00, 0x00, 0x00, 0x00, 0x00, 0x00, 0x09,
  0xb0, 0x00, 0x00, 0x00, 0x04, 0x00, 0x00, 0x00, 0xff, 0xff, 0xff, 0xff,
  0x07, 0x00, 0x00, 0x00, 0x07, 0x00, 0x00, 0x00, 0x10, 0x00, 0x00, 0x00,
  0x7c, 0xef, 0xff, 0xff, 0x08, 0x00, 0x00, 0x00, 0x10, 0x00, 0x00, 0x00,
  0x01, 0x00, 0x00, 0x00, 0x80, 0xff, 0xff, 0xff, 0xff, 0xff, 0xff, 0xff,
  0x01, 0x00, 0x00, 0x00, 0x3e, 0x2f, 0xdb, 0x3c, 0x71, 0x00, 0x00, 0x00,
  0x74, 0x69, 0x6e, 0x79, 0x5f, 0x64, 0x73, 0x63, 0x6e, 0x6e, 0x2f, 0x72,
  0x65, 0x5f, 0x6c, 0x75, 0x5f, 0x33, 0x2f, 0x52, 0x65, 0x6c, 0x75, 0x3b,
  0x74, 0x69, 0x6e, 0x79, 0x5f, 0x64, 0x73, 0x63, 0x6e, 0x6e, 0x2f, 0x62,
  0x61, 0x74, 0x63, 0x68, 0x5f, 0x6e, 0x6f, 0x72, 0x6d, 0x61, 0x6c, 0x69,
  0x7a, 0x61, 0x74, 0x69, 0x6f, 0x6e, 0x5f, 0x33, 0x2f, 0x46, 0x75, 0x73,
  0x65, 0x64, 0x42, 0x61, 0x74, 0x63, 0x68, 0x4e, 0x6f, 0x72, 0x6d, 0x56,
  0x33, 0x3b, 0x74, 0x69, 0x6e, 0x79, 0x5f, 0x64, 0x73, 0x63, 0x6e, 0x6e,
  0x2f, 0x64, 0x65, 0x70, 0x74, 0x68, 0x77, 0x69, 0x73, 0x65, 0x5f, 0x63,
  0x6f, 0x6e, 0x76, 0x32, 0x64, 0x5f, 0x31, 0x2f, 0x64, 0x65, 0x70, 0x74,
  0x68, 0x77, 0x69, 0x73, 0x65, 0x00, 0x00, 0x00, 0x04, 0x00, 0x00, 0x00,
  0x01, 0x00, 0x00, 0x00, 0x07, 0x00, 0x00, 0x00, 0x07, 0x00, 0x00, 0x00,
  0x10, 0x00, 0x00, 0x00, 0x72, 0xf0, 0xff, 0xff, 0x00, 0x00, 0x00, 0x01,
  0x18, 0x00, 0x00, 0x00, 0x28, 0x00, 0x00, 0x00, 0x48, 0x00, 0x00, 0x00,
  0x11, 0x00, 0x00, 0x00, 0x00, 0x00, 0x00, 0x09, 0xa8, 0x00, 0x00, 0x00,
  0x04, 0x00, 0x00, 0x00, 0xff, 0xff, 0xff, 0xff, 0x0e, 0x00, 0x00, 0x00,
  0x0e, 0x00, 0x00, 0x00, 0x10, 0x00, 0x00, 0x00, 0x5c, 0xf0, 0xff, 0xff,
  0x08, 0x00, 0x00, 0x00, 0x14, 0x00, 0x00, 0x00, 0x01, 0x00, 0x00, 0x00,
  0x80, 0xff, 0xff, 0xff, 0xff, 0xff, 0xff, 0xff, 0x00, 0x00, 0x00, 0x00,
  0x01, 0x00, 0x00, 0x00, 0xfb, 0x53, 0x55, 0x3c, 0x64, 0x00, 0x00, 0x00,
  0x74, 0x69, 0x6e, 0x79, 0x5f, 0x64, 0x73, 0x63, 0x6e, 0x6e, 0x2f, 0x72,
  0x65, 0x5f, 0x6c, 0x75, 0x5f, 0x32, 0x2f, 0x52, 0x65, 0x6c, 0x75, 0x3b,
  0x74, 0x69, 0x6e, 0x79, 0x5f, 0x64, 0x73, 0x63, 0x6e, 0x6e, 0x2f, 0x62,
  0x61, 0x74, 0x63, 0x68, 0x5f, 0x6e, 0x6f, 0x72, 0x6d, 0x61, 0x6c, 0x69,
  0x7a, 0x61, 0x74, 0x69, 0x6f, 0x6e, 0x5f, 0x32, 0x2f, 0x46, 0x75, 0x73,
  0x65, 0x64, 0x42, 0x61, 0x74, 0x63, 0x68, 0x4e, 0x6f, 0x72, 0x6d, 0x56,
  0x33, 0x3b, 0x74, 0x69, 0x6e, 0x79, 0x5f, 0x64, 0x73, 0x63, 0x6e, 0x6e,
  0x2f, 0x63, 0x6f, 0x6e, 0x76, 0x32, 0x64, 0x5f, 0x31, 0x2f, 0x43, 0x6f,
  0x6e, 0x76, 0x32, 0x44, 0x00, 0x00, 0x00, 0x00, 0x04, 0x00, 0x00, 0x00,
  0x01, 0x00, 0x00, 0x00, 0x0e, 0x00, 0x00, 0x00, 0x0e, 0x00, 0x00, 0x00,
  0x10, 0x00, 0x00, 0x00, 0x4a, 0xf1, 0xff, 0xff, 0x00, 0x00, 0x00, 0x01,
  0x18, 0x00, 0x00, 0x00, 0x28, 0x00, 0x00, 0x00, 0x48, 0x00, 0x00, 0x00,
  0x10, 0x00, 0x00, 0x00, 0x00, 0x00, 0x00, 0x09, 0xb0, 0x00, 0x00, 0x00,
  0x04, 0x00, 0x00, 0x00, 0xff, 0xff, 0xff, 0xff, 0x0e, 0x00, 0x00, 0x00,
  0x0e, 0x00, 0x00, 0x00, 0x0c, 0x00, 0x00, 0x00, 0x34, 0xf1, 0xff, 0xff,
  0x08, 0x00, 0x00, 0x00, 0x14, 0x00, 0x00, 0x00, 0x01, 0x00, 0x00, 0x00,
  0x80, 0xff, 0xff, 0xff, 0xff, 0xff, 0xff, 0xff, 0x00, 0x00, 0x00, 0x00,
  0x01, 0x00, 0x00, 0x00, 0x63, 0xe4, 0xc2, 0x3c, 0x6f, 0x00, 0x00, 0x00,
  0x74, 0x69, 0x6e, 0x79, 0x5f, 0x64, 0x73, 0x63, 0x6e, 0x6e, 0x2f, 0x72,
  0x65, 0x5f, 0x6c, 0x75, 0x5f, 0x31, 0x2f, 0x52, 0x65, 0x6c, 0x75, 0x3b,
  0x74, 0x69, 0x6e, 0x79, 0x5f, 0x64, 0x73, 0x63, 0x6e, 0x6e, 0x2f, 0x62,
  0x61, 0x74, 0x63, 0x68, 0x5f, 0x6e, 0x6f, 0x72, 0x6d, 0x61, 0x6c, 0x69,
  0x7a, 0x61, 0x74, 0x69, 0x6f, 0x6e, 0x5f, 0x31, 0x2f, 0x46, 0x75, 0x73,
  0x65, 0x64, 0x42, 0x61, 0x74, 0x63, 0x68, 0x4e, 0x6f, 0x72, 0x6d, 0x56,
  0x33, 0x3b, 0x74, 0x69, 0x6e, 0x79, 0x5f, 0x64, 0x73, 0x63, 0x6e, 0x6e,
  0x2f, 0x64, 0x65, 0x70, 0x74, 0x68, 0x77, 0x69, 0x73, 0x65, 0x5f, 0x63,
  0x6f, 0x6e, 0x76, 0x32, 0x64, 0x2f, 0x64, 0x65, 0x70, 0x74, 0x68, 0x77,
  0x69, 0x73, 0x65, 0x00, 0x04, 0x00, 0x00, 0x00, 0x01, 0x00, 0x00, 0x00,
  0x0e, 0x00, 0x00, 0x00, 0x0e, 0x00, 0x00, 0x00, 0x0c, 0x00, 0x00, 0x00,
  0x2a, 0xf2, 0xff, 0xff, 0x00, 0x00, 0x00, 0x01, 0x18, 0x00, 0x00, 0x00,
  0x28, 0x00, 0x00, 0x00, 0x48, 0x00, 0x00, 0x00, 0x0f, 0x00, 0x00, 0x00,
  0x00, 0x00, 0x00, 0x09, 0xa0, 0x00, 0x00, 0x00, 0x04, 0x00, 0x00, 0x00,
  0xff, 0xff, 0xff, 0xff, 0x0e, 0x00, 0x00, 0x00, 0x0e, 0x00, 0x00, 0x00,
  0x0c, 0x00, 0x00, 0x00, 0x14, 0xf2, 0xff, 0xff, 0x08, 0x00, 0x00, 0x00,
  0x14, 0x00, 0x00, 0x00, 0x01, 0x00, 0x00, 0x00, 0x80, 0xff, 0xff, 0xff,
  0xff, 0xff, 0xff, 0xff, 0x00, 0x00, 0x00, 0x00, 0x01, 0x00, 0x00, 0x00,
  0xba, 0x83, 0x62, 0x3c, 0x5f, 0x00, 0x00, 0x00, 0x74, 0x69, 0x6e, 0x79,
  0x5f, 0x64, 0x73, 0x63, 0x6e, 0x6e, 0x2f, 0x72, 0x65, 0x5f, 0x6c, 0x75,
  0x2f, 0x52, 0x65, 0x6c, 0x75, 0x3b, 0x74, 0x69, 0x6e, 0x79, 0x5f, 0x64,
  0x73, 0x63, 0x6e, 0x6e, 0x2f, 0x62, 0x61, 0x74, 0x63, 0x68, 0x5f, 0x6e,
  0x6f, 0x72, 0x6d, 0x61, 0x6c, 0x69, 0x7a, 0x61, 0x74, 0x69, 0x6f, 0x6e,
  0x2f, 0x46, 0x75, 0x73, 0x65, 0x64, 0x42, 0x61, 0x74, 0x63, 0x68, 0x4e,
  0x6f, 0x72, 0x6d, 0x56, 0x33, 0x3b, 0x74, 0x69, 0x6e, 0x79, 0x5f, 0x64,
  0x73, 0x63, 0x6e, 0x6e, 0x2f, 0x63, 0x6f, 0x6e, 0x76, 0x32, 0x64, 0x2f,
  0x43, 0x6f, 0x6e, 0x76, 0x32, 0x44, 0x31, 0x00, 0x04, 0x00, 0x00, 0x00,
  0x01, 0x00, 0x00, 0x00, 0x0e, 0x00, 0x00, 0x00, 0x0e, 0x00, 0x00, 0x00,
  0x0c, 0x00, 0x00, 0x00, 0x52, 0xf3, 0xff, 0xff, 0x00, 0x00, 0x00, 0x01,
  0x14, 0x00, 0x00, 0x00, 0xb8, 0x00, 0x00, 0x00, 0x0e, 0x00, 0x00, 0x00,
  0x00, 0x00, 0x00, 0x09, 0xc4, 0x00, 0x00, 0x00, 0xcc, 0xf2, 0xff, 0xff,
  0x08, 0x00, 0x00, 0x00, 0x6c, 0x00, 0x00, 0x00, 0x0c, 0x00, 0x00, 0x00,
  0x00, 0x00, 0x00, 0x00, 0x00, 0x00, 0x00, 0x00, 0x00, 0x00, 0x00, 0x00,
  0x00, 0x00, 0x00, 0x00, 0x00, 0x00, 0x00, 0x00, 0x00, 0x00, 0x00, 0x00,
  0x00, 0x00, 0x00, 0x00, 0x00, 0x00, 0x00, 0x00, 0x00, 0x00, 0x00, 0x00,
  0x00, 0x00, 0x00, 0x00, 0x00, 0x00, 0x00, 0x00, 0x00, 0x00, 0x00, 0x00,
  0x00, 0x00, 0x00, 0x00, 0x00, 0x00, 0x00, 0x00, 0x00, 0x00, 0x00, 0x00,
  0x00, 0x00, 0x00, 0x00, 0x00, 0x00, 0x00, 0x00, 0x00, 0x00, 0x00, 0x00,
  0x00, 0x00, 0x00, 0x00, 0x00, 0x00, 0x00, 0x00, 0x00, 0x00, 0x00, 0x00,
  0x00, 0x00, 0x00, 0x00, 0x00, 0x00, 0x00, 0x00, 0x00, 0x00, 0x00, 0x00,
  0x00, 0x00, 0x00, 0x00, 0x0c, 0x00, 0x00, 0x00, 0x78, 0x7e, 0xa6, 0x3c,
  0xbf, 0x85, 0x1e, 0x3c, 0xff, 0x27, 0x2e, 0x3c, 0x85, 0x79, 0xc2, 0x3c,
  0x72, 0xd7, 0x95, 0x3c, 0xf3, 0x44, 0x05, 0x3c, 0x62, 0x79, 0xec, 0x3b,
  0x39, 0x6a, 0xed, 0x3b, 0x2f, 0x61, 0x64, 0x3c, 0x59, 0x60, 0x90, 0x3c,
  0xe2, 0x1b, 0x8e, 0x3b, 0x12, 0x5a, 0x8f, 0x3b, 0x13, 0x00, 0x00, 0x00,
  0x74, 0x66, 0x6c, 0x2e, 0x70, 0x73, 0x65, 0x75, 0x64, 0x6f, 0x5f, 0x71,
  0x63, 0x6f, 0x6e, 0x73, 0x74, 0x31, 0x31, 0x00, 0x04, 0x00, 0x00, 0x00,
  0x0c, 0x00, 0x00, 0x00, 0x03, 0x00, 0x00, 0x00, 0x03, 0x00, 0x00, 0x00,
  0x01, 0x00, 0x00, 0x00, 0x42, 0xf4, 0xff, 0xff, 0x00, 0x00, 0x00, 0x01,
  0x14, 0x00, 0x00, 0x00, 0xb8, 0x00, 0x00, 0x00, 0x0d, 0x00, 0x00, 0x00,
  0x00, 0x00, 0x00, 0x02, 0xc4, 0x00, 0x00, 0x00, 0xbc, 0xf3, 0xff, 0xff,
  0x08, 0x00, 0x00, 0x00, 0x6c, 0x00, 0x00, 0x00, 0x0c, 0x00, 0x00, 0x00,
  0x00, 0x00, 0x00, 0x00, 0x00, 0x00, 0x00, 0x00, 0x00, 0x00, 0x00, 0x00,
  0x00, 0x00, 0x00, 0x00, 0x00, 0x00, 0x00, 0x00, 0x00, 0x00, 0x00, 0x00,
  0x00, 0x00, 0x00, 0x00, 0x00, 0x00, 0x00, 0x00, 0x00, 0x00, 0x00, 0x00,
  0x00, 0x00, 0x00, 0x00, 0x00, 0x00, 0x00, 0x00, 0x00, 0x00, 0x00, 0x00,
  0x00, 0x00, 0x00, 0x00, 0x00, 0x00, 0x00, 0x00, 0x00, 0x00, 0x00, 0x00,
  0x00, 0x00, 0x00, 0x00, 0x00, 0x00, 0x00, 0x00, 0x00, 0x00, 0x00, 0x00,
  0x00, 0x00, 0x00, 0x00, 0x00, 0x00, 0x00, 0x00, 0x00, 0x00, 0x00, 0x00,
  0x00, 0x00, 0x00, 0x00, 0x00, 0x00, 0x00, 0x00, 0x00, 0x00, 0x00, 0x00,
  0x00, 0x00, 0x00, 0x00, 0x0c, 0x00, 0x00, 0x00, 0x9e, 0x25, 0xa7, 0x38,
  0xe5, 0x24, 0x1f, 0x38, 0xd7, 0xd6, 0x2e, 0x38, 0xc3, 0x3c, 0xc3, 0x38,
  0xe0, 0x6d, 0x96, 0x38, 0xbe, 0xca, 0x05, 0x38, 0xca, 0x66, 0xed, 0x37,
  0x92, 0x58, 0xee, 0x37, 0x76, 0x46, 0x65, 0x38, 0x4b, 0xf1, 0x90, 0x38,
  0x8d, 0xaa, 0x8e, 0x37, 0xfd, 0xe9, 0x8f, 0x37, 0x13, 0x00, 0x00, 0x00,
  0x74, 0x66, 0x6c, 0x2e, 0x70, 0x73, 0x65, 0x75, 0x64, 0x6f, 0x5f, 0x71,
  0x63, 0x6f, 0x6e, 0x73, 0x74, 0x31, 0x30, 0x00, 0x01, 0x00, 0x00, 0x00,
  0x0c, 0x00, 0x00, 0x00, 0x26, 0xf5, 0xff, 0xff, 0x00, 0x00, 0x00, 0x01,
  0x14, 0x00, 0x00, 0x00, 0xbc, 0x00, 0x00, 0x00, 0x0c, 0x00, 0x00, 0x00,
  0x00, 0x00, 0x00, 0x09, 0xc8, 0x00, 0x00, 0x00, 0xfa, 0xfb, 0xff, 0xff,
  0x03, 0x00, 0x00, 0x00, 0x08, 0x00, 0x00, 0x00, 0x6c, 0x00, 0x00, 0x00,
  0x0c, 0x00, 0x00, 0x00, 0x00, 0x00, 0x00, 0x00, 0x00, 0x00, 0x00, 0x00,
  0x00, 0x00, 0x00, 0x00, 0x00, 0x00, 0x00, 0x00, 0x00, 0x00, 0x00, 0x00,
  0x00, 0x00, 0x00, 0x00, 0x00, 0x00, 0x00, 0x00, 0x00, 0x00, 0x00, 0x00,
  0x00, 0x00, 0x00, 0x00, 0x00, 0x00, 0x00, 0x00, 0x00, 0x00, 0x00, 0x00,
  0x00, 0x00, 0x00, 0x00, 0x00, 0x00, 0x00, 0x00, 0x00, 0x00, 0x00, 0x00,
  0x00, 0x00, 0x00, 0x00, 0x00, 0x00, 0x00, 0x00, 0x00, 0x00, 0x00, 0x00,
  0x00, 0x00, 0x00, 0x00, 0x00, 0x00, 0x00, 0x00, 0x00, 0x00, 0x00, 0x00,
  0x00, 0x00, 0x00, 0x00, 0x00, 0x00, 0x00, 0x00, 0x00, 0x00, 0x00, 0x00,
  0x00, 0x00, 0x00, 0x00, 0x00, 0x00, 0x00, 0x00, 0x0c, 0x00, 0x00, 0x00,
  0xc9, 0xc9, 0xa0, 0x3c, 0x5a, 0xe9, 0x60, 0x3c, 0xb3, 0x76, 0x68, 0x3c,
  0x71, 0x10, 0x8d, 0x3b, 0xd1, 0x98, 0x7e, 0x3c, 0x7c, 0x51, 0x8a, 0x3c,
  0xd2, 0xb0, 0xfb, 0x3b, 0xe2, 0x7b, 0xc6, 0x3c, 0xff, 0xa6, 0x8a, 0x3c,
  0xc7, 0xec, 0xf6, 0x3b, 0x13, 0xa8, 0x24, 0x3c, 0xc7, 0x1f, 0x26, 0x3c,
  0x12, 0x00, 0x00, 0x00, 0x74, 0x66, 0x6c, 0x2e, 0x70, 0x73, 0x65, 0x75,
  0x64, 0x6f, 0x5f, 0x71, 0x63, 0x6f, 0x6e, 0x73, 0x74, 0x39, 0x00, 0x00,
  0x04, 0x00, 0x00, 0x00, 0x01, 0x00, 0x00, 0x00, 0x03, 0x00, 0x00, 0x00,
  0x03, 0x00, 0x00, 0x00, 0x0c, 0x00, 0x00, 0x00, 0x1a, 0xf6, 0xff, 0xff,
  0x00, 0x00, 0x00, 0x01, 0x14, 0x00, 0x00, 0x00, 0xb4, 0x00, 0x00, 0x00,
  0x0b, 0x00, 0x00, 0x00, 0x00, 0x00, 0x00, 0x02, 0xc0, 0x00, 0x00, 0x00,
  0x94, 0xf5, 0xff, 0xff, 0x08, 0x00, 0x00, 0x00, 0x68, 0x00, 0x00, 0x00,
  0x0c, 0x00, 0x00, 0x00, 0x00, 0x00, 0x00, 0x00, 0x00, 0x00, 0x00, 0x00,
  0x00, 0x00, 0x00, 0x00, 0x00, 0x00, 0x00, 0x00, 0x00, 0x00, 0x00, 0x00,
  0x00, 0x00, 0x00, 0x00, 0x00, 0x00, 0x00, 0x00, 0x00, 0x00, 0x00, 0x00,
  0x00, 0x00, 0x00, 0x00, 0x00, 0x00, 0x00, 0x00, 0x00, 0x00, 0x00, 0x00,
  0x00, 0x00, 0x00, 0x00, 0x00, 0x00, 0x00, 0x00, 0x00, 0x00, 0x00, 0x00,
  0x00, 0x00, 0x00, 0x00, 0x00, 0x00, 0x00, 0x00, 0x00, 0x00, 0x00, 0x00,
  0x00, 0x00, 0x00, 0x00, 0x00, 0x00, 0x00, 0x00, 0x00, 0x00, 0x00, 0x00,
  0x00, 0x00, 0x00, 0x00, 0x00, 0x00, 0x00, 0x00, 0x00, 0x00, 0x00, 0x00,
  0x00, 0x00, 0x00, 0x00, 0x0c, 0x00, 0x00, 0x00, 0xe0, 0x44, 0x8e, 0x39,
  0xbc, 0x01, 0x47, 0x39, 0x68, 0xb0, 0x4d, 0x39, 0x33, 0xa2, 0x79, 0x38,
  0xea, 0x45, 0x61, 0x39, 0x37, 0xc6, 0x74, 0x39, 0x9c, 0xb3, 0xde, 0x38,
  0x7f, 0x9f, 0xaf, 0x39, 0x8b, 0x5d, 0x75, 0x39, 0x16, 0x7c, 0xda, 0x38,
  0x1a, 0xb1, 0x11, 0x39, 0x89, 0xfd, 0x12, 0x39, 0x12, 0x00, 0x00, 0x00,
  0x74, 0x66, 0x6c, 0x2e, 0x70, 0x73, 0x65, 0x75, 0x64, 0x6f, 0x5f, 0x71,
  0x63, 0x6f, 0x6e, 0x73, 0x74, 0x38, 0x00, 0x00, 0x01, 0x00, 0x00, 0x00,
  0x0c, 0x00, 0x00, 0x00, 0xfa, 0xf6, 0xff, 0xff, 0x00, 0x00, 0x00, 0x01,
  0x14, 0x00, 0x00, 0x00, 0xe8, 0x00, 0x00, 0x00, 0x0a, 0x00, 0x00, 0x00,
  0x00, 0x00, 0x00, 0x09, 0xf4, 0x00, 0x00, 0x00, 0x74, 0xf6, 0xff, 0xff,
  0x08, 0x00, 0x00, 0x00, 0x8c, 0x00, 0x00, 0x00, 0x10, 0x00, 0x00, 0x00,
  0x00, 0x00, 0x00, 0x00, 0x00, 0x00, 0x00, 0x00, 0x00, 0x00, 0x00, 0x00,
  0x00, 0x00, 0x00, 0x00, 0x00, 0x00, 0x00, 0x00, 0x00, 0x00, 0x00, 0x00,
  0x00, 0x00, 0x00, 0x00, 0x00, 0x00, 0x00, 0x00, 0x00, 0x00, 0x00, 0x00,
  0x00, 0x00, 0x00, 0x00, 0x00, 0x00, 0x00, 0x00, 0x00, 0x00, 0x00, 0x00,
  0x00, 0x00, 0x00, 0x00, 0x00, 0x00, 0x00, 0x00, 0x00, 0x00, 0x00, 0x00,
  0x00, 0x00, 0x00, 0x00, 0x00, 0x00, 0x00, 0x00, 0x00, 0x00, 0x00, 0x00,
  0x00, 0x00, 0x00, 0x00, 0x00, 0x00, 0x00, 0x00, 0x00, 0x00, 0x00, 0x00,
  0x00, 0x00, 0x00, 0x00, 0x00, 0x00, 0x00, 0x00, 0x00, 0x00, 0x00, 0x00,
  0x00, 0x00, 0x00, 0x00, 0x00, 0x00, 0x00, 0x00, 0x00, 0x00, 0x00, 0x00,
  0x00, 0x00, 0x00, 0x00, 0x00, 0x00, 0x00, 0x00, 0x00, 0x00, 0x00, 0x00,
  0x00, 0x00, 0x00, 0x00, 0x00, 0x00, 0x00, 0x00, 0x00, 0x00, 0x00, 0x00,
  0x10, 0x00, 0x00, 0x00, 0x3e, 0x0d, 0xac, 0x3b, 0xb6, 0x47, 0xc5, 0x3b,
  0xf2, 0x7f, 0xf6, 0x3b, 0xcc, 0xac, 0x17, 0x3c, 0xda, 0xbf, 0xfd, 0x3b,
  0xb3, 0x99, 0x25, 0x3c, 0xfd, 0x94, 0xa7, 0x3b, 0x62, 0x9e, 0xeb, 0x3b,
  0x8e, 0x71, 0x84, 0x3b, 0x22, 0x4b, 0x9a, 0x3b, 0x8b, 0xb6, 0xb2, 0x3b,
  0x4c, 0xff, 0xa9, 0x3b, 0xcf, 0x7a, 0xd4, 0x3a, 0xb8, 0x47, 0x8c, 0x3b,
  0xa4, 0x69, 0xba, 0x3b, 0xf4, 0x5a, 0x9e, 0x3b, 0x12, 0x00, 0x00, 0x00,
  0x74, 0x66, 0x6c, 0x2e, 0x70, 0x73, 0x65, 0x75, 0x64, 0x6f, 0x5f, 0x71,
  0x63, 0x6f, 0x6e, 0x73, 0x74, 0x37, 0x00, 0x00, 0x04, 0x00, 0x00, 0x00,
  0x10, 0x00, 0x00, 0x00, 0x01, 0x00, 0x00, 0x00, 0x01, 0x00, 0x00, 0x00,
  0x0c, 0x00, 0x00, 0x00, 0x1a, 0xf8, 0xff, 0xff, 0x00, 0x00, 0x00, 0x01,
  0x14, 0x00, 0x00, 0x00, 0xe4, 0x00, 0x00, 0x00, 0x09, 0x00, 0x00, 0x00,
  0x00, 0x00, 0x00, 0x02, 0xf0, 0x00, 0x00, 0x00, 0x94, 0xf7, 0xff, 0xff,
  0x08, 0x00, 0x00, 0x00, 0x88, 0x00, 0x00, 0x00, 0x10, 0x00, 0x00, 0x00,
  0x00, 0x00, 0x00, 0x00, 0x00, 0x00, 0x00, 0x00, 0x00, 0x00, 0x00, 0x00,
  0x00, 0x00, 0x00, 0x00, 0x00, 0x00, 0x00, 0x00, 0x00, 0x00, 0x00, 0x00,
  0x00, 0x00, 0x00, 0x00, 0x00, 0x00, 0x00, 0x00, 0x00, 0x00, 0x00, 0x00,
  0x00, 0x00, 0x00, 0x00, 0x00, 0x00, 0x00, 0x00, 0x00, 0x00, 0x00, 0x00,
  0x00, 0x00, 0x00, 0x00, 0x00, 0x00, 0x00, 0x00, 0x00, 0x00, 0x00, 0x00,
  0x00, 0x00, 0x00, 0x00, 0x00, 0x00, 0x00, 0x00, 0x00, 0x00, 0x00, 0x00,
  0x00, 0x00, 0x00, 0x00, 0x00, 0x00, 0x00, 0x00, 0x00, 0x00, 0x00, 0x00,
  0x00, 0x00, 0x00, 0x00, 0x00, 0x00, 0x00, 0x00, 0x00, 0x00, 0x00, 0x00,
  0x00, 0x00, 0x00, 0x00, 0x00, 0x00, 0x00, 0x00, 0x00, 0x00, 0x00, 0x00,
  0x00, 0x00, 0x00, 0x00, 0x00, 0x00, 0x00, 0x00, 0x00, 0x00, 0x00, 0x00,
  0x00, 0x00, 0x00, 0x00, 0x00, 0x00, 0x00, 0x00, 0x10, 0x00, 0x00, 0x00,
  0x87, 0xfb, 0x02, 0x39, 0x58, 0x30, 0x16, 0x39, 0xdf, 0xa8, 0x3b, 0x39,
  0x86, 0xf0, 0x66, 0x39, 0xc4, 0x2d, 0x41, 0x39, 0x6d, 0x24, 0x7c, 0x39,
  0xd2, 0x28, 0xff, 0x38, 0x3a, 0x60, 0x33, 0x39, 0x6c, 0xa8, 0xc9, 0x38,
  0x2d, 0xed, 0xea, 0x38, 0xc5, 0x0d, 0x08, 0x39, 0x21, 0x6b, 0x01, 0x39,
  0xa0, 0xc2, 0x21, 0x38, 0xff, 0x96, 0xd5, 0x38, 0x5c, 0xea, 0x0d, 0x39,
  0x66, 0x1c, 0xf1, 0x38, 0x12, 0x00, 0x00, 0x00, 0x74, 0x66, 0x6c, 0x2e,
  0x70, 0x73, 0x65, 0x75, 0x64, 0x6f, 0x5f, 0x71, 0x63, 0x6f, 0x6e, 0x73,
  0x74, 0x36, 0x00, 0x00, 0x01, 0x00, 0x00, 0x00, 0x10, 0x00, 0x00, 0x00,
  0x2a, 0xf9, 0xff, 0xff, 0x00, 0x00, 0x00, 0x01, 0x28, 0x00, 0x00, 0x00,
  0x00, 0x01, 0x00, 0x00, 0x08, 0x00, 0x00, 0x00, 0x00, 0x00, 0x00, 0x09,
  0x0c, 0x01, 0x00, 0x00, 0x00, 0x00, 0x12, 0x00, 0x10, 0x00, 0x00, 0x00,
  0x00, 0x00, 0x0c, 0x00, 0x08, 0x00, 0x00, 0x00, 0x00, 0x00, 0x04, 0x00,
  0x12, 0x00, 0x00, 0x00, 0x03, 0x00, 0x00, 0x00, 0x08, 0x00, 0x00, 0x00,
  0x8c, 0x00, 0x00, 0x00, 0x10, 0x00, 0x00, 0x00, 0x00, 0x00, 0x00, 0x00,
  0x00, 0x00, 0x00, 0x00, 0x00, 0x00, 0x00, 0x00, 0x00, 0x00, 0x00, 0x00,
  0x00, 0x00, 0x00, 0x00, 0x00, 0x00, 0x00, 0x00, 0x00, 0x00, 0x00, 0x00,
  0x00, 0x00, 0x00, 0x00, 0x00, 0x00, 0x00, 0x00, 0x00, 0x00, 0x00, 0x00,
  0x00, 0x00, 0x00, 0x00, 0x00, 0x00, 0x00, 0x00, 0x00, 0x00, 0x00, 0x00,
  0x00, 0x00, 0x00, 0x00, 0x00, 0x00, 0x00, 0x00, 0x00, 0x00, 0x00, 0x00,
  0x00, 0x00, 0x00, 0x00, 0x00, 0x00, 0x00, 0x00, 0x00, 0x00, 0x00, 0x00,
  0x00, 0x00, 0x00, 0x00, 0x00, 0x00, 0x00, 0x00, 0x00, 0x00, 0x00, 0x00,
  0x00, 0x00, 0x00, 0x00, 0x00, 0x00, 0x00, 0x00, 0x00, 0x00, 0x00, 0x00,
  0x00, 0x00, 0x00, 0x00, 0x00, 0x00, 0x00, 0x00, 0x00, 0x00, 0x00, 0x00,
  0x00, 0x00, 0x00, 0x00, 0x00, 0x00, 0x00, 0x00, 0x00, 0x00, 0x00, 0x00,
  0x00, 0x00, 0x00, 0x00, 0x00, 0x00, 0x00, 0x00, 0x10, 0x00, 0x00, 0x00,
  0x67, 0x3e, 0x33, 0x3c, 0xd2, 0xd5, 0x87, 0x3c, 0x4b, 0x2f, 0x48, 0x3c,
  0x19, 0x70, 0x34, 0x3c, 0xc1, 0x57, 0x8e, 0x3c, 0xec, 0x43, 0xaa, 0x3b,
  0x4b, 0xaa, 0x2a, 0x3c, 0x73, 0xe7, 0x56, 0x3c, 0x9f, 0x31, 0xa9, 0x3c,
  0xc5, 0x7d, 0x88, 0x3c, 0xac, 0x78, 0xe5, 0x3b, 0x05, 0x94, 0x1e, 0x3c,
  0xf4, 0xa7, 0x5a, 0x3c, 0xf0, 0x0a, 0xa1, 0x3c, 0x6a, 0xf3, 0x29, 0x3c,
  0x3c, 0xc8, 0x52, 0x3c, 0x12, 0x00, 0x00, 0x00, 0x74, 0x66, 0x6c, 0x2e,
  0x70, 0x73, 0x65, 0x75, 0x64, 0x6f, 0x5f, 0x71, 0x63, 0x6f, 0x6e, 0x73,
  0x74, 0x35, 0x00, 0x00, 0x04, 0x00, 0x00, 0x00, 0x01, 0x00, 0x00, 0x00,
  0x03, 0x00, 0x00, 0x00, 0x03, 0x00, 0x00, 0x00, 0x10, 0x00, 0x00, 0x00,
  0x62, 0xfa, 0xff, 0xff, 0x00, 0x00, 0x00, 0x01, 0x14, 0x00, 0x00, 0x00,
  0xe4, 0x00, 0x00, 0x00, 0x07, 0x00, 0x00, 0x00, 0x00, 0x00, 0x00, 0x02,
  0xf0, 0x00, 0x00, 0x00, 0xdc, 0xf9, 0xff, 0xff, 0x08, 0x00, 0x00, 0x00,
  0x88, 0x00, 0x00, 0x00, 0x10, 0x00, 0x00, 0x00, 0x00, 0x00, 0x00, 0x00,
  0x00, 0x00, 0x00, 0x00, 0x00, 0x00, 0x00, 0x00, 0x00, 0x00, 0x00, 0x00,
  0x00, 0x00, 0x00, 0x00, 0x00, 0x00, 0x00, 0x00, 0x00, 0x00, 0x00, 0x00,
  0x00, 0x00, 0x00, 0x00, 0x00, 0x00, 0x00, 0x00, 0x00, 0x00, 0x00, 0x00,
  0x00, 0x00, 0x00, 0x00, 0x00, 0x00, 0x00, 0x00, 0x00, 0x00, 0x00, 0x00,
  0x00, 0x00, 0x00, 0x00, 0x00, 0x00, 0x00, 0x00, 0x00, 0x00, 0x00, 0x00,
  0x00, 0x00, 0x00, 0x00, 0x00, 0x00, 0x00, 0x00, 0x00, 0x00, 0x00, 0x00,
  0x00, 0x00, 0x00, 0x00, 0x00, 0x00, 0x00, 0x00, 0x00, 0x00, 0x00, 0x00,
  0x00, 0x00, 0x00, 0x00, 0x00, 0x00, 0x00, 0x00, 0x00, 0x00, 0x00, 0x00,
  0x00, 0x00, 0x00, 0x00, 0x00, 0x00, 0x00, 0x00, 0x00, 0x00, 0x00, 0x00,
  0x00, 0x00, 0x00, 0x00, 0x00, 0x00, 0x00, 0x00, 0x00, 0x00, 0x00, 0x00,
  0x00, 0x00, 0x00, 0x00, 0x10, 0x00, 0x00, 0x00, 0xb9, 0x5d, 0x15, 0x39,
  0xee, 0x62, 0x62, 0x39, 0x05, 0xd1, 0x26, 0x39, 0x76, 0x5c, 0x16, 0x39,
  0x6b, 0x3b, 0x6d, 0x39, 0x5e, 0xe2, 0x8d, 0x38, 0xad, 0x37, 0x0e, 0x39,
  0x12, 0x15, 0x33, 0x39, 0xca, 0xfd, 0x8c, 0x39, 0xd7, 0x7a, 0x63, 0x39,
  0xae, 0x38, 0xbf, 0x38, 0x2e, 0x25, 0x04, 0x39, 0x79, 0x35, 0x36, 0x39,
  0xee, 0x32, 0x86, 0x39, 0x48, 0x9f, 0x0d, 0x39, 0xc0, 0xa5, 0x2f, 0x39,
  0x12, 0x00, 0x00, 0x00, 0x74, 0x66, 0x6c, 0x2e, 0x70, 0x73, 0x65, 0x75,
  0x64, 0x6f, 0x5f, 0x71, 0x63, 0x6f, 0x6e, 0x73, 0x74, 0x34, 0x00, 0x00,
  0x01, 0x00, 0x00, 0x00, 0x10, 0x00, 0x00, 0x00, 0x72, 0xfb, 0xff, 0xff,
  0x00, 0x00, 0x00, 0x01, 0x14, 0x00, 0x00, 0x00, 0x48, 0x01, 0x00, 0x00,
  0x06, 0x00, 0x00, 0x00, 0x00, 0x00, 0x00, 0x09, 0x54, 0x01, 0x00, 0x00,
  0xec, 0xfa, 0xff, 0xff, 0x08, 0x00, 0x00, 0x00, 0xcc, 0x00, 0x00, 0x00,
  0x18, 0x00, 0x00, 0x00, 0x00, 0x00, 0x00, 0x00, 0x00, 0x00, 0x00, 0x00,
  0x00, 0x00, 0x00, 0x00, 0x00, 0x00, 0x00, 0x00, 0x00, 0x00, 0x00, 0x00,
  0x00, 0x00, 0x00, 0x00, 0x00, 0x00, 0x00, 0x00, 0x00, 0x00, 0x00, 0x00,
  0x00, 0x00, 0x00, 0x00, 0x00, 0x00, 0x00, 0x00, 0x00, 0x00, 0x00, 0x00,
  0x00, 0x00, 0x00, 0x00, 0x00, 0x00, 0x00, 0x00, 0x00, 0x00, 0x00, 0x00,
  0x00, 0x00, 0x00, 0x00, 0x00, 0x00, 0x00, 0x00, 0x00, 0x00, 0x00, 0x00,
  0x00, 0x00, 0x00, 0x00, 0x00, 0x00, 0x00, 0x00, 0x00, 0x00, 0x00, 0x00,
  0x00, 0x00, 0x00, 0x00, 0x00, 0x00, 0x00, 0x00, 0x00, 0x00, 0x00, 0x00,
  0x00, 0x00, 0x00, 0x00, 0x00, 0x00, 0x00, 0x00, 0x00, 0x00, 0x00, 0x00,
  0x00, 0x00, 0x00, 0x00, 0x00, 0x00, 0x00, 0x00, 0x00, 0x00, 0x00, 0x00,
  0x00, 0x00, 0x00, 0x00, 0x00, 0x00, 0x00, 0x00, 0x00, 0x00, 0x00, 0x00,
  0x00, 0x00, 0x00, 0x00, 0x00, 0x00, 0x00, 0x00, 0x00, 0x00, 0x00, 0x00,
  0x00, 0x00, 0x00, 0x00, 0x00, 0x00, 0x00, 0x00, 0x00, 0x00, 0x00, 0x00,
  0x00, 0x00, 0x00, 0x00, 0x00, 0x00, 0x00, 0x00, 0x00, 0x00, 0x00, 0x00,
  0x00, 0x00, 0x00, 0x00, 0x00, 0x00, 0x00, 0x00, 0x00, 0x00, 0x00, 0x00,
  0x00, 0x00, 0x00, 0x00, 0x00, 0x00, 0x00, 0x00, 0x00, 0x00, 0x00, 0x00,
  0x00, 0x00, 0x00, 0x00, 0x00, 0x00, 0x00, 0x00, 0x18, 0x00, 0x00, 0x00,
  0xed, 0x20, 0xea, 0x3c, 0x7e, 0xaa, 0xec, 0x3c, 0xc7, 0x2d, 0x0f, 0x3d,
  0x2c, 0x03, 0x4c, 0x3d, 0x35, 0xf0, 0x18, 0x3d, 0x66, 0x00, 0x5a, 0x3d,
  0x0a, 0xab, 0xe1, 0x3c, 0x06, 0xe5, 0xe9, 0x3c, 0xc5, 0x22, 0xdd, 0x3c,
  0x25, 0x17, 0xde, 0x3c, 0x9b, 0xeb, 0x05, 0x3d, 0xa8, 0xc7, 0xfe, 0x3c,
  0x6d, 0xfb, 0xff, 0x3c, 0xad, 0x17, 0x4a, 0x3d, 0x87, 0xca, 0x1b, 0x3d,
  0x71, 0xb0, 0xc6, 0x3c, 0xa7, 0x2f, 0x5e, 0x3d, 0x66, 0xa1, 0xf1, 0x3c,
  0xa4, 0x6c, 0x17, 0x3d, 0xc1, 0x33, 0xe6, 0x3c, 0xeb, 0x25, 0x3e, 0x3d,
  0xab, 0xdf, 0xf5, 0x3c, 0x64, 0x74, 0x36, 0x3d, 0x97, 0x58, 0x11, 0x3d,
  0x12, 0x00, 0x00, 0x00, 0x74, 0x66, 0x6c, 0x2e, 0x70, 0x73, 0x65, 0x75,
  0x64, 0x6f, 0x5f, 0x71, 0x63, 0x6f, 0x6e, 0x73, 0x74, 0x33, 0x00, 0x00,
  0x04, 0x00, 0x00, 0x00, 0x18, 0x00, 0x00, 0x00, 0x01, 0x00, 0x00, 0x00,
  0x01, 0x00, 0x00, 0x00, 0x10, 0x00, 0x00, 0x00, 0xf2, 0xfc, 0xff, 0xff,
  0x00, 0x00, 0x00, 0x01, 0x14, 0x00, 0x00, 0x00, 0x44, 0x01, 0x00, 0x00,
  0x05, 0x00, 0x00, 0x00, 0x00, 0x00, 0x00, 0x02, 0x50, 0x01, 0x00, 0x00,
  0x6c, 0xfc, 0xff, 0xff, 0x08, 0x00, 0x00, 0x00, 0xc8, 0x00, 0x00, 0x00,
  0x18, 0x00, 0x00, 0x00, 0x00, 0x00, 0x00, 0x00, 0x00, 0x00, 0x00, 0x00,
  0x00, 0x00, 0x00, 0x00, 0x00, 0x00, 0x00, 0x00, 0x00, 0x00, 0x00, 0x00,
  0x00, 0x00, 0x00, 0x00, 0x00, 0x00, 0x00, 0x00, 0x00, 0x00, 0x00, 0x00,
  0x00, 0x00, 0x00, 0x00, 0x00, 0x00, 0x00, 0x00, 0x00, 0x00, 0x00, 0x00,
  0x00, 0x00, 0x00, 0x00, 0x00, 0x00, 0x00, 0x00, 0x00, 0x00, 0x00, 0x00,
  0x00, 0x00, 0x00, 0x00, 0x00, 0x00, 0x00, 0x00, 0x00, 0x00, 0x00, 0x00,
  0x00, 0x00, 0x00, 0x00, 0x00, 0x00, 0x00, 0x00, 0x00, 0x00, 0x00, 0x00,
  0x00, 0x00, 0x00, 0x00, 0x00, 0x00, 0x00, 0x00, 0x00, 0x00, 0x00, 0x00,
  0x00, 0x00, 0x00, 0x00, 0x00, 0x00, 0x00, 0x00, 0x00, 0x00, 0x00, 0x00,
  0x00, 0x00, 0x00, 0x00, 0x00, 0x00, 0x00, 0x00, 0x00, 0x00, 0x00, 0x00,
  0x00, 0x00, 0x00, 0x00, 0x00, 0x00, 0x00, 0x00, 0x00, 0x00, 0x00, 0x00,
  0x00, 0x00, 0x00, 0x00, 0x00, 0x00, 0x00, 0x00, 0x00, 0x00, 0x00, 0x00,
  0x00, 0x00, 0x00, 0x00, 0x00, 0x00, 0x00, 0x00, 0x00, 0x00, 0x00, 0x00,
  0x00, 0x00, 0x00, 0x00, 0x00, 0x00, 0x00, 0x00, 0x00, 0x00, 0x00, 0x00,
  0x00, 0x00, 0x00, 0x00, 0x00, 0x00, 0x00, 0x00, 0x00, 0x00, 0x00, 0x00,
  0x00, 0x00, 0x00, 0x00, 0x00, 0x00, 0x00, 0x00, 0x00, 0x00, 0x00, 0x00,
  0x00, 0x00, 0x00, 0x00, 0x18, 0x00, 0x00, 0x00, 0x5f, 0x75, 0x48, 0x3a,
  0x86, 0xa1, 0x4a, 0x3a, 0x2b, 0x2d, 0x75, 0x3a, 0x5d, 0xac, 0xae, 0x3a,
  0xb6, 0xf1, 0x82, 0x3a, 0x92, 0xa6, 0xba, 0x3a, 0xf7, 0x36, 0x41, 0x3a,
  0x16, 0x42, 0x48, 0x3a, 0x8d, 0x55, 0x3d, 0x3a, 0xc9, 0x26, 0x3e, 0x3a,
  0x89, 0x52, 0x65, 0x3a, 0xd1, 0x23, 0x5a, 0x3a, 0x53, 0x2b, 0x5b, 0x3a,
  0x8c, 0x07, 0xad, 0x3a, 0x01, 0x63, 0x85, 0x3a, 0x9b, 0x1d, 0x2a, 0x3a,
  0xc4, 0x3b, 0xbe, 0x3a, 0xa9, 0xe1, 0x4e, 0x3a, 0xe2, 0xa5, 0x81, 0x3a,
  0xc1, 0x18, 0x45, 0x3a, 0x87, 0xcd, 0xa2, 0x3a, 0xb7, 0x83, 0x52, 0x3a,
  0x3d, 0x37, 0x9c, 0x3a, 0x37, 0xe3, 0x78, 0x3a, 0x12, 0x00, 0x00, 0x00,
  0x74, 0x66, 0x6c, 0x2e, 0x70, 0x73, 0x65, 0x75, 0x64, 0x6f, 0x5f, 0x71,
  0x63, 0x6f, 0x6e, 0x73, 0x74, 0x32, 0x00, 0x00, 0x01, 0x00, 0x00, 0x00,
  0x18, 0x00, 0x00, 0x00, 0x62, 0xfe, 0xff, 0xff, 0x00, 0x00, 0x00, 0x01,
  0x14, 0x00, 0x00, 0x00, 0xa0, 0x00, 0x00, 0x00, 0x04, 0x00, 0x00, 0x00,
  0x00, 0x00, 0x00, 0x09, 0xac, 0x00, 0x00, 0x00, 0xdc, 0xfd, 0xff, 0xff,
  0x08, 0x00, 0x00, 0x00, 0x5c, 0x00, 0x00, 0x00, 0x0a, 0x00, 0x00, 0x00,
  0x00, 0x00, 0x00, 0x00, 0x00, 0x00, 0x00, 0x00, 0x00, 0x00, 0x00, 0x00,
  0x00, 0x00, 0x00, 0x00, 0x00, 0x00, 0x00, 0x00, 0x00, 0x00, 0x00, 0x00,
  0x00, 0x00, 0x00, 0x00, 0x00, 0x00, 0x00, 0x00, 0x00, 0x00, 0x00, 0x00,
  0x00, 0x00, 0x00, 0x00, 0x00, 0x00, 0x00, 0x00, 0x00, 0x00, 0x00, 0x00,
  0x00, 0x00, 0x00, 0x00, 0x00, 0x00, 0x00, 0x00, 0x00, 0x00, 0x00, 0x00,
  0x00, 0x00, 0x00, 0x00, 0x00, 0x00, 0x00, 0x00, 0x00, 0x00, 0x00, 0x00,
  0x00, 0x00, 0x00, 0x00, 0x00, 0x00, 0x00, 0x00, 0x00, 0x00, 0x00, 0x00,
  0x0a, 0x00, 0x00, 0x00, 0xff, 0x05, 0x7e, 0x3c, 0x43, 0xf2, 0xa3, 0x3c,
  0x1c, 0x7f, 0x2e, 0x3c, 0x6f, 0xcc, 0xaf, 0x3c, 0xb4, 0x5c, 0x83, 0x3c,
  0x97, 0xba, 0x85, 0x3c, 0x94, 0x31, 0x83, 0x3c, 0x12, 0xa4, 0x89, 0x3c,
  0x0d, 0x18, 0x7b, 0x3c, 0x93, 0x75, 0x69, 0x3c, 0x12, 0x00, 0x00, 0x00,
  0x74, 0x66, 0x6c, 0x2e, 0x70, 0x73, 0x65, 0x75, 0x64, 0x6f, 0x5f, 0x71,
  0x63, 0x6f, 0x6e, 0x73, 0x74, 0x31, 0x00, 0x00, 0x02, 0x00, 0x00, 0x00,
  0x0a, 0x00, 0x00, 0x00, 0x18, 0x00, 0x00, 0x00, 0x32, 0xff, 0xff, 0xff,
  0x00, 0x00, 0x00, 0x01, 0x14, 0x00, 0x00, 0x00, 0xa0, 0x00, 0x00, 0x00,
  0x03, 0x00, 0x00, 0x00, 0x00, 0x00, 0x00, 0x02, 0xac, 0x00, 0x00, 0x00,
  0xac, 0xfe, 0xff, 0xff, 0x08, 0x00, 0x00, 0x00, 0x5c, 0x00, 0x00, 0x00,
  0x0a, 0x00, 0x00, 0x00, 0x00, 0x00, 0x00, 0x00, 0x00, 0x00, 0x00, 0x00,
  0x00, 0x00, 0x00, 0x00, 0x00, 0x00, 0x00, 0x00, 0x00, 0x00, 0x00, 0x00,
  0x00, 0x00, 0x00, 0x00, 0x00, 0x00, 0x00, 0x00, 0x00, 0x00, 0x00, 0x00,
  0x00, 0x00, 0x00, 0x00, 0x00, 0x00, 0x00, 0x00, 0x00, 0x00, 0x00, 0x00,
  0x00, 0x00, 0x00, 0x00, 0x00, 0x00, 0x00, 0x00, 0x00, 0x00, 0x00, 0x00,
  0x00, 0x00, 0x00, 0x00, 0x00, 0x00, 0x00, 0x00, 0x00, 0x00, 0x00, 0x00,
  0x00, 0x00, 0x00, 0x00, 0x00, 0x00, 0x00, 0x00, 0x00, 0x00, 0x00, 0x00,
  0x00, 0x00, 0x00, 0x00, 0x0a, 0x00, 0x00, 0x00, 0x31, 0x07, 0x92, 0x39,
  0x1d, 0x7e, 0xbc, 0x39, 0x56, 0x9f, 0x48, 0x39, 0x91, 0x1e, 0xca, 0x39,
  0xa5, 0x07, 0x97, 0x39, 0x3e, 0xc0, 0x99, 0x39, 0x10, 0xd6, 0x96, 0x39,
  0xab, 0x3f, 0x9e, 0x39, 0x14, 0x58, 0x90, 0x39, 0xe2, 0x34, 0x86, 0x39,
  0x11, 0x00, 0x00, 0x00, 0x74, 0x66, 0x6c, 0x2e, 0x70, 0x73, 0x65, 0x75,
  0x64, 0x6f, 0x5f, 0x71, 0x63, 0x6f, 0x6e, 0x73, 0x74, 0x00, 0x00, 0x00,
  0x01, 0x00, 0x00, 0x00, 0x0a, 0x00, 0x00, 0x00, 0x00, 0x00, 0x16, 0x00,
  0x1c, 0x00, 0x18, 0x00, 0x17, 0x00, 0x10, 0x00, 0x0c, 0x00, 0x08, 0x00,
  0x00, 0x00, 0x00, 0x00, 0x00, 0x00, 0x07, 0x00, 0x16, 0x00, 0x00, 0x00,
  0x00, 0x00, 0x00, 0x01, 0x18, 0x00, 0x00, 0x00, 0x18, 0x00, 0x00, 0x00,
  0x02, 0x00, 0x00, 0x00, 0x00, 0x00, 0x00, 0x02, 0x20, 0x00, 0x00, 0x00,
  0x04, 0x00, 0x04, 0x00, 0x04, 0x00, 0x00, 0x00, 0x0e, 0x00, 0x00, 0x00,
  0x61, 0x72, 0x69, 0x74, 0x68, 0x2e, 0x63, 0x6f, 0x6e, 0x73, 0x74, 0x61,
  0x6e, 0x74, 0x00, 0x00, 0x01, 0x00, 0x00, 0x00, 0x02, 0x00, 0x00, 0x00,
  0x00, 0x00, 0x16, 0x00, 0x20, 0x00, 0x1c, 0x00, 0x1b, 0x00, 0x14, 0x00,
  0x10, 0x00, 0x0c, 0x00, 0x00, 0x00, 0x00, 0x00, 0x08, 0x00, 0x07, 0x00,
  0x16, 0x00, 0x00, 0x00, 0x00, 0x00, 0x00, 0x01, 0x18, 0x00, 0x00, 0x00,
  0x34, 0x00, 0x00, 0x00, 0x50, 0x00, 0x00, 0x00, 0x01, 0x00, 0x00, 0x00,
  0x00, 0x00, 0x00, 0x09, 0x64, 0x00, 0x00, 0x00, 0x04, 0x00, 0x00, 0x00,
  0xff, 0xff, 0xff, 0xff, 0x1c, 0x00, 0x00, 0x00, 0x1c, 0x00, 0x00, 0x00,
  0x01, 0x00, 0x00, 0x00, 0x0c, 0x00, 0x0c, 0x00, 0x00, 0x00, 0x00, 0x00,
  0x08, 0x00, 0x04, 0x00, 0x0c, 0x00, 0x00, 0x00, 0x08, 0x00, 0x00, 0x00,
  0x10, 0x00, 0x00, 0x00, 0x01, 0x00, 0x00, 0x00, 0x80, 0xff, 0xff, 0xff,
  0xff, 0xff, 0xff, 0xff, 0x01, 0x00, 0x00, 0x00, 0x81, 0x80, 0x80, 0x3b,
  0x19, 0x00, 0x00, 0x00, 0x73, 0x65, 0x72, 0x76, 0x69, 0x6e, 0x67, 0x5f,
  0x64, 0x65, 0x66, 0x61, 0x75, 0x6c, 0x74, 0x5f, 0x69, 0x6e, 0x70, 0x75,
  0x74, 0x5f, 0x31, 0x3a, 0x30, 0x00, 0x00, 0x00, 0x04, 0x00, 0x00, 0x00,
  0x01, 0x00, 0x00, 0x00, 0x1c, 0x00, 0x00, 0x00, 0x1c, 0x00, 0x00, 0x00,
  0x01, 0x00, 0x00, 0x00, 0x05, 0x00, 0x00, 0x00, 0x60, 0x00, 0x00, 0x00,
  0x40, 0x00, 0x00, 0x00, 0x2c, 0x00, 0x00, 0x00, 0x18, 0x00, 0x00, 0x00,
  0x04, 0x00, 0x00, 0x00, 0xc0, 0xff, 0xff, 0xff, 0x19, 0x00, 0x00, 0x00,
  0x02, 0x00, 0x00, 0x00, 0x00, 0x00, 0x00, 0x19, 0xd0, 0xff, 0xff, 0xff,
  0x09, 0x00, 0x00, 0x00, 0x04, 0x00, 0x00, 0x00, 0x00, 0x00, 0x00, 0x09,
  0xe0, 0xff, 0xff, 0xff, 0x28, 0x00, 0x00, 0x00, 0x02, 0x00, 0x00, 0x00,
  0x00, 0x00, 0x00, 0x28, 0xf0, 0xff, 0xff, 0xff, 0x04, 0x00, 0x00, 0x00,
  0x03, 0x00, 0x00, 0x00, 0x00, 0x00, 0x00, 0x04, 0x0c, 0x00, 0x10, 0x00,
  0x0f, 0x00, 0x00, 0x00, 0x08, 0x00, 0x04, 0x00, 0x0c, 0x00, 0x00, 0x00,
  0x03, 0x00, 0x00, 0x00, 0x03, 0x00, 0x00, 0x00, 0x00, 0x00, 0x00, 0x03
};

const unsigned int mnist_qat_model_tflite_len = 8184;
  