#include "model_data.h"

#ifdef __has_attribute
#define HAVE_ATTRIBUTE(x) __has_attribute(x)
#else
#define HAVE_ATTRIBUTE(x) 0
#endif
#if HAVE_ATTRIBUTE(aligned) || (defined(__GNUC__) && !defined(__clang__))
#define DATA_ALIGN_ATTRIBUTE __attribute__((aligned(4)))
#else
#define DATA_ALIGN_ATTRIBUTE
#endif

const unsigned char mnist_model_tflite[] DATA_ALIGN_ATTRIBUTE = {
  0x1c, 0x00, 0x00, 0x00, 0x54, 0x46, 0x4c, 0x33, 0x14, 0x00, 0x20, 0x00,
  0x1c, 0x00, 0x18, 0x00, 0x14, 0x00, 0x10, 0x00, 0x0c, 0x00, 0x00, 0x00,
  0x08, 0x00, 0x04, 0x00, 0x14, 0x00, 0x00, 0x00, 0x1c, 0x00, 0x00, 0x00,
  0x8c, 0x00, 0x00, 0x00, 0xe4, 0x00, 0x00, 0x00, 0x9c, 0x08, 0x00, 0x00,
  0xac, 0x08, 0x00, 0x00, 0x18, 0x1f, 0x00, 0x00, 0x03, 0x00, 0x00, 0x00,
  0x01, 0x00, 0x00, 0x00, 0x10, 0x00, 0x00, 0x00, 0x00, 0x00, 0x0a, 0x00,
  0x10, 0x00, 0x0c, 0x00, 0x08, 0x00, 0x04, 0x00, 0x0a, 0x00, 0x00, 0x00,
  0x0c, 0x00, 0x00, 0x00, 0x1c, 0x00, 0x00, 0x00, 0x38, 0x00, 0x00, 0x00,
  0x0f, 0x00, 0x00, 0x00, 0x73, 0x65, 0x72, 0x76, 0x69, 0x6e, 0x67, 0x5f,
  0x64, 0x65, 0x66, 0x61, 0x75, 0x6c, 0x74, 0x00, 0x01, 0x00, 0x00, 0x00,
  0x04, 0x00, 0x00, 0x00, 0x9c, 0xff, 0xff, 0xff, 0x15, 0x00, 0x00, 0x00,
  0x04, 0x00, 0x00, 0x00, 0x07, 0x00, 0x00, 0x00, 0x64, 0x65, 0x6e, 0x73,
  0x65, 0x5f, 0x38, 0x00, 0x01, 0x00, 0x00, 0x00, 0x04, 0x00, 0x00, 0x00,
  0x46, 0xf7, 0xff, 0xff, 0x04, 0x00, 0x00, 0x00, 0x07, 0x00, 0x00, 0x00,
  0x69, 0x6e, 0x70, 0x75, 0x74, 0x5f, 0x39, 0x00, 0x02, 0x00, 0x00, 0x00,
  0x34, 0x00, 0x00, 0x00, 0x04, 0x00, 0x00, 0x00, 0xdc, 0xff, 0xff, 0xff,
  0x18, 0x00, 0x00, 0x00, 0x04, 0x00, 0x00, 0x00, 0x13, 0x00, 0x00, 0x00,
  0x43, 0x4f, 0x4e, 0x56, 0x45, 0x52, 0x53, 0x49, 0x4f, 0x4e, 0x5f, 0x4d,
  0x45, 0x54, 0x41, 0x44, 0x41, 0x54, 0x41, 0x00, 0x08, 0x00, 0x0c, 0x00,
  0x08, 0x00, 0x04, 0x00, 0x08, 0x00, 0x00, 0x00, 0x17, 0x00, 0x00, 0x00,
  0x04, 0x00, 0x00, 0x00, 0x13, 0x00, 0x00, 0x00, 0x6d, 0x69, 0x6e, 0x5f,
  0x72, 0x75, 0x6e, 0x74, 0x69, 0x6d, 0x65, 0x5f, 0x76, 0x65, 0x72, 0x73,
  0x69, 0x6f, 0x6e, 0x00, 0x19, 0x00, 0x00, 0x00, 0xb4, 0x07, 0x00, 0x00,
  0xac, 0x07, 0x00, 0x00, 0x94, 0x07, 0x00, 0x00, 0x5c, 0x07, 0x00, 0x00,
  0x5c, 0x06, 0x00, 0x00, 0xec, 0x05, 0x00, 0x00, 0x5c, 0x04, 0x00, 0x00,
  0x0c, 0x04, 0x00, 0x00, 0x6c, 0x03, 0x00, 0x00, 0x1c, 0x03, 0x00, 0x00,
  0x4c, 0x02, 0x00, 0x00, 0x0c, 0x02, 0x00, 0x00, 0x90, 0x01, 0x00, 0x00,
  0x50, 0x01, 0x00, 0x00, 0xd4, 0x00, 0x00, 0x00, 0xcc, 0x00, 0x00, 0x00,
  0xc4, 0x00, 0x00, 0x00, 0xbc, 0x00, 0x00, 0x00, 0xb4, 0x00, 0x00, 0x00,
  0xac, 0x00, 0x00, 0x00, 0xa4, 0x00, 0x00, 0x00, 0x9c, 0x00, 0x00, 0x00,
  0x94, 0x00, 0x00, 0x00, 0x74, 0x00, 0x00, 0x00, 0x04, 0x00, 0x00, 0x00,
  0x1e, 0xf8, 0xff, 0xff, 0x04, 0x00, 0x00, 0x00, 0x60, 0x00, 0x00, 0x00,
  0x0c, 0x00, 0x00, 0x00, 0x08, 0x00, 0x0e, 0x00, 0x08, 0x00, 0x04, 0x00,
  0x08, 0x00, 0x00, 0x00, 0x10, 0x00, 0x00, 0x00, 0x28, 0x00, 0x00, 0x00,
  0x00, 0x00, 0x06, 0x00, 0x08, 0x00, 0x04, 0x00, 0x06, 0x00, 0x00, 0x00,
  0x04, 0x00, 0x00, 0x00, 0x01, 0x00, 0x00, 0x00, 0xeb, 0x03, 0x00, 0x00,
  0x0c, 0x00, 0x18, 0x00, 0x14, 0x00, 0x10, 0x00, 0x0c, 0x00, 0x04, 0x00,
  0x0c, 0x00, 0x00, 0x00, 0x06, 0xab, 0xbf, 0x65, 0x40, 0x87, 0x9f, 0x75,
  0x02, 0x00, 0x00, 0x00, 0x02, 0x00, 0x00, 0x00, 0x04, 0x00, 0x00, 0x00,
  0x06, 0x00, 0x00, 0x00, 0x32, 0x2e, 0x32, 0x30, 0x2e, 0x30, 0x00, 0x00,
  0x8a, 0xf8, 0xff, 0xff, 0x04, 0x00, 0x00, 0x00, 0x10, 0x00, 0x00, 0x00,
  0x31, 0x2e, 0x31, 0x34, 0x2e, 0x30, 0x00, 0x00, 0x00, 0x00, 0x00, 0x00,
  0x00, 0x00, 0x00, 0x00, 0x80, 0xe3, 0xff, 0xff, 0x84, 0xe3, 0xff, 0xff,
  0x88, 0xe3, 0xff, 0xff, 0x8c, 0xe3, 0xff, 0xff, 0x90, 0xe3, 0xff, 0xff,
  0x94, 0xe3, 0xff, 0xff, 0x98, 0xe3, 0xff, 0xff, 0x9c, 0xe3, 0xff, 0xff,
  0xc6, 0xf8, 0xff, 0xff, 0x04, 0x00, 0x00, 0x00, 0x6c, 0x00, 0x00, 0x00,
  0x76, 0x1d, 0x0f, 0x37, 0xdd, 0xe0, 0x1e, 0x90, 0x81, 0x7f, 0x47, 0x13,
  0x3b, 0x39, 0x2b, 0x03, 0xd9, 0x07, 0x03, 0x27, 0x61, 0x2f, 0x6e, 0x3c,
  0x7f, 0x55, 0x1e, 0x1d, 0xe8, 0x13, 0x4c, 0x49, 0x7f, 0x18, 0x0b, 0x2a,
  0x81, 0xe3, 0x01, 0x02, 0xf8, 0xfa, 0xc6, 0x10, 0x4e, 0xad, 0x01, 0x7f,
  0xc3, 0x06, 0x5b, 0x33, 0x2a, 0x6d, 0xf1, 0xef, 0x0b, 0x19, 0xf0, 0xfe,
  0xce, 0x81, 0xd1, 0xf6, 0x81, 0xa7, 0x2b, 0x14, 0xdf, 0x03, 0x57, 0x60,
  0x6e, 0x0f, 0x05, 0x7f, 0x40, 0x53, 0x52, 0x28, 0x7e, 0x00, 0x05, 0x17,
  0xfa, 0xfb, 0xf4, 0x81, 0xdf, 0xcc, 0x1b, 0xe5, 0x81, 0x3d, 0xff, 0xec,
  0x46, 0x16, 0x3f, 0x02, 0x2a, 0x7d, 0x29, 0x7f, 0x6c, 0xbb, 0x87, 0x0a,
  0x3e, 0xf9, 0xff, 0xff, 0x04, 0x00, 0x00, 0x00, 0x30, 0x00, 0x00, 0x00,
  0x3c, 0x2c, 0x00, 0x00, 0x36, 0xc9, 0xff, 0xff, 0x90, 0xfd, 0xff, 0xff,
  0xaf, 0x06, 0x00, 0x00, 0x26, 0x1a, 0x00, 0x00, 0x52, 0xee, 0xff, 0xff,
  0xee, 0x3c, 0x00, 0x00, 0x7f, 0x05, 0x00, 0x00, 0x07, 0x1e, 0x00, 0x00,
  0x81, 0x1e, 0x00, 0x00, 0x56, 0x00, 0x00, 0x00, 0x43, 0x00, 0x00, 0x00,
  0x7a, 0xf9, 0xff, 0xff, 0x04, 0x00, 0x00, 0x00, 0x6c, 0x00, 0x00, 0x00,
  0x13, 0x81, 0xb4, 0xe8, 0x9b, 0xf2, 0xbb, 0x3b, 0x96, 0xd3, 0x0d, 0xaf,
  0xfb, 0xa9, 0xc9, 0x2e, 0x81, 0x2c, 0xea, 0x7f, 0x5c, 0xe9, 0x00, 0x81,
  0x81, 0xd7, 0xb3, 0x15, 0xb2, 0xe2, 0xc4, 0x53, 0xb8, 0xf1, 0x52, 0xe7,
  0x57, 0xf4, 0x81, 0xcb, 0x53, 0x0c, 0x5e, 0xa0, 0x81, 0xea, 0x7f, 0xfc,
  0x04, 0xfe, 0x76, 0xcb, 0x66, 0x42, 0x5a, 0xd8, 0x7d, 0xdc, 0x6a, 0xc2,
  0xb5, 0xf0, 0x73, 0x81, 0x34, 0xb6, 0x52, 0x5b, 0xe3, 0x06, 0x53, 0xe2,
  0xde, 0x0b, 0xc7, 0x1d, 0xe7, 0x51, 0xaf, 0x0d, 0x8a, 0x81, 0x6e, 0xf6,
  0x0e, 0x12, 0xa0, 0x15, 0xfd, 0x7f, 0x81, 0xdb, 0xf3, 0x09, 0x1d, 0xdf,
  0xe3, 0x2f, 0xab, 0x11, 0x0d, 0x97, 0xd0, 0x69, 0x8d, 0x03, 0x52, 0xe0,
  0xf2, 0xf9, 0xff, 0xff, 0x04, 0x00, 0x00, 0x00, 0x30, 0x00, 0x00, 0x00,
  0x4b, 0x0c, 0x00, 0x00, 0x7e, 0x1d, 0x00, 0x00, 0xb0, 0x14, 0x00, 0x00,
  0x2d, 0x09, 0x00, 0x00, 0x35, 0x07, 0x00, 0x00, 0x07, 0xf2, 0xff, 0xff,
  0xdd, 0x0f, 0x00, 0x00, 0xdb, 0xe9, 0xff, 0xff, 0xdc, 0x21, 0x00, 0x00,
  0x5a, 0x15, 0x00, 0x00, 0x9c, 0xda, 0xff, 0xff, 0x47, 0x30, 0x00, 0x00,
  0x2e, 0xfa, 0xff, 0xff, 0x04, 0x00, 0x00, 0x00, 0xc0, 0x00, 0x00, 0x00,
  0x49, 0x3b, 0x4f, 0x97, 0x43, 0x26, 0x50, 0xb3, 0x51, 0x10, 0x48, 0x81,
  0x22, 0x50, 0x81, 0x84, 0xaa, 0xf2, 0xc9, 0xdf, 0xbd, 0xb1, 0xe5, 0x08,
  0x6d, 0xd6, 0x42, 0x34, 0x45, 0x09, 0x41, 0x84, 0xc2, 0x32, 0xf4, 0x7f,
  0x19, 0x59, 0x45, 0x81, 0xf7, 0xde, 0xa9, 0x26, 0x49, 0xff, 0x2b, 0x13,
  0x14, 0x08, 0x4a, 0x7f, 0x42, 0x05, 0x2b, 0xe2, 0x0e, 0x06, 0xe7, 0xdc,
  0xc9, 0xd4, 0x2c, 0x26, 0xd7, 0x14, 0xa7, 0x8f, 0x42, 0x7f, 0xb2, 0x1c,
  0x1d, 0xed, 0x26, 0xda, 0x28, 0xfd, 0x24, 0x06, 0x81, 0x39, 0xef, 0xe8,
  0xf0, 0x7f, 0x03, 0x39, 0xf4, 0xe9, 0xb7, 0x13, 0x48, 0xdb, 0x22, 0x05,
  0xfa, 0x46, 0x35, 0x12, 0x11, 0xd1, 0x50, 0x50, 0xcc, 0x13, 0x47, 0x81,
  0x54, 0x0e, 0x81, 0x05, 0xe0, 0x55, 0xdb, 0xf6, 0x55, 0xfa, 0xa7, 0x28,
  0x4b, 0x1b, 0x89, 0x81, 0xef, 0x54, 0xf2, 0x8f, 0x6b, 0x0f, 0x9c, 0x84,
  0xee, 0x36, 0x7f, 0x04, 0x28, 0xfe, 0xe4, 0x13, 0xe7, 0xc7, 0xb3, 0xc5,
  0x7f, 0x29, 0xa3, 0xb4, 0xac, 0xf1, 0x21, 0xd7, 0xae, 0x3d, 0x3e, 0x78,
  0x28, 0x29, 0x11, 0x00, 0xfa, 0x02, 0x24, 0xff, 0x03, 0x53, 0x01, 0x81,
  0xf0, 0xff, 0x2f, 0x30, 0x3e, 0xfd, 0x04, 0xf3, 0xad, 0x38, 0xe3, 0x7f,
  0x0b, 0x0d, 0xee, 0x14, 0x02, 0xe0, 0xd5, 0x17, 0xa2, 0x7f, 0x29, 0xec,
  0xfa, 0xfa, 0xff, 0xff, 0x04, 0x00, 0x00, 0x00, 0x40, 0x00, 0x00, 0x00,
  0x76, 0xf2, 0xff, 0xff, 0x08, 0x1a, 0x00, 0x00, 0x1f, 0xe8, 0xff, 0xff,
  0xb9, 0xff, 0xff, 0xff, 0x0d, 0xf1, 0xff, 0xff, 0x86, 0x06, 0x00, 0x00,
  0xba, 0xf4, 0xff, 0xff, 0x85, 0xef, 0xff, 0xff, 0x45, 0x07, 0x00, 0x00,
  0xd7, 0x01, 0x00, 0x00, 0x62, 0x15, 0x00, 0x00, 0x6c, 0xf7, 0xff, 0xff,
  0x0c, 0x0a, 0x00, 0x00, 0x14, 0x00, 0x00, 0x00, 0x0c, 0xe7, 0xff, 0xff,
  0xb7, 0x10, 0x00, 0x00, 0x46, 0xfb, 0xff, 0xff, 0x04, 0x00, 0x00, 0x00,
  0x90, 0x00, 0x00, 0x00, 0xc2, 0x5b, 0xa4, 0xd6, 0xaf, 0x06, 0x37, 0x53,
  0x66, 0xc8, 0x47, 0x2b, 0x41, 0x3a, 0x21, 0x2d, 0x89, 0x3b, 0x86, 0x8f,
  0xbd, 0x22, 0x7e, 0x40, 0x13, 0x81, 0x44, 0x44, 0x7f, 0x1a, 0x33, 0x1f,
  0xb8, 0xea, 0xe2, 0xa6, 0xa2, 0xfc, 0x62, 0x3e, 0xb4, 0xb5, 0x13, 0x22,
  0x5d, 0xe1, 0x40, 0x30, 0x97, 0x7a, 0xa3, 0x01, 0xc4, 0x1f, 0x5a, 0x67,
  0x6a, 0xd7, 0x73, 0x61, 0x72, 0xcf, 0x15, 0xfd, 0xe7, 0x7f, 0xc3, 0xa4,
  0xde, 0x1b, 0x7f, 0x7f, 0x06, 0x9f, 0x75, 0x7f, 0x60, 0xd8, 0x1a, 0x24,
  0x81, 0x3f, 0xd6, 0x81, 0x81, 0x1e, 0x72, 0x57, 0xb2, 0xa2, 0x63, 0x52,
  0x32, 0xa7, 0xef, 0x28, 0xc3, 0x53, 0x9f, 0x12, 0xf3, 0xfc, 0x15, 0xfd,
  0x23, 0xff, 0x3b, 0x28, 0x2b, 0xa5, 0x96, 0x81, 0x88, 0x59, 0x81, 0xf5,
  0xc0, 0xbb, 0x46, 0x57, 0xe2, 0xbd, 0x7f, 0x56, 0xf8, 0xfb, 0x81, 0x91,
  0xcf, 0x27, 0xc2, 0xcc, 0xd6, 0x81, 0x39, 0x49, 0x81, 0xa1, 0x6e, 0x33,
  0xd4, 0x81, 0xb6, 0xad, 0xe2, 0xfb, 0xff, 0xff, 0x04, 0x00, 0x00, 0x00,
  0x40, 0x00, 0x00, 0x00, 0x30, 0x3a, 0x00, 0x00, 0xf1, 0xdc, 0xff, 0xff,
  0x5b, 0x2f, 0x00, 0x00, 0x3a, 0x22, 0x00, 0x00, 0xd9, 0x26, 0x00, 0x00,
  0xc1, 0x02, 0x00, 0x00, 0xca, 0xfe, 0xff, 0xff, 0xc9, 0xdc, 0xff, 0xff,
  0xd3, 0xfc, 0xff, 0xff, 0x6d, 0x3a, 0x00, 0x00, 0xc3, 0xeb, 0xff, 0xff,
  0x06, 0xff, 0xff, 0xff, 0x98, 0xd0, 0xff, 0xff, 0xa0, 0x19, 0x00, 0x00,
  0x68, 0xee, 0xff, 0xff, 0xca, 0x01, 0x00, 0x00, 0x2e, 0xfc, 0xff, 0xff,
  0x04, 0x00, 0x00, 0x00, 0x80, 0x01, 0x00, 0x00, 0x0f, 0x2a, 0x01, 0x7f,
  0x10, 0xf4, 0x1d, 0xe1, 0x07, 0x0b, 0xb2, 0x5e, 0xfd, 0x49, 0xfe, 0xaf,
  0xbe, 0xb2, 0xea, 0xd1, 0x92, 0xba, 0x09, 0x06, 0xe5, 0xa3, 0x27, 0x24,
  0x15, 0xa9, 0xbd, 0x7f, 0xd7, 0x50, 0x2d, 0xfb, 0x81, 0xf9, 0x07, 0xed,
  0x27, 0x84, 0xb8, 0xec, 0xfb, 0xc6, 0x19, 0x36, 0x86, 0x81, 0x9e, 0xdb,
  0xec, 0xeb, 0xe5, 0x3b, 0xe9, 0xce, 0x63, 0x63, 0x48, 0xbf, 0xd6, 0x49,
  0x81, 0xb1, 0x06, 0xfb, 0x4d, 0x07, 0xd9, 0xb8, 0xba, 0xc0, 0xf5, 0xe2,
  0x50, 0x06, 0xf2, 0x9c, 0x14, 0xda, 0xe2, 0x04, 0x7e, 0xc3, 0x0d, 0x55,
  0x3d, 0x10, 0xe0, 0x7f, 0xed, 0xff, 0x1d, 0xbc, 0x37, 0xd8, 0x04, 0x6f,
  0x45, 0x28, 0xdb, 0x2b, 0x4f, 0x7f, 0x50, 0xe8, 0xe2, 0x27, 0x1e, 0x95,
  0x3e, 0xeb, 0x48, 0xe2, 0xbb, 0x04, 0x1a, 0xd6, 0xd3, 0xec, 0xea, 0x0b,
  0x2b, 0x06, 0x7f, 0x7c, 0xc2, 0x4c, 0x59, 0xde, 0x05, 0x7f, 0xbc, 0x10,
  0xe9, 0x09, 0x5a, 0xc5, 0x35, 0x26, 0x43, 0x8c, 0xf1, 0x1f, 0xf2, 0xf5,
  0x5a, 0xd3, 0x63, 0xeb, 0x32, 0x53, 0xcc, 0xec, 0x81, 0x88, 0xdc, 0xcd,
  0x70, 0x1d, 0x62, 0xf3, 0x90, 0x23, 0x0c, 0xd6, 0xf0, 0x15, 0xf2, 0xf3,
  0x22, 0x2d, 0x63, 0x7f, 0xfd, 0x20, 0xed, 0x32, 0xeb, 0xfc, 0xcb, 0x62,
  0x7f, 0x6d, 0x11, 0x03, 0xb8, 0x9e, 0x9c, 0xa1, 0x5c, 0x56, 0x6b, 0x41,
  0xea, 0x3c, 0x65, 0xb8, 0xd8, 0xfd, 0x90, 0x00, 0x22, 0x15, 0x6c, 0x7f,
  0x81, 0xaa, 0x1f, 0x2e, 0x55, 0xd2, 0xe5, 0xd5, 0xd4, 0xd4, 0xde, 0x26,
  0x47, 0x4d, 0xfa, 0x94, 0xe8, 0xee, 0x6e, 0xdf, 0xfd, 0x1c, 0x4b, 0x81,
  0xbe, 0xc5, 0xf1, 0xb4, 0xfb, 0xf1, 0xf0, 0xec, 0x95, 0x2d, 0x59, 0x44,
  0xff, 0xe2, 0x0f, 0xda, 0xdb, 0xaa, 0x81, 0xf0, 0x2e, 0x20, 0xf6, 0xe2,
  0xae, 0xe5, 0xf2, 0xc5, 0x81, 0xff, 0xfb, 0x45, 0x05, 0xdd, 0x2d, 0xe0,
  0xd9, 0x94, 0xae, 0x64, 0x81, 0xc1, 0x32, 0x0e, 0xc3, 0x04, 0xe6, 0x46,
  0x39, 0x95, 0x02, 0x66, 0x2b, 0x58, 0xf2, 0x12, 0xaa, 0x3e, 0x42, 0xa8,
  0x2e, 0x56, 0xeb, 0xbd, 0xcb, 0xd0, 0x0e, 0xc4, 0x1e, 0x42, 0x7f, 0xc3,
  0xfd, 0x7f, 0x0f, 0x05, 0x01, 0x0a, 0x01, 0x09, 0x7b, 0xe4, 0xde, 0xee,
  0xaf, 0x16, 0x37, 0x0e, 0x16, 0xfd, 0x18, 0xd4, 0x0d, 0xf6, 0xca, 0xd9,
  0x64, 0x71, 0xf2, 0xe7, 0x92, 0x81, 0xc5, 0xae, 0x48, 0xbb, 0x21, 0x41,
  0xdd, 0x23, 0xe8, 0x0f, 0xcd, 0x32, 0x4c, 0x7f, 0x3d, 0x44, 0x49, 0x0b,
  0x58, 0x3d, 0x03, 0x60, 0xff, 0x06, 0x00, 0xf8, 0x7f, 0x40, 0xed, 0x01,
  0xd6, 0x43, 0x42, 0x14, 0xea, 0x02, 0xf1, 0x01, 0x7f, 0xc0, 0x6d, 0xd5,
  0x1d, 0x31, 0xb2, 0x05, 0x96, 0xb9, 0xc1, 0xbc, 0xba, 0xfd, 0xff, 0xff,
  0x04, 0x00, 0x00, 0x00, 0x60, 0x00, 0x00, 0x00, 0x61, 0xfa, 0xff, 0xff,
  0xc9, 0x1b, 0x00, 0x00, 0x07, 0x16, 0x00, 0x00, 0x71, 0x12, 0x00, 0x00,
  0xef, 0x15, 0x00, 0x00, 0xdb, 0xf7, 0xff, 0xff, 0x1b, 0xea, 0xff, 0xff,
  0xd8, 0xfc, 0xff, 0xff, 0x5c, 0xf9, 0xff, 0xff, 0xa7, 0x07, 0x00, 0x00,
  0x4c, 0xf4, 0xff, 0xff, 0x6b, 0x00, 0x00, 0x00, 0x90, 0xf1, 0xff, 0xff,
  0x50, 0x0a, 0x00, 0x00, 0xc9, 0x11, 0x00, 0x00, 0xc1, 0x0d, 0x00, 0x00,
  0xf3, 0x16, 0x00, 0x00, 0x09, 0x04, 0x00, 0x00, 0xd2, 0x04, 0x00, 0x00,
  0x7b, 0xfd, 0xff, 0xff, 0x40, 0x0c, 0x00, 0x00, 0x23, 0xec, 0xff, 0xff,
  0x94, 0xed, 0xff, 0xff, 0x43, 0x09, 0x00, 0x00, 0x26, 0xfe, 0xff, 0xff,
  0x04, 0x00, 0x00, 0x00, 0xf0, 0x00, 0x00, 0x00, 0xda, 0xf5, 0xa4, 0x24,
  0x5d, 0x81, 0x53, 0xc4, 0x5d, 0xea, 0x19, 0xec, 0xf7, 0xec, 0x3e, 0xa4,
  0xeb, 0xa1, 0x4b, 0xcf, 0x50, 0xda, 0x26, 0xf7, 0xbe, 0xa8, 0x00, 0xd8,
  0x11, 0x57, 0xf4, 0x0e, 0x7c, 0x84, 0xe8, 0xe2, 0x89, 0x57, 0xf6, 0x33,
  0x99, 0x66, 0x65, 0x27, 0x9b, 0x44, 0xcd, 0x81, 0x2d, 0x3c, 0x12, 0xf7,
  0xca, 0xfc, 0xf7, 0x65, 0xd4, 0xed, 0x7f, 0xcb, 0x5c, 0xe4, 0x0e, 0x0b,
  0xfc, 0x00, 0x88, 0xa3, 0xdb, 0x5e, 0x36, 0x9d, 0x62, 0x11, 0xac, 0x33,
  0xce, 0x6e, 0xf4, 0x14, 0x81, 0x21, 0xd2, 0x2f, 0xef, 0xfc, 0xa5, 0xa0,
  0xd0, 0x16, 0x96, 0xa0, 0xfd, 0x4f, 0x35, 0x29, 0x0f, 0x22, 0x26, 0x1b,
  0x52, 0xd3, 0x9a, 0x06, 0xe6, 0xc0, 0xfc, 0x81, 0xec, 0x37, 0x36, 0x3b,
  0xfd, 0x08, 0x09, 0xe9, 0xed, 0xe2, 0xcc, 0xfe, 0x24, 0xdc, 0x35, 0xce,
  0x81, 0x0d, 0x21, 0xd4, 0x0f, 0xeb, 0xf5, 0x74, 0xf1, 0x93, 0x88, 0x05,
  0x00, 0x12, 0x1b, 0x5b, 0x4e, 0xeb, 0x5d, 0xb8, 0xa3, 0x81, 0x4d, 0x88,
  0xfe, 0x8a, 0x9d, 0x68, 0x40, 0x42, 0x7a, 0xb0, 0x61, 0x89, 0x63, 0xe7,
  0xcb, 0xda, 0x7a, 0x57, 0xd9, 0xaf, 0x1f, 0xdb, 0xea, 0x72, 0x09, 0x73,
  0xe6, 0x2d, 0xc5, 0xb8, 0x25, 0x8d, 0xbe, 0x2c, 0x81, 0xea, 0x11, 0xcc,
  0x78, 0x4d, 0xdc, 0xd3, 0xbd, 0x2b, 0xb8, 0xb8, 0x36, 0xb4, 0xf6, 0x95,
  0xc5, 0xef, 0x1e, 0xb6, 0xd8, 0x7f, 0x8f, 0x0e, 0x28, 0xf9, 0x33, 0x3b,
  0xb9, 0xe9, 0xdf, 0x19, 0x06, 0x8b, 0x16, 0x7e, 0x85, 0x45, 0x27, 0x32,
  0x1a, 0x21, 0xd6, 0xe3, 0xa2, 0x67, 0xc4, 0xd9, 0xb5, 0x0c, 0x28, 0x0b,
  0x47, 0xf4, 0xa7, 0xfc, 0x35, 0x93, 0x81, 0x54, 0x22, 0xff, 0xff, 0xff,
  0x04, 0x00, 0x00, 0x00, 0x28, 0x00, 0x00, 0x00, 0xb0, 0x01, 0x00, 0x00,
  0xe6, 0xfd, 0xff, 0xff, 0x6b, 0xfb, 0xff, 0xff, 0xc5, 0xfd, 0xff, 0xff,
  0xeb, 0x02, 0x00, 0x00, 0xda, 0xfe, 0xff, 0xff, 0xf4, 0xfd, 0xff, 0xff,
  0x7a, 0xff, 0xff, 0xff, 0x0c, 0x00, 0x00, 0x00, 0xa0, 0x05, 0x00, 0x00,
  0x56, 0xff, 0xff, 0xff, 0x04, 0x00, 0x00, 0x00, 0x08, 0x00, 0x00, 0x00,
  0x01, 0x00, 0x00, 0x00, 0x02, 0x00, 0x00, 0x00, 0x44, 0xea, 0xff, 0xff,
  0x48, 0xea, 0xff, 0xff, 0x0f, 0x00, 0x00, 0x00, 0x4d, 0x4c, 0x49, 0x52,
  0x20, 0x43, 0x6f, 0x6e, 0x76, 0x65, 0x72, 0x74, 0x65, 0x64, 0x2e, 0x00,
  0x01, 0x00, 0x00, 0x00, 0x14, 0x00, 0x00, 0x00, 0x00, 0x00, 0x0e, 0x00,
  0x18, 0x00, 0x14, 0x00, 0x10, 0x00, 0x0c, 0x00, 0x08, 0x00, 0x04, 0x00,
  0x0e, 0x00, 0x00, 0x00, 0x14, 0x00, 0x00, 0x00, 0x1c, 0x00, 0x00, 0x00,
  0x50, 0x02, 0x00, 0x00, 0x54, 0x02, 0x00, 0x00, 0x58, 0x02, 0x00, 0x00,
  0x04, 0x00, 0x00, 0x00, 0x6d, 0x61, 0x69, 0x6e, 0x00, 0x00, 0x00, 0x00,
  0x08, 0x00, 0x00, 0x00, 0xec, 0x01, 0x00, 0x00, 0x84, 0x01, 0x00, 0x00,
  0x34, 0x01, 0x00, 0x00, 0xec, 0x00, 0x00, 0x00, 0xac, 0x00, 0x00, 0x00,
  0x78, 0x00, 0x00, 0x00, 0x40, 0x00, 0x00, 0x00, 0x04, 0x00, 0x00, 0x00,
  0xa6, 0xfe, 0xff, 0xff, 0x1c, 0x00, 0x00, 0x00, 0x00, 0x00, 0x00, 0x09,
  0x1c, 0x00, 0x00, 0x00, 0x20, 0x00, 0x00, 0x00, 0x04, 0x00, 0x00, 0x00,
  0x00, 0x00, 0x06, 0x00, 0x08, 0x00, 0x04, 0x00, 0x06, 0x00, 0x00, 0x00,
  0x00, 0x00, 0x80, 0x3f, 0x01, 0x00, 0x00, 0x00, 0x15, 0x00, 0x00, 0x00,
  0x01, 0x00, 0x00, 0x00, 0x14, 0x00, 0x00, 0x00, 0xde, 0xfe, 0xff, 0xff,
  0x14, 0x00, 0x00, 0x00, 0x00, 0x00, 0x00, 0x08, 0x10, 0x00, 0x00, 0x00,
  0x14, 0x00, 0x00, 0x00, 0x03, 0x00, 0x00, 0x00, 0x10, 0xeb, 0xff, 0xff,
  0x01, 0x00, 0x00, 0x00, 0x14, 0x00, 0x00, 0x00, 0x03, 0x00, 0x00, 0x00,
  0x13, 0x00, 0x00, 0x00, 0x03, 0x00, 0x00, 0x00, 0x02, 0x00, 0x00, 0x00,
  0x12, 0xff, 0xff, 0xff, 0x14, 0x00, 0x00, 0x00, 0x00, 0x00, 0x00, 0x1b,
  0x10, 0x00, 0x00, 0x00, 0x14, 0x00, 0x00, 0x00, 0x02, 0x00, 0x00, 0x00,
  0x44, 0xeb, 0xff, 0xff, 0x01, 0x00, 0x00, 0x00, 0x13, 0x00, 0x00, 0x00,
  0x02, 0x00, 0x00, 0x00, 0x12, 0x00, 0x00, 0x00, 0x01, 0x00, 0x00, 0x00,
  0xde, 0xfe, 0xff, 0xff, 0x10, 0x00, 0x00, 0x00, 0x00, 0x00, 0x00, 0x01,
  0x18, 0x00, 0x00, 0x00, 0x1c, 0x00, 0x00, 0x00, 0xd0, 0xfe, 0xff, 0xff,
  0x00, 0x00, 0x00, 0x01, 0x01, 0x00, 0x00, 0x00, 0x01, 0x00, 0x00, 0x00,
  0x01, 0x00, 0x00, 0x00, 0x12, 0x00, 0x00, 0x00, 0x03, 0x00, 0x00, 0x00,
  0x11, 0x00, 0x00, 0x00, 0x05, 0x00, 0x00, 0x00, 0x04, 0x00, 0x00, 0x00,
  0x7e, 0xff, 0xff, 0xff, 0x14, 0x00, 0x00, 0x00, 0x00, 0x00, 0x00, 0x02,
  0x20, 0x00, 0x00, 0x00, 0x24, 0x00, 0x00, 0x00, 0x01, 0x00, 0x00, 0x00,
  0x6e, 0xff, 0xff, 0xff, 0x00, 0x00, 0x00, 0x01, 0x01, 0x00, 0x00, 0x00,
  0x02, 0x00, 0x00, 0x00, 0x02, 0x00, 0x00, 0x00, 0x01, 0x00, 0x00, 0x00,
  0x11, 0x00, 0x00, 0x00, 0x03, 0x00, 0x00, 0x00, 0x10, 0x00, 0x00, 0x00,
  0x07, 0x00, 0x00, 0x00, 0x06, 0x00, 0x00, 0x00, 0x5e, 0xff, 0xff, 0xff,
  0x10, 0x00, 0x00, 0x00, 0x00, 0x00, 0x00, 0x01, 0x18, 0x00, 0x00, 0x00,
  0x1c, 0x00, 0x00, 0x00, 0x50, 0xff, 0xff, 0xff, 0x00, 0x00, 0x00, 0x01,
  0x01, 0x00, 0x00, 0x00, 0x01, 0x00, 0x00, 0x00, 0x01, 0x00, 0x00, 0x00,
  0x10, 0x00, 0x00, 0x00, 0x03, 0x00, 0x00, 0x00, 0x0f, 0x00, 0x00, 0x00,
  0x09, 0x00, 0x00, 0x00, 0x08, 0x00, 0x00, 0x00, 0x00, 0x00, 0x0e, 0x00,
  0x1a, 0x00, 0x14, 0x00, 0x10, 0x00, 0x0c, 0x00, 0x0b, 0x00, 0x04, 0x00,
  0x0e, 0x00, 0x00, 0x00, 0x24, 0x00, 0x00, 0x00, 0x00, 0x00, 0x00, 0x02,
  0x30, 0x00, 0x00, 0x00, 0x34, 0x00, 0x00, 0x00, 0x01, 0x00, 0x00, 0x00,
  0x00, 0x00, 0x0e, 0x00, 0x14, 0x00, 0x00, 0x00, 0x10, 0x00, 0x0c, 0x00,
  0x08, 0x00, 0x07, 0x00, 0x0e, 0x00, 0x00, 0x00, 0x00, 0x00, 0x00, 0x01,
  0x01, 0x00, 0x00, 0x00, 0x01, 0x00, 0x00, 0x00, 0x01, 0x00, 0x00, 0x00,
  0x01, 0x00, 0x00, 0x00, 0x0f, 0x00, 0x00, 0x00, 0x03, 0x00, 0x00, 0x00,
  0x0e, 0x00, 0x00, 0x00, 0x0b, 0x00, 0x00, 0x00, 0x0a, 0x00, 0x00, 0x00,
  0x00, 0x00, 0x0e, 0x00, 0x14, 0x00, 0x00, 0x00, 0x10, 0x00, 0x0c, 0x00,
  0x0b, 0x00, 0x04, 0x00, 0x0e, 0x00, 0x00, 0x00, 0x1c, 0x00, 0x00, 0x00,
  0x00, 0x00, 0x00, 0x01, 0x24, 0x00, 0x00, 0x00, 0x28, 0x00, 0x00, 0x00,
  0x0c, 0x00, 0x10, 0x00, 0x00, 0x00, 0x0c, 0x00, 0x08, 0x00, 0x07, 0x00,
  0x0c, 0x00, 0x00, 0x00, 0x00, 0x00, 0x00, 0x01, 0x02, 0x00, 0x00, 0x00,
  0x02, 0x00, 0x00, 0x00, 0x01, 0x00, 0x00, 0x00, 0x0e, 0x00, 0x00, 0x00,
  0x03, 0x00, 0x00, 0x00, 0x00, 0x00, 0x00, 0x00, 0x0d, 0x00, 0x00, 0x00,
  0x0c, 0x00, 0x00, 0x00, 0x01, 0x00, 0x00, 0x00, 0x15, 0x00, 0x00, 0x00,
  0x01, 0x00, 0x00, 0x00, 0x00, 0x00, 0x00, 0x00, 0x16, 0x00, 0x00, 0x00,
  0x54, 0x13, 0x00, 0x00, 0xf8, 0x12, 0x00, 0x00, 0x10, 0x12, 0x00, 0x00,
  0x3c, 0x11, 0x00, 0x00, 0xc8, 0x0f, 0x00, 0x00, 0x44, 0x0e, 0x00, 0x00,
  0x30, 0x0d, 0x00, 0x00, 0xf4, 0x0b, 0x00, 0x00, 0xe0, 0x0a, 0x00, 0x00,
  0xbc, 0x09, 0x00, 0x00, 0xd8, 0x08, 0x00, 0x00, 0xe0, 0x07, 0x00, 0x00,
  0xf8, 0x06, 0x00, 0x00, 0x04, 0x06, 0x00, 0x00, 0x28, 0x05, 0x00, 0x00,
  0x44, 0x04, 0x00, 0x00, 0x68, 0x03, 0x00, 0x00, 0x84, 0x02, 0x00, 0x00,
  0xa8, 0x01, 0x00, 0x00, 0x1c, 0x01, 0x00, 0x00, 0x80, 0x00, 0x00, 0x00,
  0x04, 0x00, 0x00, 0x00, 0x1a, 0xed, 0xff, 0xff, 0x00, 0x00, 0x00, 0x01,
  0x18, 0x00, 0x00, 0x00, 0x20, 0x00, 0x00, 0x00, 0x3c, 0x00, 0x00, 0x00,
  0x16, 0x00, 0x00, 0x00, 0x00, 0x00, 0x00, 0x09, 0x50, 0x00, 0x00, 0x00,
  0x02, 0x00, 0x00, 0x00, 0xff, 0xff, 0xff, 0xff, 0x0a, 0x00, 0x00, 0x00,
  0xfc, 0xec, 0xff, 0xff, 0x08, 0x00, 0x00, 0x00, 0x10, 0x00, 0x00, 0x00,
  0x01, 0x00, 0x00, 0x00, 0x80, 0xff, 0xff, 0xff, 0xff, 0xff, 0xff, 0xff,
  0x01, 0x00, 0x00, 0x00, 0x00, 0x00, 0x80, 0x3b, 0x19, 0x00, 0x00, 0x00,
  0x53, 0x74, 0x61, 0x74, 0x65, 0x66, 0x75, 0x6c, 0x50, 0x61, 0x72, 0x74,
  0x69, 0x74, 0x69, 0x6f, 0x6e, 0x65, 0x64, 0x43, 0x61, 0x6c, 0x6c, 0x3a,
  0x30, 0x00, 0x00, 0x00, 0x02, 0x00, 0x00, 0x00, 0x01, 0x00, 0x00, 0x00,
  0x0a, 0x00, 0x00, 0x00, 0x92, 0xed, 0xff, 0xff, 0x00, 0x00, 0x00, 0x01,
  0x18, 0x00, 0x00, 0x00, 0x20, 0x00, 0x00, 0x00, 0x40, 0x00, 0x00, 0x00,
  0x15, 0x00, 0x00, 0x00, 0x00, 0x00, 0x00, 0x09, 0x70, 0x00, 0x00, 0x00,
  0x02, 0x00, 0x00, 0x00, 0xff, 0xff, 0xff, 0xff, 0x0a, 0x00, 0x00, 0x00,
  0x74, 0xed, 0xff, 0xff, 0x08, 0x00, 0x00, 0x00, 0x14, 0x00, 0x00, 0x00,
  0x01, 0x00, 0x00, 0x00, 0x1e, 0x00, 0x00, 0x00, 0x00, 0x00, 0x00, 0x00,
  0x00, 0x00, 0x00, 0x00, 0x01, 0x00, 0x00, 0x00, 0x23, 0x0e, 0xc7, 0x3d,
  0x34, 0x00, 0x00, 0x00, 0x74, 0x69, 0x6e, 0x79, 0x5f, 0x64, 0x73, 0x63,
  0x6e, 0x6e, 0x2f, 0x64, 0x65, 0x6e, 0x73, 0x65, 0x5f, 0x38, 0x2f, 0x4d,
  0x61, 0x74, 0x4d, 0x75, 0x6c, 0x3b, 0x74, 0x69, 0x6e, 0x79, 0x5f, 0x64,
  0x73, 0x63, 0x6e, 0x6e, 0x2f, 0x64, 0x65, 0x6e, 0x73, 0x65, 0x5f, 0x38,
  0x2f, 0x42, 0x69, 0x61, 0x73, 0x41, 0x64, 0x64, 0x00, 0x00, 0x00, 0x00,
  0x02, 0x00, 0x00, 0x00, 0x01, 0x00, 0x00, 0x00, 0x0a, 0x00, 0x00, 0x00,
  0x2a, 0xee, 0xff, 0xff, 0x00, 0x00, 0x00, 0x01, 0x18, 0x00, 0x00, 0x00,
  0x20, 0x00, 0x00, 0x00, 0x3c, 0x00, 0x00, 0x00, 0x14, 0x00, 0x00, 0x00,
  0x00, 0x00, 0x00, 0x09, 0x60, 0x00, 0x00, 0x00, 0x02, 0x00, 0x00, 0x00,
  0xff, 0xff, 0xff, 0xff, 0x18, 0x00, 0x00, 0x00, 0x0c, 0xee, 0xff, 0xff,
  0x08, 0x00, 0x00, 0x00, 0x10, 0x00, 0x00, 0x00, 0x01, 0x00, 0x00, 0x00,
  0x80, 0xff, 0xff, 0xff, 0xff, 0xff, 0xff, 0xff, 0x01, 0x00, 0x00, 0x00,
  0x33, 0x44, 0x4d, 0x3c, 0x2a, 0x00, 0x00, 0x00, 0x74, 0x69, 0x6e, 0x79,
  0x5f, 0x64, 0x73, 0x63, 0x6e, 0x6e, 0x2f, 0x67, 0x6c, 0x6f, 0x62, 0x61,
  0x6c, 0x5f, 0x61, 0x76, 0x65, 0x72, 0x61, 0x67, 0x65, 0x5f, 0x70, 0x6f,
  0x6f, 0x6c, 0x69, 0x6e, 0x67, 0x32, 0x64, 0x5f, 0x34, 0x2f, 0x4d, 0x65,
  0x61, 0x6e, 0x00, 0x00, 0x02, 0x00, 0x00, 0x00, 0x01, 0x00, 0x00, 0x00,
  0x18, 0x00, 0x00, 0x00, 0xb2, 0xee, 0xff, 0xff, 0x00, 0x00, 0x00, 0x01,
  0x18, 0x00, 0x00, 0x00, 0x28, 0x00, 0x00, 0x00, 0x48, 0x00, 0x00, 0x00,
  0x13, 0x00, 0x00, 0x00, 0x00, 0x00, 0x00, 0x09, 0xa8, 0x00, 0x00, 0x00,
  0x04, 0x00, 0x00, 0x00, 0xff, 0xff, 0xff, 0xff, 0x07, 0x00, 0x00, 0x00,
  0x07, 0x00, 0x00, 0x00, 0x18, 0x00, 0x00, 0x00, 0x9c, 0xee, 0xff, 0xff,
  0x08, 0x00, 0x00, 0x00, 0x14, 0x00, 0x00, 0x00, 0x01, 0x00, 0x00, 0x00,
  0x80, 0xff, 0xff, 0xff, 0xff, 0xff, 0xff, 0xff, 0x00, 0x00, 0x00, 0x00,
  0x01, 0x00, 0x00, 0x00, 0xd8, 0x5e, 0xc1, 0x3d, 0x67, 0x00, 0x00, 0x00,
  0x74, 0x69, 0x6e, 0x79, 0x5f, 0x64, 0x73, 0x63, 0x6e, 0x6e, 0x2f, 0x72,
  0x65, 0x5f, 0x6c, 0x75, 0x5f, 0x32, 0x34, 0x2f, 0x52, 0x65, 0x6c, 0x75,
  0x3b, 0x74, 0x69, 0x6e, 0x79, 0x5f, 0x64, 0x73, 0x63, 0x6e, 0x6e, 0x2f,
  0x62, 0x61, 0x74, 0x63, 0x68, 0x5f, 0x6e, 0x6f, 0x72, 0x6d, 0x61, 0x6c,
  0x69, 0x7a, 0x61, 0x74, 0x69, 0x6f, 0x6e, 0x5f, 0x32, 0x34, 0x2f, 0x46,
  0x75, 0x73, 0x65, 0x64, 0x42, 0x61, 0x74, 0x63, 0x68, 0x4e, 0x6f, 0x72,
  0x6d, 0x56, 0x33, 0x3b, 0x74, 0x69, 0x6e, 0x79, 0x5f, 0x64, 0x73, 0x63,
  0x6e, 0x6e, 0x2f, 0x63, 0x6f, 0x6e, 0x76, 0x32, 0x64, 0x5f, 0x32, 0x32,
  0x2f, 0x43, 0x6f, 0x6e, 0x76, 0x32, 0x44, 0x00, 0x04, 0x00, 0x00, 0x00,
  0x01, 0x00, 0x00, 0x00, 0x07, 0x00, 0x00, 0x00, 0x07, 0x00, 0x00, 0x00,
  0x18, 0x00, 0x00, 0x00, 0x8a, 0xef, 0xff, 0xff, 0x00, 0x00, 0x00, 0x01,
  0x18, 0x00, 0x00, 0x00, 0x28, 0x00, 0x00, 0x00, 0x44, 0x00, 0x00, 0x00,
  0x12, 0x00, 0x00, 0x00, 0x00, 0x00, 0x00, 0x09, 0xb0, 0x00, 0x00, 0x00,
  0x04, 0x00, 0x00, 0x00, 0xff, 0xff, 0xff, 0xff, 0x07, 0x00, 0x00, 0x00,
  0x07, 0x00, 0x00, 0x00, 0x10, 0x00, 0x00, 0x00, 0x74, 0xef, 0xff, 0xff,
  0x08, 0x00, 0x00, 0x00, 0x10, 0x00, 0x00, 0x00, 0x01, 0x00, 0x00, 0x00,
  0x80, 0xff, 0xff, 0xff, 0xff, 0xff, 0xff, 0xff, 0x01, 0x00, 0x00, 0x00,
  0x1e, 0x03, 0xfa, 0x3c, 0x73, 0x00, 0x00, 0x00, 0x74, 0x69, 0x6e, 0x79,
  0x5f, 0x64, 0x73, 0x63, 0x6e, 0x6e, 0x2f, 0x72, 0x65, 0x5f, 0x6c, 0x75,
  0x5f, 0x32, 0x33, 0x2f, 0x52, 0x65, 0x6c, 0x75, 0x3b, 0x74, 0x69, 0x6e,
  0x79, 0x5f, 0x64, 0x73, 0x63, 0x6e, 0x6e, 0x2f, 0x62, 0x61, 0x74, 0x63,
  0x68, 0x5f, 0x6e, 0x6f, 0x72, 0x6d, 0x61, 0x6c, 0x69, 0x7a, 0x61, 0x74,
  0x69, 0x6f, 0x6e, 0x5f, 0x32, 0x33, 0x2f, 0x46, 0x75, 0x73, 0x65, 0x64,
  0x42, 0x61, 0x74, 0x63, 0x68, 0x4e, 0x6f, 0x72, 0x6d, 0x56, 0x33, 0x3b,
  0x74, 0x69, 0x6e, 0x79, 0x5f, 0x64, 0x73, 0x63, 0x6e, 0x6e, 0x2f, 0x64,
  0x65, 0x70, 0x74, 0x68, 0x77, 0x69, 0x73, 0x65, 0x5f, 0x63, 0x6f, 0x6e,
  0x76, 0x32, 0x64, 0x5f, 0x39, 0x2f, 0x64, 0x65, 0x70, 0x74, 0x68, 0x77,
  0x69, 0x73, 0x65, 0x00, 0x04, 0x00, 0x00, 0x00, 0x01, 0x00, 0x00, 0x00,
  0x07, 0x00, 0x00, 0x00, 0x07, 0x00, 0x00, 0x00, 0x10, 0x00, 0x00, 0x00,
  0x6a, 0xf0, 0xff, 0xff, 0x00, 0x00, 0x00, 0x01, 0x18, 0x00, 0x00, 0x00,
  0x28, 0x00, 0x00, 0x00, 0x48, 0x00, 0x00, 0x00, 0x11, 0x00, 0x00, 0x00,
  0x00, 0x00, 0x00, 0x09, 0xa8, 0x00, 0x00, 0x00, 0x04, 0x00, 0x00, 0x00,
  0xff, 0xff, 0xff, 0xff, 0x0e, 0x00, 0x00, 0x00, 0x0e, 0x00, 0x00, 0x00,
  0x10, 0x00, 0x00, 0x00, 0x54, 0xf0, 0xff, 0xff, 0x08, 0x00, 0x00, 0x00,
  0x14, 0x00, 0x00, 0x00, 0x01, 0x00, 0x00, 0x00, 0x80, 0xff, 0xff, 0xff,
  0xff, 0xff, 0xff, 0xff, 0x00, 0x00, 0x00, 0x00, 0x01, 0x00, 0x00, 0x00,
  0x42, 0x62, 0x96, 0x3c, 0x67, 0x00, 0x00, 0x00, 0x74, 0x69, 0x6e, 0x79,
  0x5f, 0x64, 0x73, 0x63, 0x6e, 0x6e, 0x2f, 0x72, 0x65, 0x5f, 0x6c, 0x75,
  0x5f, 0x32, 0x32, 0x2f, 0x52, 0x65, 0x6c, 0x75, 0x3b, 0x74, 0x69, 0x6e,
  0x79, 0x5f, 0x64, 0x73, 0x63, 0x6e, 0x6e, 0x2f, 0x62, 0x61, 0x74, 0x63,
  0x68, 0x5f, 0x6e, 0x6f, 0x72, 0x6d, 0x61, 0x6c, 0x69, 0x7a, 0x61, 0x74,
  0x69, 0x6f, 0x6e, 0x5f, 0x32, 0x32, 0x2f, 0x46, 0x75, 0x73, 0x65, 0x64,
  0x42, 0x61, 0x74, 0x63, 0x68, 0x4e, 0x6f, 0x72, 0x6d, 0x56, 0x33, 0x3b,
  0x74, 0x69, 0x6e, 0x79, 0x5f, 0x64, 0x73, 0x63, 0x6e, 0x6e, 0x2f, 0x63,
  0x6f, 0x6e, 0x76, 0x32, 0x64, 0x5f, 0x32, 0x31, 0x2f, 0x43, 0x6f, 0x6e,
  0x76, 0x32, 0x44, 0x00, 0x04, 0x00, 0x00, 0x00, 0x01, 0x00, 0x00, 0x00,
  0x0e, 0x00, 0x00, 0x00, 0x0e, 0x00, 0x00, 0x00, 0x10, 0x00, 0x00, 0x00,
  0x42, 0xf1, 0xff, 0xff, 0x00, 0x00, 0x00, 0x01, 0x18, 0x00, 0x00, 0x00,
  0x28, 0x00, 0x00, 0x00, 0x44, 0x00, 0x00, 0x00, 0x10, 0x00, 0x00, 0x00,
  0x00, 0x00, 0x00, 0x09, 0xb0, 0x00, 0x00, 0x00, 0x04, 0x00, 0x00, 0x00,
  0xff, 0xff, 0xff, 0xff, 0x0e, 0x00, 0x00, 0x00, 0x0e, 0x00, 0x00, 0x00,
  0x0c, 0x00, 0x00, 0x00, 0x2c, 0xf1, 0xff, 0xff, 0x08, 0x00, 0x00, 0x00,
  0x10, 0x00, 0x00, 0x00, 0x01, 0x00, 0x00, 0x00, 0x80, 0xff, 0xff, 0xff,
  0xff, 0xff, 0xff, 0xff, 0x01, 0x00, 0x00, 0x00, 0x87, 0x14, 0xaa, 0x3c,
  0x73, 0x00, 0x00, 0x00, 0x74, 0x69, 0x6e, 0x79, 0x5f, 0x64, 0x73, 0x63,
  0x6e, 0x6e, 0x2f, 0x72, 0x65, 0x5f, 0x6c, 0x75, 0x5f, 0x32, 0x31, 0x2f,
  0x52, 0x65, 0x6c, 0x75, 0x3b, 0x74, 0x69, 0x6e, 0x79, 0x5f, 0x64, 0x73,
  0x63, 0x6e, 0x6e, 0x2f, 0x62, 0x61, 0x74, 0x63, 0x68, 0x5f, 0x6e, 0x6f,
  0x72, 0x6d, 0x61, 0x6c, 0x69, 0x7a, 0x61, 0x74, 0x69, 0x6f, 0x6e, 0x5f,
  0x32, 0x31, 0x2f, 0x46, 0x75, 0x73, 0x65, 0x64, 0x42, 0x61, 0x74, 0x63,
  0x68, 0x4e, 0x6f, 0x72, 0x6d, 0x56, 0x33, 0x3b, 0x74, 0x69, 0x6e, 0x79,
  0x5f, 0x64, 0x73, 0x63, 0x6e, 0x6e, 0x2f, 0x64, 0x65, 0x70, 0x74, 0x68,
  0x77, 0x69, 0x73, 0x65, 0x5f, 0x63, 0x6f, 0x6e, 0x76, 0x32, 0x64, 0x5f,
  0x38, 0x2f, 0x64, 0x65, 0x70, 0x74, 0x68, 0x77, 0x69, 0x73, 0x65, 0x00,
  0x04, 0x00, 0x00, 0x00, 0x01, 0x00, 0x00, 0x00, 0x0e, 0x00, 0x00, 0x00,
  0x0e, 0x00, 0x00, 0x00, 0x0c, 0x00, 0x00, 0x00, 0x22, 0xf2, 0xff, 0xff,
  0x00, 0x00, 0x00, 0x01, 0x18, 0x00, 0x00, 0x00, 0x28, 0x00, 0x00, 0x00,
  0x44, 0x00, 0x00, 0x00, 0x0f, 0x00, 0x00, 0x00, 0x00, 0x00, 0x00, 0x09,
  0xa8, 0x00, 0x00, 0x00, 0x04, 0x00, 0x00, 0x00, 0xff, 0xff, 0xff, 0xff,
  0x0e, 0x00, 0x00, 0x00, 0x0e, 0x00, 0x00, 0x00, 0x0c, 0x00, 0x00, 0x00,
  0x0c, 0xf2, 0xff, 0xff, 0x08, 0x00, 0x00, 0x00, 0x10, 0x00, 0x00, 0x00,
  0x01, 0x00, 0x00, 0x00, 0x80, 0xff, 0xff, 0xff, 0xff, 0xff, 0xff, 0xff,
  0x01, 0x00, 0x00, 0x00, 0x8c, 0x34, 0x76, 0x3c, 0x68, 0x00, 0x00, 0x00,
  0x74, 0x69, 0x6e, 0x79, 0x5f, 0x64, 0x73, 0x63, 0x6e, 0x6e, 0x2f, 0x72,
  0x65, 0x5f, 0x6c, 0x75, 0x5f, 0x32, 0x30, 0x2f, 0x52, 0x65, 0x6c, 0x75,
  0x3b, 0x74, 0x69, 0x6e, 0x79, 0x5f, 0x64, 0x73, 0x63, 0x6e, 0x6e, 0x2f,
  0x62, 0x61, 0x74, 0x63, 0x68, 0x5f, 0x6e, 0x6f, 0x72, 0x6d, 0x61, 0x6c,
  0x69, 0x7a, 0x61, 0x74, 0x69, 0x6f, 0x6e, 0x5f, 0x32, 0x30, 0x2f, 0x46,
  0x75, 0x73, 0x65, 0x64, 0x42, 0x61, 0x74, 0x63, 0x68, 0x4e, 0x6f, 0x72,
  0x6d, 0x56, 0x33, 0x3b, 0x74, 0x69, 0x6e, 0x79, 0x5f, 0x64, 0x73, 0x63,
  0x6e, 0x6e, 0x2f, 0x63, 0x6f, 0x6e, 0x76, 0x32, 0x64, 0x5f, 0x32, 0x30,
  0x2f, 0x43, 0x6f, 0x6e, 0x76, 0x32, 0x44, 0x31, 0x00, 0x00, 0x00, 0x00,
  0x04, 0x00, 0x00, 0x00, 0x01, 0x00, 0x00, 0x00, 0x0e, 0x00, 0x00, 0x00,
  0x0e, 0x00, 0x00, 0x00, 0x0c, 0x00, 0x00, 0x00, 0x52, 0xf3, 0xff, 0xff,
  0x00, 0x00, 0x00, 0x01, 0x14, 0x00, 0x00, 0x00, 0xb8, 0x00, 0x00, 0x00,
  0x0e, 0x00, 0x00, 0x00, 0x00, 0x00, 0x00, 0x09, 0xc4, 0x00, 0x00, 0x00,
  0xcc, 0xf2, 0xff, 0xff, 0x08, 0x00, 0x00, 0x00, 0x6c, 0x00, 0x00, 0x00,
  0x0c, 0x00, 0x00, 0x00, 0x00, 0x00, 0x00, 0x00, 0x00, 0x00, 0x00, 0x00,
  0x00, 0x00, 0x00, 0x00, 0x00, 0x00, 0x00, 0x00, 0x00, 0x00, 0x00, 0x00,
  0x00, 0x00, 0x00, 0x00, 0x00, 0x00, 0x00, 0x00, 0x00, 0x00, 0x00, 0x00,
  0x00, 0x00, 0x00, 0x00, 0x00, 0x00, 0x00, 0x00, 0x00, 0x00, 0x00, 0x00,
  0x00, 0x00, 0x00, 0x00, 0x00, 0x00, 0x00, 0x00, 0x00, 0x00, 0x00, 0x00,
  0x00, 0x00, 0x00, 0x00, 0x00, 0x00, 0x00, 0x00, 0x00, 0x00, 0x00, 0x00,
  0x00, 0x00, 0x00, 0x00, 0x00, 0x00, 0x00, 0x00, 0x00, 0x00, 0x00, 0x00,
  0x00, 0x00, 0x00, 0x00, 0x00, 0x00, 0x00, 0x00, 0x00, 0x00, 0x00, 0x00,
  0x00, 0x00, 0x00, 0x00, 0x00, 0x00, 0x00, 0x00, 0x0c, 0x00, 0x00, 0x00,
  0xa1, 0x23, 0x01, 0x3c, 0x0b, 0x0c, 0x24, 0x3c, 0xf7, 0x7d, 0x86, 0x3b,
  0x9c, 0xdb, 0xc7, 0x3b, 0x48, 0x76, 0x7b, 0x3c, 0x1b, 0x11, 0x1d, 0x3c,
  0x23, 0x80, 0x05, 0x3c, 0xec, 0x0c, 0x78, 0x3c, 0x49, 0xaa, 0x58, 0x3b,
  0x5c, 0x1b, 0x65, 0x3c, 0xfb, 0xd3, 0x84, 0x3c, 0xf3, 0x43, 0x04, 0x3c,
  0x13, 0x00, 0x00, 0x00, 0x74, 0x66, 0x6c, 0x2e, 0x70, 0x73, 0x65, 0x75,
  0x64, 0x6f, 0x5f, 0x71, 0x63, 0x6f, 0x6e, 0x73, 0x74, 0x31, 0x31, 0x00,
  0x04, 0x00, 0x00, 0x00, 0x0c, 0x00, 0x00, 0x00, 0x03, 0x00, 0x00, 0x00,
  0x03, 0x00, 0x00, 0x00, 0x01, 0x00, 0x00, 0x00, 0x42, 0xf4, 0xff, 0xff,
  0x00, 0x00, 0x00, 0x01, 0x14, 0x00, 0x00, 0x00, 0xb8, 0x00, 0x00, 0x00,
  0x0d, 0x00, 0x00, 0x00, 0x00, 0x00, 0x00, 0x02, 0xc4, 0x00, 0x00, 0x00,
  0xbc, 0xf3, 0xff, 0xff, 0x08, 0x00, 0x00, 0x00, 0x6c, 0x00, 0x00, 0x00,
  0x0c, 0x00, 0x00, 0x00, 0x00, 0x00, 0x00, 0x00, 0x00, 0x00, 0x00, 0x00,
  0x00, 0x00, 0x00, 0x00, 0x00, 0x00, 0x00, 0x00, 0x00, 0x00, 0x00, 0x00,
  0x00, 0x00, 0x00, 0x00, 0x00, 0x00, 0x00, 0x00, 0x00, 0x00, 0x00, 0x00,
  0x00, 0x00, 0x00, 0x00, 0x00, 0x00, 0x00, 0x00, 0x00, 0x00, 0x00, 0x00,
  0x00, 0x00, 0x00, 0x00, 0x00, 0x00, 0x00, 0x00, 0x00, 0x00, 0x00, 0x00,
  0x00, 0x00, 0x00, 0x00, 0x00, 0x00, 0x00, 0x00, 0x00, 0x00, 0x00, 0x00,
  0x00, 0x00, 0x00, 0x00, 0x00, 0x00, 0x00, 0x00, 0x00, 0x00, 0x00, 0x00,
  0x00, 0x00, 0x00, 0x00, 0x00, 0x00, 0x00, 0x00, 0x00, 0x00, 0x00, 0x00,
  0x00, 0x00, 0x00, 0x00, 0x00, 0x00, 0x00, 0x00, 0x0c, 0x00, 0x00, 0x00,
  0x47, 0xa5, 0x01, 0x38, 0xbc, 0xb0, 0x24, 0x38, 0xfd, 0x04, 0x87, 0x37,
  0x41, 0xa4, 0xc8, 0x37, 0xbc, 0x72, 0x7c, 0x38, 0xca, 0xae, 0x1d, 0x38,
  0x2a, 0x06, 0x06, 0x38, 0xf3, 0x05, 0x79, 0x38, 0xce, 0x83, 0x59, 0x37,
  0x5e, 0x01, 0x66, 0x38, 0x55, 0x59, 0x85, 0x38, 0xbc, 0xc8, 0x04, 0x38,
  0x13, 0x00, 0x00, 0x00, 0x74, 0x66, 0x6c, 0x2e, 0x70, 0x73, 0x65, 0x75,
  0x64, 0x6f, 0x5f, 0x71, 0x63, 0x6f, 0x6e, 0x73, 0x74, 0x31, 0x30, 0x00,
  0x01, 0x00, 0x00, 0x00, 0x0c, 0x00, 0x00, 0x00, 0x26, 0xf5, 0xff, 0xff,
  0x00, 0x00, 0x00, 0x01, 0x14, 0x00, 0x00, 0x00, 0xbc, 0x00, 0x00, 0x00,
  0x0c, 0x00, 0x00, 0x00, 0x00, 0x00, 0x00, 0x09, 0xc8, 0x00, 0x00, 0x00,
  0xfa, 0xfb, 0xff, 0xff, 0x03, 0x00, 0x00, 0x00, 0x08, 0x00, 0x00, 0x00,
  0x6c, 0x00, 0x00, 0x00, 0x0c, 0x00, 0x00, 0x00, 0x00, 0x00, 0x00, 0x00,
  0x00, 0x00, 0x00, 0x00, 0x00, 0x00, 0x00, 0x00, 0x00, 0x00, 0x00, 0x00,
  0x00, 0x00, 0x00, 0x00, 0x00, 0x00, 0x00, 0x00, 0x00, 0x00, 0x00, 0x00,
  0x00, 0x00, 0x00, 0x00, 0x00, 0x00, 0x00, 0x00, 0x00, 0x00, 0x00, 0x00,
  0x00, 0x00, 0x00, 0x00, 0x00, 0x00, 0x00, 0x00, 0x00, 0x00, 0x00, 0x00,
  0x00, 0x00, 0x00, 0x00, 0x00, 0x00, 0x00, 0x00, 0x00, 0x00, 0x00, 0x00,
  0x00, 0x00, 0x00, 0x00, 0x00, 0x00, 0x00, 0x00, 0x00, 0x00, 0x00, 0x00,
  0x00, 0x00, 0x00, 0x00, 0x00, 0x00, 0x00, 0x00, 0x00, 0x00, 0x00, 0x00,
  0x00, 0x00, 0x00, 0x00, 0x00, 0x00, 0x00, 0x00, 0x00, 0x00, 0x00, 0x00,
  0x0c, 0x00, 0x00, 0x00, 0xf9, 0x13, 0x3e, 0x3c, 0x10, 0xd6, 0xcd, 0x3b,
  0x6c, 0xb1, 0x04, 0x3c, 0xea, 0x50, 0x66, 0x3c, 0xc9, 0x79, 0x6a, 0x3c,
  0x7a, 0xfc, 0xa5, 0x3b, 0x4d, 0xfa, 0x72, 0x3c, 0x7a, 0x8f, 0xae, 0x3b,
  0xa5, 0x9f, 0xfa, 0x3b, 0x23, 0xab, 0xa8, 0x3c, 0x2b, 0x7e, 0x86, 0x3b,
  0x92, 0xa3, 0xd3, 0x3b, 0x12, 0x00, 0x00, 0x00, 0x74, 0x66, 0x6c, 0x2e,
  0x70, 0x73, 0x65, 0x75, 0x64, 0x6f, 0x5f, 0x71, 0x63, 0x6f, 0x6e, 0x73,
  0x74, 0x39, 0x00, 0x00, 0x04, 0x00, 0x00, 0x00, 0x01, 0x00, 0x00, 0x00,
  0x03, 0x00, 0x00, 0x00, 0x03, 0x00, 0x00, 0x00, 0x0c, 0x00, 0x00, 0x00,
  0x1a, 0xf6, 0xff, 0xff, 0x00, 0x00, 0x00, 0x01, 0x14, 0x00, 0x00, 0x00,
  0xb4, 0x00, 0x00, 0x00, 0x0b, 0x00, 0x00, 0x00, 0x00, 0x00, 0x00, 0x02,
  0xc0, 0x00, 0x00, 0x00, 0x94, 0xf5, 0xff, 0xff, 0x08, 0x00, 0x00, 0x00,
  0x68, 0x00, 0x00, 0x00, 0x0c, 0x00, 0x00, 0x00, 0x00, 0x00, 0x00, 0x00,
  0x00, 0x00, 0x00, 0x00, 0x00, 0x00, 0x00, 0x00, 0x00, 0x00, 0x00, 0x00,
  0x00, 0x00, 0x00, 0x00, 0x00, 0x00, 0x00, 0x00, 0x00, 0x00, 0x00, 0x00,
  0x00, 0x00, 0x00, 0x00, 0x00, 0x00, 0x00, 0x00, 0x00, 0x00, 0x00, 0x00,
  0x00, 0x00, 0x00, 0x00, 0x00, 0x00, 0x00, 0x00, 0x00, 0x00, 0x00, 0x00,
  0x00, 0x00, 0x00, 0x00, 0x00, 0x00, 0x00, 0x00, 0x00, 0x00, 0x00, 0x00,
  0x00, 0x00, 0x00, 0x00, 0x00, 0x00, 0x00, 0x00, 0x00, 0x00, 0x00, 0x00,
  0x00, 0x00, 0x00, 0x00, 0x00, 0x00, 0x00, 0x00, 0x00, 0x00, 0x00, 0x00,
  0x00, 0x00, 0x00, 0x00, 0x00, 0x00, 0x00, 0x00, 0x0c, 0x00, 0x00, 0x00,
  0x35, 0xce, 0x36, 0x39, 0xf3, 0xf5, 0xc5, 0x38, 0x75, 0x3b, 0xff, 0x38,
  0x07, 0x81, 0x5d, 0x39, 0x28, 0x81, 0x61, 0x39, 0xaf, 0xa2, 0x9f, 0x38,
  0x66, 0xae, 0x69, 0x39, 0xb4, 0xe1, 0xa7, 0x38, 0xda, 0x08, 0xf1, 0x38,
  0x13, 0x37, 0xa2, 0x39, 0xd8, 0x58, 0x81, 0x38, 0x9f, 0x8a, 0xcb, 0x38,
  0x12, 0x00, 0x00, 0x00, 0x74, 0x66, 0x6c, 0x2e, 0x70, 0x73, 0x65, 0x75,
  0x64, 0x6f, 0x5f, 0x71, 0x63, 0x6f, 0x6e, 0x73, 0x74, 0x38, 0x00, 0x00,
  0x01, 0x00, 0x00, 0x00, 0x0c, 0x00, 0x00, 0x00, 0xfa, 0xf6, 0xff, 0xff,
  0x00, 0x00, 0x00, 0x01, 0x14, 0x00, 0x00, 0x00, 0xe8, 0x00, 0x00, 0x00,
  0x0a, 0x00, 0x00, 0x00, 0x00, 0x00, 0x00, 0x09, 0xf4, 0x00, 0x00, 0x00,
  0x74, 0xf6, 0xff, 0xff, 0x08, 0x00, 0x00, 0x00, 0x8c, 0x00, 0x00, 0x00,
  0x10, 0x00, 0x00, 0x00, 0x00, 0x00, 0x00, 0x00, 0x00, 0x00, 0x00, 0x00,
  0x00, 0x00, 0x00, 0x00, 0x00, 0x00, 0x00, 0x00, 0x00, 0x00, 0x00, 0x00,
  0x00, 0x00, 0x00, 0x00, 0x00, 0x00, 0x00, 0x00, 0x00, 0x00, 0x00, 0x00,
  0x00, 0x00, 0x00, 0x00, 0x00, 0x00, 0x00, 0x00, 0x00, 0x00, 0x00, 0x00,
  0x00, 0x00, 0x00, 0x00, 0x00, 0x00, 0x00, 0x00, 0x00, 0x00, 0x00, 0x00,
  0x00, 0x00, 0x00, 0x00, 0x00, 0x00, 0x00, 0x00, 0x00, 0x00, 0x00, 0x00,
  0x00, 0x00, 0x00, 0x00, 0x00, 0x00, 0x00, 0x00, 0x00, 0x00, 0x00, 0x00,
  0x00, 0x00, 0x00, 0x00, 0x00, 0x00, 0x00, 0x00, 0x00, 0x00, 0x00, 0x00,
  0x00, 0x00, 0x00, 0x00, 0x00, 0x00, 0x00, 0x00, 0x00, 0x00, 0x00, 0x00,
  0x00, 0x00, 0x00, 0x00, 0x00, 0x00, 0x00, 0x00, 0x00, 0x00, 0x00, 0x00,
  0x00, 0x00, 0x00, 0x00, 0x00, 0x00, 0x00, 0x00, 0x00, 0x00, 0x00, 0x00,
  0x00, 0x00, 0x00, 0x00, 0x10, 0x00, 0x00, 0x00, 0x52, 0xbd, 0x01, 0x3c,
  0xac, 0x92, 0xe6, 0x3b, 0xe5, 0x33, 0xbd, 0x3b, 0x19, 0xfc, 0xa6, 0x3b,
  0xcf, 0x6d, 0x4d, 0x3c, 0x41, 0xea, 0xae, 0x3b, 0x1d, 0x9f, 0xac, 0x3b,
  0x32, 0x61, 0x23, 0x3c, 0xc4, 0xf1, 0x87, 0x3b, 0xa3, 0x78, 0x45, 0x3c,
  0x63, 0xda, 0xb1, 0x3b, 0x50, 0x9f, 0xa4, 0x3b, 0x3c, 0x09, 0x47, 0x3b,
  0x1f, 0x8b, 0x21, 0x3c, 0xc1, 0xe7, 0x4d, 0x3c, 0x8c, 0x25, 0x8b, 0x3b,
  0x12, 0x00, 0x00, 0x00, 0x74, 0x66, 0x6c, 0x2e, 0x70, 0x73, 0x65, 0x75,
  0x64, 0x6f, 0x5f, 0x71, 0x63, 0x6f, 0x6e, 0x73, 0x74, 0x37, 0x00, 0x00,
  0x04, 0x00, 0x00, 0x00, 0x10, 0x00, 0x00, 0x00, 0x01, 0x00, 0x00, 0x00,
  0x01, 0x00, 0x00, 0x00, 0x0c, 0x00, 0x00, 0x00, 0x1a, 0xf8, 0xff, 0xff,
  0x00, 0x00, 0x00, 0x01, 0x14, 0x00, 0x00, 0x00, 0xe4, 0x00, 0x00, 0x00,
  0x09, 0x00, 0x00, 0x00, 0x00, 0x00, 0x00, 0x02, 0xf0, 0x00, 0x00, 0x00,
  0x94, 0xf7, 0xff, 0xff, 0x08, 0x00, 0x00, 0x00, 0x88, 0x00, 0x00, 0x00,
  0x10, 0x00, 0x00, 0x00, 0x00, 0x00, 0x00, 0x00, 0x00, 0x00, 0x00, 0x00,
  0x00, 0x00, 0x00, 0x00, 0x00, 0x00, 0x00, 0x00, 0x00, 0x00, 0x00, 0x00,
  0x00, 0x00, 0x00, 0x00, 0x00, 0x00, 0x00, 0x00, 0x00, 0x00, 0x00, 0x00,
  0x00, 0x00, 0x00, 0x00, 0x00, 0x00, 0x00, 0x00, 0x00, 0x00, 0x00, 0x00,
  0x00, 0x00, 0x00, 0x00, 0x00, 0x00, 0x00, 0x00, 0x00, 0x00, 0x00, 0x00,
  0x00, 0x00, 0x00, 0x00, 0x00, 0x00, 0x00, 0x00, 0x00, 0x00, 0x00, 0x00,
  0x00, 0x00, 0x00, 0x00, 0x00, 0x00, 0x00, 0x00, 0x00, 0x00, 0x00, 0x00,
  0x00, 0x00, 0x00, 0x00, 0x00, 0x00, 0x00, 0x00, 0x00, 0x00, 0x00, 0x00,
  0x00, 0x00, 0x00, 0x00, 0x00, 0x00, 0x00, 0x00, 0x00, 0x00, 0x00, 0x00,
  0x00, 0x00, 0x00, 0x00, 0x00, 0x00, 0x00, 0x00, 0x00, 0x00, 0x00, 0x00,
  0x00, 0x00, 0x00, 0x00, 0x00, 0x00, 0x00, 0x00, 0x00, 0x00, 0x00, 0x00,
  0x10, 0x00, 0x00, 0x00, 0x3f, 0x64, 0x2c, 0x39, 0xe3, 0x2f, 0x19, 0x39,
  0x44, 0x67, 0xfb, 0x38, 0x99, 0xe1, 0xdd, 0x38, 0x64, 0x7b, 0x88, 0x39,
  0x2b, 0x6b, 0xe8, 0x38, 0x01, 0x5f, 0xe5, 0x38, 0x4a, 0x17, 0x59, 0x39,
  0xe5, 0xa2, 0xb4, 0x38, 0xf2, 0x31, 0x83, 0x39, 0x91, 0x52, 0xec, 0x38,
  0xfd, 0xbd, 0xda, 0x38, 0x18, 0x3c, 0x84, 0x38, 0xad, 0xa6, 0x56, 0x39,
  0x69, 0xcc, 0x88, 0x39, 0x2f, 0xe4, 0xb8, 0x38, 0x12, 0x00, 0x00, 0x00,
  0x74, 0x66, 0x6c, 0x2e, 0x70, 0x73, 0x65, 0x75, 0x64, 0x6f, 0x5f, 0x71,
  0x63, 0x6f, 0x6e, 0x73, 0x74, 0x36, 0x00, 0x00, 0x01, 0x00, 0x00, 0x00,
  0x10, 0x00, 0x00, 0x00, 0x2a, 0xf9, 0xff, 0xff, 0x00, 0x00, 0x00, 0x01,
  0x28, 0x00, 0x00, 0x00, 0x00, 0x01, 0x00, 0x00, 0x08, 0x00, 0x00, 0x00,
  0x00, 0x00, 0x00, 0x09, 0x0c, 0x01, 0x00, 0x00, 0x00, 0x00, 0x12, 0x00,
  0x10, 0x00, 0x00, 0x00, 0x00, 0x00, 0x0c, 0x00, 0x08, 0x00, 0x00, 0x00,
  0x00, 0x00, 0x04, 0x00, 0x12, 0x00, 0x00, 0x00, 0x03, 0x00, 0x00, 0x00,
  0x08, 0x00, 0x00, 0x00, 0x8c, 0x00, 0x00, 0x00, 0x10, 0x00, 0x00, 0x00,
  0x00, 0x00, 0x00, 0x00, 0x00, 0x00, 0x00, 0x00, 0x00, 0x00, 0x00, 0x00,
  0x00, 0x00, 0x00, 0x00, 0x00, 0x00, 0x00, 0x00, 0x00, 0x00, 0x00, 0x00,
  0x00, 0x00, 0x00, 0x00, 0x00, 0x00, 0x00, 0x00, 0x00, 0x00, 0x00, 0x00,
  0x00, 0x00, 0x00, 0x00, 0x00, 0x00, 0x00, 0x00, 0x00, 0x00, 0x00, 0x00,
  0x00, 0x00, 0x00, 0x00, 0x00, 0x00, 0x00, 0x00, 0x00, 0x00, 0x00, 0x00,
  0x00, 0x00, 0x00, 0x00, 0x00, 0x00, 0x00, 0x00, 0x00, 0x00, 0x00, 0x00,
  0x00, 0x00, 0x00, 0x00, 0x00, 0x00, 0x00, 0x00, 0x00, 0x00, 0x00, 0x00,
  0x00, 0x00, 0x00, 0x00, 0x00, 0x00, 0x00, 0x00, 0x00, 0x00, 0x00, 0x00,
  0x00, 0x00, 0x00, 0x00, 0x00, 0x00, 0x00, 0x00, 0x00, 0x00, 0x00, 0x00,
  0x00, 0x00, 0x00, 0x00, 0x00, 0x00, 0x00, 0x00, 0x00, 0x00, 0x00, 0x00,
  0x00, 0x00, 0x00, 0x00, 0x00, 0x00, 0x00, 0x00, 0x00, 0x00, 0x00, 0x00,
  0x10, 0x00, 0x00, 0x00, 0xf3, 0x96, 0x87, 0x3b, 0x1e, 0xdc, 0xfa, 0x3b,
  0x3e, 0x81, 0xfb, 0x3b, 0x2e, 0x56, 0x0a, 0x3c, 0xe2, 0x77, 0xc0, 0x3b,
  0x43, 0x59, 0x83, 0x3c, 0xfc, 0xa4, 0x91, 0x3c, 0x4f, 0x7e, 0x98, 0x3b,
  0xf4, 0xb4, 0x0e, 0x3c, 0x60, 0x8d, 0xe4, 0x3b, 0x35, 0x6a, 0xc8, 0x3b,
  0x58, 0xbe, 0xcf, 0x3c, 0xac, 0x5e, 0xf2, 0x3b, 0xb2, 0x7b, 0xcf, 0x3b,
  0x46, 0x9e, 0x51, 0x3c, 0x3d, 0x50, 0x3f, 0x3c, 0x12, 0x00, 0x00, 0x00,
  0x74, 0x66, 0x6c, 0x2e, 0x70, 0x73, 0x65, 0x75, 0x64, 0x6f, 0x5f, 0x71,
  0x63, 0x6f, 0x6e, 0x73, 0x74, 0x35, 0x00, 0x00, 0x04, 0x00, 0x00, 0x00,
  0x01, 0x00, 0x00, 0x00, 0x03, 0x00, 0x00, 0x00, 0x03, 0x00, 0x00, 0x00,
  0x10, 0x00, 0x00, 0x00, 0x62, 0xfa, 0xff, 0xff, 0x00, 0x00, 0x00, 0x01,
  0x14, 0x00, 0x00, 0x00, 0xe4, 0x00, 0x00, 0x00, 0x07, 0x00, 0x00, 0x00,
  0x00, 0x00, 0x00, 0x02, 0xf0, 0x00, 0x00, 0x00, 0xdc, 0xf9, 0xff, 0xff,
  0x08, 0x00, 0x00, 0x00, 0x88, 0x00, 0x00, 0x00, 0x10, 0x00, 0x00, 0x00,
  0x00, 0x00, 0x00, 0x00, 0x00, 0x00, 0x00, 0x00, 0x00, 0x00, 0x00, 0x00,
  0x00, 0x00, 0x00, 0x00, 0x00, 0x00, 0x00, 0x00, 0x00, 0x00, 0x00, 0x00,
  0x00, 0x00, 0x00, 0x00, 0x00, 0x00, 0x00, 0x00, 0x00, 0x00, 0x00, 0x00,
  0x00, 0x00, 0x00, 0x00, 0x00, 0x00, 0x00, 0x00, 0x00, 0x00, 0x00, 0x00,
  0x00, 0x00, 0x00, 0x00, 0x00, 0x00, 0x00, 0x00, 0x00, 0x00, 0x00, 0x00,
  0x00, 0x00, 0x00, 0x00, 0x00, 0x00, 0x00, 0x00, 0x00, 0x00, 0x00, 0x00,
  0x00, 0x00, 0x00, 0x00, 0x00, 0x00, 0x00, 0x00, 0x00, 0x00, 0x00, 0x00,
  0x00, 0x00, 0x00, 0x00, 0x00, 0x00, 0x00, 0x00, 0x00, 0x00, 0x00, 0x00,
  0x00, 0x00, 0x00, 0x00, 0x00, 0x00, 0x00, 0x00, 0x00, 0x00, 0x00, 0x00,
  0x00, 0x00, 0x00, 0x00, 0x00, 0x00, 0x00, 0x00, 0x00, 0x00, 0x00, 0x00,
  0x00, 0x00, 0x00, 0x00, 0x00, 0x00, 0x00, 0x00, 0x10, 0x00, 0x00, 0x00,
  0xfa, 0x4c, 0x9f, 0x38, 0x43, 0x5d, 0x13, 0x39, 0x43, 0xbe, 0x13, 0x39,
  0x2f, 0x87, 0x22, 0x39, 0x3c, 0x20, 0xe2, 0x38, 0x6f, 0x51, 0x9a, 0x39,
  0x25, 0x1d, 0xab, 0x39, 0x14, 0x29, 0xb3, 0x38, 0x9a, 0xa9, 0x27, 0x39,
  0x8f, 0x42, 0x06, 0x39, 0x4f, 0x76, 0xeb, 0x38, 0x88, 0x12, 0xf4, 0x39,
  0x80, 0x60, 0x0e, 0x39, 0x3a, 0xc4, 0xf3, 0x38, 0x63, 0x46, 0x76, 0x39,
  0xe4, 0xc4, 0x60, 0x39, 0x12, 0x00, 0x00, 0x00, 0x74, 0x66, 0x6c, 0x2e,
  0x70, 0x73, 0x65, 0x75, 0x64, 0x6f, 0x5f, 0x71, 0x63, 0x6f, 0x6e, 0x73,
  0x74, 0x34, 0x00, 0x00, 0x01, 0x00, 0x00, 0x00, 0x10, 0x00, 0x00, 0x00,
  0x72, 0xfb, 0xff, 0xff, 0x00, 0x00, 0x00, 0x01, 0x14, 0x00, 0x00, 0x00,
  0x48, 0x01, 0x00, 0x00, 0x06, 0x00, 0x00, 0x00, 0x00, 0x00, 0x00, 0x09,
  0x54, 0x01, 0x00, 0x00, 0xec, 0xfa, 0xff, 0xff, 0x08, 0x00, 0x00, 0x00,
  0xcc, 0x00, 0x00, 0x00, 0x18, 0x00, 0x00, 0x00, 0x00, 0x00, 0x00, 0x00,
  0x00, 0x00, 0x00, 0x00, 0x00, 0x00, 0x00, 0x00, 0x00, 0x00, 0x00, 0x00,
  0x00, 0x00, 0x00, 0x00, 0x00, 0x00, 0x00, 0x00, 0x00, 0x00, 0x00, 0x00,
  0x00, 0x00, 0x00, 0x00, 0x00, 0x00, 0x00, 0x00, 0x00, 0x00, 0x00, 0x00,
  0x00, 0x00, 0x00, 0x00, 0x00, 0x00, 0x00, 0x00, 0x00, 0x00, 0x00, 0x00,
  0x00, 0x00, 0x00, 0x00, 0x00, 0x00, 0x00, 0x00, 0x00, 0x00, 0x00, 0x00,
  0x00, 0x00, 0x00, 0x00, 0x00, 0x00, 0x00, 0x00, 0x00, 0x00, 0x00, 0x00,
  0x00, 0x00, 0x00, 0x00, 0x00, 0x00, 0x00, 0x00, 0x00, 0x00, 0x00, 0x00,
  0x00, 0x00, 0x00, 0x00, 0x00, 0x00, 0x00, 0x00, 0x00, 0x00, 0x00, 0x00,
  0x00, 0x00, 0x00, 0x00, 0x00, 0x00, 0x00, 0x00, 0x00, 0x00, 0x00, 0x00,
  0x00, 0x00, 0x00, 0x00, 0x00, 0x00, 0x00, 0x00, 0x00, 0x00, 0x00, 0x00,
  0x00, 0x00, 0x00, 0x00, 0x00, 0x00, 0x00, 0x00, 0x00, 0x00, 0x00, 0x00,
  0x00, 0x00, 0x00, 0x00, 0x00, 0x00, 0x00, 0x00, 0x00, 0x00, 0x00, 0x00,
  0x00, 0x00, 0x00, 0x00, 0x00, 0x00, 0x00, 0x00, 0x00, 0x00, 0x00, 0x00,
  0x00, 0x00, 0x00, 0x00, 0x00, 0x00, 0x00, 0x00, 0x00, 0x00, 0x00, 0x00,
  0x00, 0x00, 0x00, 0x00, 0x00, 0x00, 0x00, 0x00, 0x00, 0x00, 0x00, 0x00,
  0x00, 0x00, 0x00, 0x00, 0x00, 0x00, 0x00, 0x00, 0x00, 0x00, 0x00, 0x00,
  0x18, 0x00, 0x00, 0x00, 0x28, 0xbd, 0x05, 0x3d, 0x0f, 0xc4, 0xf9, 0x3c,
  0x16, 0x32, 0x0f, 0x3d, 0x3c, 0x1a, 0xb0, 0x3c, 0x13, 0x01, 0x02, 0x3d,
  0xe4, 0x09, 0xb3, 0x3c, 0x8c, 0x25, 0xef, 0x3c, 0x07, 0x6a, 0xee, 0x3c,
  0xdf, 0xfb, 0xbf, 0x3c, 0x90, 0x72, 0xe1, 0x3c, 0xd9, 0xb4, 0xec, 0x3c,
  0x72, 0xbd, 0xec, 0x3c, 0xcf, 0x06, 0xb5, 0x3c, 0xde, 0x90, 0x0f, 0x3d,
  0xed, 0x5d, 0xba, 0x3c, 0xeb, 0x49, 0x12, 0x3d, 0x83, 0x75, 0x0d, 0x3d,
  0xa7, 0xb6, 0xc5, 0x3c, 0x61, 0xee, 0xd7, 0x3c, 0x9c, 0x96, 0x05, 0x3d,
  0x6f, 0x70, 0xdd, 0x3c, 0x1d, 0xf4, 0xcb, 0x3c, 0xdb, 0x8d, 0x02, 0x3d,
  0xaa, 0x7c, 0xe8, 0x3c, 0x12, 0x00, 0x00, 0x00, 0x74, 0x66, 0x6c, 0x2e,
  0x70, 0x73, 0x65, 0x75, 0x64, 0x6f, 0x5f, 0x71, 0x63, 0x6f, 0x6e, 0x73,
  0x74, 0x33, 0x00, 0x00, 0x04, 0x00, 0x00, 0x00, 0x18, 0x00, 0x00, 0x00,
  0x01, 0x00, 0x00, 0x00, 0x01, 0x00, 0x00, 0x00, 0x10, 0x00, 0x00, 0x00,
  0xf2, 0xfc, 0xff, 0xff, 0x00, 0x00, 0x00, 0x01, 0x14, 0x00, 0x00, 0x00,
  0x44, 0x01, 0x00, 0x00, 0x05, 0x00, 0x00, 0x00, 0x00, 0x00, 0x00, 0x02,
  0x50, 0x01, 0x00, 0x00, 0x6c, 0xfc, 0xff, 0xff, 0x08, 0x00, 0x00, 0x00,
  0xc8, 0x00, 0x00, 0x00, 0x18, 0x00, 0x00, 0x00, 0x00, 0x00, 0x00, 0x00,
  0x00, 0x00, 0x00, 0x00, 0x00, 0x00, 0x00, 0x00, 0x00, 0x00, 0x00, 0x00,
  0x00, 0x00, 0x00, 0x00, 0x00, 0x00, 0x00, 0x00, 0x00, 0x00, 0x00, 0x00,
  0x00, 0x00, 0x00, 0x00, 0x00, 0x00, 0x00, 0x00, 0x00, 0x00, 0x00, 0x00,
  0x00, 0x00, 0x00, 0x00, 0x00, 0x00, 0x00, 0x00, 0x00, 0x00, 0x00, 0x00,
  0x00, 0x00, 0x00, 0x00, 0x00, 0x00, 0x00, 0x00, 0x00, 0x00, 0x00, 0x00,
  0x00, 0x00, 0x00, 0x00, 0x00, 0x00, 0x00, 0x00, 0x00, 0x00, 0x00, 0x00,
  0x00, 0x00, 0x00, 0x00, 0x00, 0x00, 0x00, 0x00, 0x00, 0x00, 0x00, 0x00,
  0x00, 0x00, 0x00, 0x00, 0x00, 0x00, 0x00, 0x00, 0x00, 0x00, 0x00, 0x00,
  0x00, 0x00, 0x00, 0x00, 0x00, 0x00, 0x00, 0x00, 0x00, 0x00, 0x00, 0x00,
  0x00, 0x00, 0x00, 0x00, 0x00, 0x00, 0x00, 0x00, 0x00, 0x00, 0x00, 0x00,
  0x00, 0x00, 0x00, 0x00, 0x00, 0x00, 0x00, 0x00, 0x00, 0x00, 0x00, 0x00,
  0x00, 0x00, 0x00, 0x00, 0x00, 0x00, 0x00, 0x00, 0x00, 0x00, 0x00, 0x00,
  0x00, 0x00, 0x00, 0x00, 0x00, 0x00, 0x00, 0x00, 0x00, 0x00, 0x00, 0x00,
  0x00, 0x00, 0x00, 0x00, 0x00, 0x00, 0x00, 0x00, 0x00, 0x00, 0x00, 0x00,
  0x00, 0x00, 0x00, 0x00, 0x00, 0x00, 0x00, 0x00, 0x00, 0x00, 0x00, 0x00,
  0x00, 0x00, 0x00, 0x00, 0x00, 0x00, 0x00, 0x00, 0x18, 0x00, 0x00, 0x00,
  0x5a, 0x9c, 0x82, 0x3a, 0x81, 0xec, 0x73, 0x3a, 0xa8, 0xd8, 0x8b, 0x3a,
  0xc4, 0xfb, 0x2b, 0x3a, 0x44, 0xed, 0x7d, 0x3a, 0xd7, 0xd9, 0x2e, 0x3a,
  0x94, 0x8d, 0x69, 0x3a, 0x72, 0xd6, 0x68, 0x3a, 0x4e, 0x7e, 0x3b, 0x3a,
  0x9f, 0x2c, 0x5c, 0x3a, 0x7e, 0x2b, 0x67, 0x3a, 0xe3, 0x33, 0x67, 0x3a,
  0xda, 0xca, 0x30, 0x3a, 0x38, 0x35, 0x8c, 0x3a, 0xfe, 0x01, 0x36, 0x3a,
  0xf8, 0xdd, 0x8e, 0x3a, 0x7b, 0x26, 0x8a, 0x3a, 0xc7, 0x16, 0x41, 0x3a,
  0x6c, 0xe1, 0x52, 0x3a, 0xb5, 0x76, 0x82, 0x3a, 0x7f, 0x42, 0x58, 0x3a,
  0xe0, 0x2e, 0x47, 0x3a, 0x3e, 0x00, 0x7f, 0x3a, 0x93, 0x0c, 0x63, 0x3a,
  0x12, 0x00, 0x00, 0x00, 0x74, 0x66, 0x6c, 0x2e, 0x70, 0x73, 0x65, 0x75,
  0x64, 0x6f, 0x5f, 0x71, 0x63, 0x6f, 0x6e, 0x73, 0x74, 0x32, 0x00, 0x00,
  0x01, 0x00, 0x00, 0x00, 0x18, 0x00, 0x00, 0x00, 0x62, 0xfe, 0xff, 0xff,
  0x00, 0x00, 0x00, 0x01, 0x14, 0x00, 0x00, 0x00, 0xa0, 0x00, 0x00, 0x00,
  0x04, 0x00, 0x00, 0x00, 0x00, 0x00, 0x00, 0x09, 0xac, 0x00, 0x00, 0x00,
  0xdc, 0xfd, 0xff, 0xff, 0x08, 0x00, 0x00, 0x00, 0x5c, 0x00, 0x00, 0x00,
  0x0a, 0x00, 0x00, 0x00, 0x00, 0x00, 0x00, 0x00, 0x00, 0x00, 0x00, 0x00,
  0x00, 0x00, 0x00, 0x00, 0x00, 0x00, 0x00, 0x00, 0x00, 0x00, 0x00, 0x00,
  0x00, 0x00, 0x00, 0x00, 0x00, 0x00, 0x00, 0x00, 0x00, 0x00, 0x00, 0x00,
  0x00, 0x00, 0x00, 0x00, 0x00, 0x00, 0x00, 0x00, 0x00, 0x00, 0x00, 0x00,
  0x00, 0x00, 0x00, 0x00, 0x00, 0x00, 0x00, 0x00, 0x00, 0x00, 0x00, 0x00,
  0x00, 0x00, 0x00, 0x00, 0x00, 0x00, 0x00, 0x00, 0x00, 0x00, 0x00, 0x00,
  0x00, 0x00, 0x00, 0x00, 0x00, 0x00, 0x00, 0x00, 0x00, 0x00, 0x00, 0x00,
  0x00, 0x00, 0x00, 0x00, 0x0a, 0x00, 0x00, 0x00, 0x2a, 0xea, 0x5d, 0x3c,
  0xb9, 0x53, 0x4c, 0x3c, 0xc7, 0xf0, 0x27, 0x3c, 0xfc, 0xbc, 0x57, 0x3c,
  0x43, 0xea, 0x96, 0x3c, 0x9e, 0x63, 0x45, 0x3c, 0x41, 0xd3, 0x30, 0x3c,
  0x41, 0xb2, 0x47, 0x3c, 0x9c, 0x3f, 0x41, 0x3c, 0xff, 0x9b, 0x46, 0x3c,
  0x12, 0x00, 0x00, 0x00, 0x74, 0x66, 0x6c, 0x2e, 0x70, 0x73, 0x65, 0x75,
  0x64, 0x6f, 0x5f, 0x71, 0x63, 0x6f, 0x6e, 0x73, 0x74, 0x31, 0x00, 0x00,
  0x02, 0x00, 0x00, 0x00, 0x0a, 0x00, 0x00, 0x00, 0x18, 0x00, 0x00, 0x00,
  0x32, 0xff, 0xff, 0xff, 0x00, 0x00, 0x00, 0x01, 0x14, 0x00, 0x00, 0x00,
  0xa0, 0x00, 0x00, 0x00, 0x03, 0x00, 0x00, 0x00, 0x00, 0x00, 0x00, 0x02,
  0xac, 0x00, 0x00, 0x00, 0xac, 0xfe, 0xff, 0xff, 0x08, 0x00, 0x00, 0x00,
  0x5c, 0x00, 0x00, 0x00, 0x0a, 0x00, 0x00, 0x00, 0x00, 0x00, 0x00, 0x00,
  0x00, 0x00, 0x00, 0x00, 0x00, 0x00, 0x00, 0x00, 0x00, 0x00, 0x00, 0x00,
  0x00, 0x00, 0x00, 0x00, 0x00, 0x00, 0x00, 0x00, 0x00, 0x00, 0x00, 0x00,
  0x00, 0x00, 0x00, 0x00, 0x00, 0x00, 0x00, 0x00, 0x00, 0x00, 0x00, 0x00,
  0x00, 0x00, 0x00, 0x00, 0x00, 0x00, 0x00, 0x00, 0x00, 0x00, 0x00, 0x00,
  0x00, 0x00, 0x00, 0x00, 0x00, 0x00, 0x00, 0x00, 0x00, 0x00, 0x00, 0x00,
  0x00, 0x00, 0x00, 0x00, 0x00, 0x00, 0x00, 0x00, 0x00, 0x00, 0x00, 0x00,
  0x00, 0x00, 0x00, 0x00, 0x00, 0x00, 0x00, 0x00, 0x0a, 0x00, 0x00, 0x00,
  0xa2, 0xef, 0x31, 0x39, 0x7a, 0xd5, 0x23, 0x39, 0x8d, 0xa8, 0x06, 0x39,
  0xcf, 0xfb, 0x2c, 0x39, 0x98, 0x03, 0x72, 0x39, 0x5b, 0x45, 0x1e, 0x39,
  0x46, 0xc8, 0x0d, 0x39, 0xf1, 0x1e, 0x20, 0x39, 0x6b, 0xf3, 0x1a, 0x39,
  0xd4, 0x3f, 0x1f, 0x39, 0x11, 0x00, 0x00, 0x00, 0x74, 0x66, 0x6c, 0x2e,
  0x70, 0x73, 0x65, 0x75, 0x64, 0x6f, 0x5f, 0x71, 0x63, 0x6f, 0x6e, 0x73,
  0x74, 0x00, 0x00, 0x00, 0x01, 0x00, 0x00, 0x00, 0x0a, 0x00, 0x00, 0x00,
  0x00, 0x00, 0x16, 0x00, 0x1c, 0x00, 0x18, 0x00, 0x17, 0x00, 0x10, 0x00,
  0x0c, 0x00, 0x08, 0x00, 0x00, 0x00, 0x00, 0x00, 0x00, 0x00, 0x07, 0x00,
  0x16, 0x00, 0x00, 0x00, 0x00, 0x00, 0x00, 0x01, 0x18, 0x00, 0x00, 0x00,
  0x18, 0x00, 0x00, 0x00, 0x02, 0x00, 0x00, 0x00, 0x00, 0x00, 0x00, 0x02,
  0x20, 0x00, 0x00, 0x00, 0x04, 0x00, 0x04, 0x00, 0x04, 0x00, 0x00, 0x00,
  0x0e, 0x00, 0x00, 0x00, 0x61, 0x72, 0x69, 0x74, 0x68, 0x2e, 0x63, 0x6f,
  0x6e, 0x73, 0x74, 0x61, 0x6e, 0x74, 0x00, 0x00, 0x01, 0x00, 0x00, 0x00,
  0x02, 0x00, 0x00, 0x00, 0x00, 0x00, 0x16, 0x00, 0x20, 0x00, 0x1c, 0x00,
  0x1b, 0x00, 0x14, 0x00, 0x10, 0x00, 0x0c, 0x00, 0x00, 0x00, 0x00, 0x00,
  0x08, 0x00, 0x07, 0x00, 0x16, 0x00, 0x00, 0x00, 0x00, 0x00, 0x00, 0x01,
  0x18, 0x00, 0x00, 0x00, 0x34, 0x00, 0x00, 0x00, 0x50, 0x00, 0x00, 0x00,
  0x01, 0x00, 0x00, 0x00, 0x00, 0x00, 0x00, 0x09, 0x64, 0x00, 0x00, 0x00,
  0x04, 0x00, 0x00, 0x00, 0xff, 0xff, 0xff, 0xff, 0x1c, 0x00, 0x00, 0x00,
  0x1c, 0x00, 0x00, 0x00, 0x01, 0x00, 0x00, 0x00, 0x0c, 0x00, 0x0c, 0x00,
  0x00, 0x00, 0x00, 0x00, 0x08, 0x00, 0x04, 0x00, 0x0c, 0x00, 0x00, 0x00,
  0x08, 0x00, 0x00, 0x00, 0x10, 0x00, 0x00, 0x00, 0x01, 0x00, 0x00, 0x00,
  0x80, 0xff, 0xff, 0xff, 0xff, 0xff, 0xff, 0xff, 0x01, 0x00, 0x00, 0x00,
  0x81, 0x80, 0x80, 0x3b, 0x19, 0x00, 0x00, 0x00, 0x73, 0x65, 0x72, 0x76,
  0x69, 0x6e, 0x67, 0x5f, 0x64, 0x65, 0x66, 0x61, 0x75, 0x6c, 0x74, 0x5f,
  0x69, 0x6e, 0x70, 0x75, 0x74, 0x5f, 0x39, 0x3a, 0x30, 0x00, 0x00, 0x00,
  0x04, 0x00, 0x00, 0x00, 0x01, 0x00, 0x00, 0x00, 0x1c, 0x00, 0x00, 0x00,
  0x1c, 0x00, 0x00, 0x00, 0x01, 0x00, 0x00, 0x00, 0x05, 0x00, 0x00, 0x00,
  0x60, 0x00, 0x00, 0x00, 0x40, 0x00, 0x00, 0x00, 0x2c, 0x00, 0x00, 0x00,
  0x18, 0x00, 0x00, 0x00, 0x04, 0x00, 0x00, 0x00, 0xc0, 0xff, 0xff, 0xff,
  0x19, 0x00, 0x00, 0x00, 0x02, 0x00, 0x00, 0x00, 0x00, 0x00, 0x00, 0x19,
  0xd0, 0xff, 0xff, 0xff, 0x09, 0x00, 0x00, 0x00, 0x04, 0x00, 0x00, 0x00,
  0x00, 0x00, 0x00, 0x09, 0xe0, 0xff, 0xff, 0xff, 0x28, 0x00, 0x00, 0x00,
  0x02, 0x00, 0x00, 0x00, 0x00, 0x00, 0x00, 0x28, 0xf0, 0xff, 0xff, 0xff,
  0x04, 0x00, 0x00, 0x00, 0x03, 0x00, 0x00, 0x00, 0x00, 0x00, 0x00, 0x04,
  0x0c, 0x00, 0x10, 0x00, 0x0f, 0x00, 0x00, 0x00, 0x08, 0x00, 0x04, 0x00,
  0x0c, 0x00, 0x00, 0x00, 0x03, 0x00, 0x00, 0x00, 0x03, 0x00, 0x00, 0x00,
  0x00, 0x00, 0x00, 0x03
};
const unsigned int mnist_model_tflite_len = 8128;
