#include "model_data.h"

#ifdef __has_attribute
#define HAVE_ATTRIBUTE(x) __has_attribute(x)
#else
#define HAVE_ATTRIBUTE(x) 0
#endif
#if HAVE_ATTRIBUTE(aligned) || (defined(__GNUC__) && !defined(__clang__))
#define DATA_ALIGN_ATTRIBUTE __attribute__((aligned(4)))
#else
#define DATA_ALIGN_ATTRIBUTE
#endif

const unsigned char mnist_model_tflite[] DATA_ALIGN_ATTRIBUTE = {
  0x1c, 0x00, 0x00, 0x00, 0x54, 0x46, 0x4c, 0x33, 0x14, 0x00, 0x20, 0x00,
  0x1c, 0x00, 0x18, 0x00, 0x14, 0x00, 0x10, 0x00, 0x0c, 0x00, 0x00, 0x00,
  0x08, 0x00, 0x04, 0x00, 0x14, 0x00, 0x00, 0x00, 0x1c, 0x00, 0x00, 0x00,
  0x8c, 0x00, 0x00, 0x00, 0xe4, 0x00, 0x00, 0x00, 0x9c, 0x08, 0x00, 0x00,
  0xac, 0x08, 0x00, 0x00, 0x18, 0x1f, 0x00, 0x00, 0x03, 0x00, 0x00, 0x00,
  0x01, 0x00, 0x00, 0x00, 0x10, 0x00, 0x00, 0x00, 0x00, 0x00, 0x0a, 0x00,
  0x10, 0x00, 0x0c, 0x00, 0x08, 0x00, 0x04, 0x00, 0x0a, 0x00, 0x00, 0x00,
  0x0c, 0x00, 0x00, 0x00, 0x1c, 0x00, 0x00, 0x00, 0x38, 0x00, 0x00, 0x00,
  0x0f, 0x00, 0x00, 0x00, 0x73, 0x65, 0x72, 0x76, 0x69, 0x6e, 0x67, 0x5f,
  0x64, 0x65, 0x66, 0x61, 0x75, 0x6c, 0x74, 0x00, 0x01, 0x00, 0x00, 0x00,
  0x04, 0x00, 0x00, 0x00, 0x9c, 0xff, 0xff, 0xff, 0x15, 0x00, 0x00, 0x00,
  0x04, 0x00, 0x00, 0x00, 0x07, 0x00, 0x00, 0x00, 0x64, 0x65, 0x6e, 0x73,
  0x65, 0x5f, 0x33, 0x00, 0x01, 0x00, 0x00, 0x00, 0x04, 0x00, 0x00, 0x00,
  0x46, 0xf7, 0xff, 0xff, 0x04, 0x00, 0x00, 0x00, 0x07, 0x00, 0x00, 0x00,
  0x69, 0x6e, 0x70, 0x75, 0x74, 0x5f, 0x34, 0x00, 0x02, 0x00, 0x00, 0x00,
  0x34, 0x00, 0x00, 0x00, 0x04, 0x00, 0x00, 0x00, 0xdc, 0xff, 0xff, 0xff,
  0x18, 0x00, 0x00, 0x00, 0x04, 0x00, 0x00, 0x00, 0x13, 0x00, 0x00, 0x00,
  0x43, 0x4f, 0x4e, 0x56, 0x45, 0x52, 0x53, 0x49, 0x4f, 0x4e, 0x5f, 0x4d,
  0x45, 0x54, 0x41, 0x44, 0x41, 0x54, 0x41, 0x00, 0x08, 0x00, 0x0c, 0x00,
  0x08, 0x00, 0x04, 0x00, 0x08, 0x00, 0x00, 0x00, 0x17, 0x00, 0x00, 0x00,
  0x04, 0x00, 0x00, 0x00, 0x13, 0x00, 0x00, 0x00, 0x6d, 0x69, 0x6e, 0x5f,
  0x72, 0x75, 0x6e, 0x74, 0x69, 0x6d, 0x65, 0x5f, 0x76, 0x65, 0x72, 0x73,
  0x69, 0x6f, 0x6e, 0x00, 0x19, 0x00, 0x00, 0x00, 0xb4, 0x07, 0x00, 0x00,
  0xac, 0x07, 0x00, 0x00, 0x94, 0x07, 0x00, 0x00, 0x5c, 0x07, 0x00, 0x00,
  0x5c, 0x06, 0x00, 0x00, 0xec, 0x05, 0x00, 0x00, 0x5c, 0x04, 0x00, 0x00,
  0x0c, 0x04, 0x00, 0x00, 0x6c, 0x03, 0x00, 0x00, 0x1c, 0x03, 0x00, 0x00,
  0x4c, 0x02, 0x00, 0x00, 0x0c, 0x02, 0x00, 0x00, 0x90, 0x01, 0x00, 0x00,
  0x50, 0x01, 0x00, 0x00, 0xd4, 0x00, 0x00, 0x00, 0xcc, 0x00, 0x00, 0x00,
  0xc4, 0x00, 0x00, 0x00, 0xbc, 0x00, 0x00, 0x00, 0xb4, 0x00, 0x00, 0x00,
  0xac, 0x00, 0x00, 0x00, 0xa4, 0x00, 0x00, 0x00, 0x9c, 0x00, 0x00, 0x00,
  0x94, 0x00, 0x00, 0x00, 0x74, 0x00, 0x00, 0x00, 0x04, 0x00, 0x00, 0x00,
  0x1e, 0xf8, 0xff, 0xff, 0x04, 0x00, 0x00, 0x00, 0x60, 0x00, 0x00, 0x00,
  0x0c, 0x00, 0x00, 0x00, 0x08, 0x00, 0x0e, 0x00, 0x08, 0x00, 0x04, 0x00,
  0x08, 0x00, 0x00, 0x00, 0x10, 0x00, 0x00, 0x00, 0x28, 0x00, 0x00, 0x00,
  0x00, 0x00, 0x06, 0x00, 0x08, 0x00, 0x04, 0x00, 0x06, 0x00, 0x00, 0x00,
  0x04, 0x00, 0x00, 0x00, 0x01, 0x00, 0x00, 0x00, 0xeb, 0x03, 0x00, 0x00,
  0x0c, 0x00, 0x18, 0x00, 0x14, 0x00, 0x10, 0x00, 0x0c, 0x00, 0x04, 0x00,
  0x0c, 0x00, 0x00, 0x00, 0x06, 0xab, 0xbf, 0x65, 0x40, 0x87, 0x9f, 0x75,
  0x02, 0x00, 0x00, 0x00, 0x02, 0x00, 0x00, 0x00, 0x04, 0x00, 0x00, 0x00,
  0x06, 0x00, 0x00, 0x00, 0x32, 0x2e, 0x32, 0x30, 0x2e, 0x30, 0x00, 0x00,
  0x8a, 0xf8, 0xff, 0xff, 0x04, 0x00, 0x00, 0x00, 0x10, 0x00, 0x00, 0x00,
  0x31, 0x2e, 0x31, 0x34, 0x2e, 0x30, 0x00, 0x00, 0x00, 0x00, 0x00, 0x00,
  0x00, 0x00, 0x00, 0x00, 0x80, 0xe3, 0xff, 0xff, 0x84, 0xe3, 0xff, 0xff,
  0x88, 0xe3, 0xff, 0xff, 0x8c, 0xe3, 0xff, 0xff, 0x90, 0xe3, 0xff, 0xff,
  0x94, 0xe3, 0xff, 0xff, 0x98, 0xe3, 0xff, 0xff, 0x9c, 0xe3, 0xff, 0xff,
  0xc6, 0xf8, 0xff, 0xff, 0x04, 0x00, 0x00, 0x00, 0x6c, 0x00, 0x00, 0x00,
  0x00, 0x00, 0x00, 0x56, 0xb9, 0x00, 0x00, 0x81, 0x00, 0x00, 0x7f, 0x50,
  0x47, 0x00, 0x00, 0x00, 0x00, 0x00, 0x6e, 0x00, 0x00, 0x3f, 0x3d, 0x3b,
  0x7f, 0x00, 0x64, 0xd6, 0x00, 0x00, 0x69, 0x00, 0x77, 0x46, 0xda, 0x7f,
  0xbc, 0xc8, 0x00, 0x37, 0xca, 0xc5, 0x81, 0x31, 0x70, 0xbf, 0x1f, 0x7f,
  0xb0, 0x2c, 0x4f, 0x00, 0x79, 0x32, 0xe2, 0xec, 0x26, 0x00, 0xd5, 0x00,
  0x00, 0xb4, 0x81, 0x4e, 0xe5, 0x00, 0x34, 0x3d, 0x00, 0x00, 0x00, 0x7f,
  0x4d, 0x2f, 0x00, 0x7f, 0x00, 0x2a, 0x00, 0x00, 0x29, 0x00, 0x00, 0x00,
  0x00, 0xbb, 0x28, 0x81, 0xd1, 0xcd, 0x41, 0x00, 0x81, 0x34, 0xe5, 0x00,
  0x1c, 0x00, 0x48, 0x00, 0x7b, 0x42, 0x56, 0x66, 0x7f, 0x2a, 0x76, 0x00,
  0x3e, 0xf9, 0xff, 0xff, 0x04, 0x00, 0x00, 0x00, 0x30, 0x00, 0x00, 0x00,
  0xa7, 0x14, 0x00, 0x00, 0x21, 0xff, 0xff, 0xff, 0x71, 0xfe, 0xff, 0xff,
  0x2c, 0xfb, 0xff, 0xff, 0xe0, 0x0d, 0x00, 0x00, 0x37, 0xde, 0xff, 0xff,
  0xa6, 0x3a, 0x00, 0x00, 0x0c, 0xd6, 0xff, 0xff, 0x73, 0xff, 0xff, 0xff,
  0x69, 0x16, 0x00, 0x00, 0xda, 0xff, 0xff, 0xff, 0x35, 0xf4, 0xff, 0xff,
  0x7a, 0xf9, 0xff, 0xff, 0x04, 0x00, 0x00, 0x00, 0x6c, 0x00, 0x00, 0x00,
  0x39, 0x81, 0xa3, 0x15, 0xef, 0x23, 0xa5, 0xee, 0xac, 0xe8, 0x62, 0xcd,
  0x22, 0xa0, 0xd7, 0x2b, 0x81, 0x63, 0x81, 0x72, 0x32, 0x52, 0x17, 0x81,
  0x81, 0xc7, 0xde, 0xc1, 0xbd, 0xfc, 0xef, 0x4a, 0xe0, 0x91, 0x2e, 0x4d,
  0x3a, 0xf9, 0xa2, 0xe6, 0x17, 0x0a, 0x38, 0xae, 0xa5, 0x01, 0x7f, 0x09,
  0xdf, 0x0b, 0x25, 0x2c, 0x44, 0x46, 0x0c, 0xc1, 0x3e, 0xfa, 0x59, 0x92,
  0xda, 0x12, 0x5c, 0x81, 0x0e, 0x82, 0x5d, 0x7f, 0x01, 0x38, 0x6a, 0xbd,
  0x9b, 0x09, 0x04, 0x22, 0xfa, 0x7f, 0xf0, 0x12, 0x81, 0x81, 0x73, 0xc5,
  0x34, 0x14, 0x81, 0x27, 0xbf, 0x48, 0x84, 0xec, 0xf6, 0x50, 0x33, 0xbf,
  0x08, 0x3f, 0xbb, 0xfb, 0x13, 0xa3, 0xb7, 0x03, 0xb7, 0xc3, 0x63, 0x4b,
  0xf2, 0xf9, 0xff, 0xff, 0x04, 0x00, 0x00, 0x00, 0x30, 0x00, 0x00, 0x00,
  0xd2, 0x02, 0x00, 0x00, 0x95, 0x0f, 0x00, 0x00, 0x14, 0x17, 0x00, 0x00,
  0xee, 0x06, 0x00, 0x00, 0x71, 0x08, 0x00, 0x00, 0x8f, 0xec, 0xff, 0xff,
  0xf5, 0x18, 0x00, 0x00, 0xbe, 0xf1, 0xff, 0xff, 0xc0, 0x17, 0x00, 0x00,
  0x87, 0x03, 0x00, 0x00, 0xf7, 0xd1, 0xff, 0xff, 0xaa, 0x19, 0x00, 0x00,
  0x2e, 0xfa, 0xff, 0xff, 0x04, 0x00, 0x00, 0x00, 0xc0, 0x00, 0x00, 0x00,
  0x7f, 0x68, 0x00, 0xdf, 0x00, 0x49, 0x7c, 0x00, 0x51, 0x87, 0x00, 0x9a,
  0xb8, 0x00, 0x00, 0x81, 0xb2, 0x00, 0x00, 0x00, 0x00, 0xc6, 0x90, 0x7d,
  0x78, 0x00, 0x00, 0x00, 0x24, 0x00, 0x1c, 0x81, 0xd9, 0x4f, 0x00, 0x5d,
  0x39, 0x7f, 0x00, 0x8c, 0x16, 0x25, 0xd3, 0x00, 0x40, 0xd7, 0x15, 0x00,
  0x20, 0x44, 0x00, 0x29, 0x50, 0x00, 0x35, 0xcb, 0x00, 0x38, 0x81, 0x00,
  0x00, 0x81, 0x28, 0x00, 0x00, 0x1d, 0x00, 0x81, 0x00, 0x41, 0x00, 0xab,
  0x00, 0x00, 0x00, 0x00, 0x7f, 0xde, 0x66, 0x00, 0xe0, 0x43, 0xe7, 0x00,
  0xc2, 0x46, 0x00, 0x18, 0x00, 0xe2, 0x00, 0xe9, 0x72, 0x81, 0x17, 0x00,
  0x00, 0x3e, 0x81, 0x00, 0x00, 0xe3, 0x29, 0x54, 0x00, 0x21, 0x00, 0x57,
  0x00, 0x25, 0xcd, 0x30, 0xe8, 0x42, 0xe3, 0xdf, 0x7f, 0x00, 0xc6, 0x00,
  0x00, 0x00, 0xba, 0x00, 0x00, 0x6c, 0x00, 0xc7, 0x00, 0x00, 0x81, 0xc9,
  0xbe, 0x53, 0x7f, 0x00, 0x00, 0x00, 0xe9, 0x00, 0x00, 0x00, 0xe2, 0x9a,
  0x42, 0xb6, 0xc6, 0x81, 0x00, 0x25, 0x00, 0xd8, 0x22, 0x30, 0x39, 0x00,
  0x28, 0x26, 0xc5, 0xb6, 0x31, 0x1c, 0x28, 0x48, 0xaf, 0x2d, 0x00, 0x81,
  0x00, 0x00, 0x53, 0x00, 0x2e, 0x00, 0x33, 0xa1, 0x81, 0x16, 0x00, 0x54,
  0xa7, 0x75, 0xb5, 0x19, 0x00, 0x33, 0x93, 0xd2, 0x00, 0x28, 0x7f, 0x00,
  0xfa, 0xfa, 0xff, 0xff, 0x04, 0x00, 0x00, 0x00, 0x40, 0x00, 0x00, 0x00,
  0x19, 0xe9, 0xff, 0xff, 0x53, 0x13, 0x00, 0x00, 0x2f, 0xfd, 0xff, 0xff,
  0xe6, 0xf7, 0xff, 0xff, 0xfc, 0xf7, 0xff, 0xff, 0xc1, 0x18, 0x00, 0x00,
  0x4a, 0xf1, 0xff, 0xff, 0x14, 0xf3, 0xff, 0xff, 0x90, 0xf5, 0xff, 0xff,
  0xbc, 0xf7, 0xff, 0xff, 0xff, 0x09, 0x00, 0x00, 0x48, 0xf6, 0xff, 0xff,
  0x55, 0x06, 0x00, 0x00, 0x38, 0x12, 0x00, 0x00, 0xcf, 0xf4, 0xff, 0xff,
  0xac, 0x05, 0x00, 0x00, 0x46, 0xfb, 0xff, 0xff, 0x04, 0x00, 0x00, 0x00,
  0x90, 0x00, 0x00, 0x00, 0xcb, 0x3a, 0x8f, 0x08, 0xaf, 0x1f, 0x37, 0x1a,
  0x00, 0xa7, 0x89, 0x71, 0x69, 0x40, 0x78, 0x1d, 0xfb, 0x08, 0xae, 0x0b,
  0xac, 0x07, 0x41, 0x22, 0xf4, 0x81, 0x2b, 0x66, 0x7f, 0x41, 0x7f, 0x08,
  0xb4, 0x23, 0xb6, 0x25, 0xc9, 0xe9, 0x47, 0xf5, 0xf8, 0xa2, 0x1a, 0x5a,
  0x70, 0x1b, 0x6f, 0x04, 0x81, 0x38, 0xab, 0xbf, 0x81, 0x53, 0x6d, 0x4d,
  0xfe, 0xc3, 0x06, 0x7f, 0x79, 0x14, 0x1b, 0xdd, 0x86, 0x17, 0xcc, 0xa8,
  0xb3, 0x16, 0x64, 0x59, 0xc2, 0xc7, 0x4c, 0x58, 0x72, 0x0e, 0xf5, 0xec,
  0x8a, 0x0a, 0xba, 0x81, 0xac, 0xfe, 0x7f, 0x4f, 0x81, 0xab, 0x22, 0x71,
  0x72, 0xda, 0xfc, 0xcf, 0xbd, 0xfd, 0x81, 0x15, 0xdc, 0x3a, 0x4b, 0x81,
  0xfc, 0xd3, 0x3a, 0x72, 0x5c, 0x81, 0xda, 0x81, 0x96, 0xf8, 0x91, 0x0a,
  0xd9, 0xd7, 0x5f, 0xa6, 0x1b, 0xb6, 0x44, 0x6a, 0x6c, 0xba, 0xb9, 0xa7,
  0xc7, 0x81, 0x8e, 0x05, 0xc1, 0x81, 0x71, 0xdf, 0x94, 0xb5, 0x7f, 0x7b,
  0x5d, 0x88, 0xac, 0xe0, 0xe2, 0xfb, 0xff, 0xff, 0x04, 0x00, 0x00, 0x00,
  0x40, 0x00, 0x00, 0x00, 0x57, 0x2b, 0x00, 0x00, 0x64, 0xf5, 0xff, 0xff,
  0xcf, 0x27, 0x00, 0x00, 0x88, 0x0c, 0x00, 0x00, 0xe9, 0x17, 0x00, 0x00,
  0xc1, 0xf8, 0xff, 0xff, 0xe4, 0xe7, 0xff, 0xff, 0xbe, 0xf9, 0xff, 0xff,
  0x70, 0x10, 0x00, 0x00, 0x1c, 0x37, 0x00, 0x00, 0x35, 0xf4, 0xff, 0xff,
  0x6b, 0xef, 0xff, 0xff, 0xca, 0xc7, 0xff, 0xff, 0x40, 0xff, 0xff, 0xff,
  0xf8, 0xf3, 0xff, 0xff, 0x0e, 0x13, 0x00, 0x00, 0x2e, 0xfc, 0xff, 0xff,
  0x04, 0x00, 0x00, 0x00, 0x80, 0x01, 0x00, 0x00, 0x00, 0x0d, 0x00, 0x40,
  0x00, 0xea, 0x00, 0x00, 0x3d, 0x45, 0x00, 0x7f, 0xee, 0x33, 0x0e, 0x00,
  0x81, 0x97, 0x00, 0x3f, 0xd0, 0x07, 0xf6, 0x6e, 0xaf, 0xbd, 0x00, 0x00,
  0x00, 0x1c, 0x00, 0x7d, 0x70, 0x00, 0x7f, 0xb4, 0x66, 0x8d, 0x00, 0xe4,
  0x5c, 0xa9, 0x00, 0x17, 0x00, 0xc7, 0x38, 0x41, 0x81, 0xb0, 0x00, 0x00,
  0xd6, 0x47, 0xe0, 0x37, 0x00, 0xce, 0x28, 0x00, 0x00, 0x00, 0x00, 0x3f,
  0xb9, 0xf3, 0x00, 0x00, 0x00, 0x7f, 0x00, 0x00, 0x00, 0xd3, 0x2c, 0xe1,
  0x00, 0x00, 0x00, 0xd4, 0xf4, 0xe2, 0x00, 0x00, 0x2d, 0x00, 0x2b, 0x00,
  0x00, 0xe7, 0x00, 0x7f, 0xf1, 0x00, 0x00, 0x47, 0x37, 0x00, 0xe9, 0x21,
  0xe5, 0xe5, 0x00, 0x00, 0x4c, 0x7f, 0x25, 0xec, 0x00, 0xdb, 0x00, 0x00,
  0x27, 0x00, 0x4d, 0x2d, 0x00, 0xeb, 0x00, 0xed, 0xf9, 0xf4, 0xf7, 0x00,
  0x3d, 0x00, 0x7f, 0x25, 0x00, 0x5f, 0x7f, 0xd4, 0x00, 0x00, 0xd6, 0x00,
  0x00, 0x00, 0x5c, 0x00, 0x00, 0x00, 0x23, 0xcc, 0x00, 0x58, 0xda, 0xc8,
  0x3c, 0xce, 0x7f, 0xbe, 0x75, 0x4b, 0xdf, 0x00, 0x00, 0xcd, 0x00, 0xc8,
  0x1e, 0x1f, 0x27, 0x1a, 0xcb, 0xdf, 0xd6, 0xf8, 0xd1, 0x0b, 0x00, 0xf7,
  0x19, 0x7f, 0x6d, 0x00, 0x00, 0x00, 0x00, 0x51, 0x8c, 0xb9, 0x15, 0x5f,
  0x44, 0x7f, 0x00, 0x4d, 0x00, 0x00, 0xce, 0x00, 0x33, 0x3b, 0x14, 0x00,
  0x00, 0xe4, 0xe9, 0x00, 0x00, 0x2c, 0x00, 0xf4, 0x4c, 0x7f, 0x52, 0x00,
  0x00, 0x00, 0x00, 0x02, 0x7f, 0xe8, 0x00, 0x00, 0x26, 0xce, 0x0f, 0x00,
  0x1b, 0x00, 0x00, 0x00, 0xe8, 0x3d, 0x1f, 0x00, 0xdf, 0x52, 0x00, 0x00,
  0x22, 0xec, 0x00, 0x00, 0x7f, 0x2e, 0x14, 0x00, 0xa6, 0xc1, 0x76, 0x81,
  0x00, 0xbd, 0x00, 0xcf, 0x1d, 0xbd, 0xcf, 0xe3, 0xf3, 0x00, 0x00, 0x34,
  0xb0, 0xc0, 0x00, 0x2e, 0xd4, 0x00, 0x00, 0x7f, 0xc1, 0xd7, 0x00, 0x00,
  0x00, 0x00, 0xe9, 0x55, 0x9a, 0xc7, 0x7f, 0xd7, 0x16, 0xac, 0x00, 0x00,
  0x26, 0x90, 0xfe, 0x00, 0x00, 0x2d, 0x00, 0x5c, 0x00, 0x7f, 0x56, 0xbb,
  0x32, 0x2e, 0x00, 0xbb, 0x00, 0xdb, 0x3f, 0x00, 0xf0, 0x4e, 0x66, 0xb5,
  0x4c, 0x55, 0x7f, 0xbf, 0xef, 0x00, 0xe9, 0x00, 0x21, 0xce, 0x00, 0x00,
  0x00, 0x2e, 0x45, 0x00, 0x43, 0xbc, 0xf7, 0x00, 0xbf, 0x00, 0xc1, 0x00,
  0x81, 0x71, 0x2d, 0xd5, 0x00, 0xc8, 0x00, 0x00, 0x00, 0xf2, 0x49, 0x00,
  0x00, 0x00, 0xe2, 0x27, 0x00, 0x00, 0x23, 0x7b, 0x0a, 0x53, 0x64, 0x7f,
  0x4f, 0x24, 0x20, 0x51, 0xbe, 0x00, 0xe7, 0x00, 0x4e, 0x7f, 0x00, 0x32,
  0x00, 0x7f, 0x4e, 0xbe, 0xeb, 0x00, 0xd9, 0xf2, 0x48, 0x00, 0x6e, 0xef,
  0x7f, 0x00, 0x00, 0x13, 0x00, 0x00, 0xb5, 0x0e, 0xba, 0xfd, 0xff, 0xff,
  0x04, 0x00, 0x00, 0x00, 0x60, 0x00, 0x00, 0x00, 0x01, 0xf0, 0xff, 0xff,
  0x51, 0x16, 0x00, 0x00, 0xce, 0xf2, 0xff, 0xff, 0xfb, 0x13, 0x00, 0x00,
  0x51, 0x0e, 0x00, 0x00, 0x37, 0xfb, 0xff, 0xff, 0xbc, 0xed, 0xff, 0xff,
  0xc5, 0xf1, 0xff, 0xff, 0xab, 0xfb, 0xff, 0xff, 0xa3, 0xf2, 0xff, 0xff,
  0x5f, 0xf9, 0xff, 0xff, 0x62, 0xf0, 0xff, 0xff, 0x04, 0xef, 0xff, 0xff,
  0x60, 0x00, 0x00, 0x00, 0x55, 0xf9, 0xff, 0xff, 0xce, 0x16, 0x00, 0x00,
  0x94, 0x0e, 0x00, 0x00, 0xad, 0x0e, 0x00, 0x00, 0x27, 0xfd, 0xff, 0xff,
  0xa8, 0xf3, 0xff, 0xff, 0x76, 0x04, 0x00, 0x00, 0x6b, 0xed, 0xff, 0xff,
  0x0f, 0xe4, 0xff, 0xff, 0x76, 0xf9, 0xff, 0xff, 0x26, 0xfe, 0xff, 0xff,
  0x04, 0x00, 0x00, 0x00, 0xf0, 0x00, 0x00, 0x00, 0x00, 0x00, 0x99, 0x4e,
  0x69, 0x81, 0x3f, 0xb2, 0x2c, 0x00, 0x1c, 0xdf, 0x00, 0xbe, 0x3e, 0x9a,
  0x00, 0xb9, 0x2d, 0xaf, 0x68, 0xc9, 0x26, 0x00, 0x94, 0xa0, 0x55, 0xd1,
  0x00, 0x51, 0xa4, 0x51, 0x7c, 0x00, 0x00, 0xa0, 0x81, 0x74, 0x00, 0x6b,
  0x9c, 0x78, 0x6f, 0x00, 0x84, 0x43, 0xac, 0xa5, 0x42, 0x38, 0x00, 0xd0,
  0xa5, 0x00, 0x00, 0x42, 0x00, 0x00, 0x7f, 0x00, 0x65, 0x00, 0x00, 0x00,
  0x00, 0x00, 0xcf, 0xb8, 0x00, 0x62, 0x54, 0x92, 0x6f, 0x00, 0x00, 0x00,
  0x00, 0x7f, 0x00, 0x00, 0x91, 0x37, 0x00, 0x00, 0x00, 0xd5, 0xa5, 0xa0,
  0x00, 0x00, 0x00, 0xb6, 0x00, 0x00, 0x4e, 0x37, 0x00, 0x3b, 0x00, 0x5b,
  0x72, 0x00, 0xb6, 0x00, 0xe1, 0xb8, 0xd1, 0x81, 0xce, 0x2f, 0x5b, 0x24,
  0x00, 0x2e, 0xe1, 0x00, 0x00, 0xce, 0xc1, 0x00, 0x44, 0x00, 0x00, 0x00,
  0x84, 0x00, 0x00, 0xda, 0x33, 0x00, 0x00, 0x7f, 0x00, 0x93, 0x8d, 0x00,
  0x00, 0x00, 0x00, 0x2c, 0x56, 0x00, 0x6d, 0xcd, 0x00, 0x81, 0x22, 0xaa,
  0x00, 0xa7, 0x9b, 0x61, 0x29, 0x43, 0x79, 0xa4, 0x5e, 0xb8, 0x7e, 0x00,
  0xae, 0x21, 0x6c, 0x49, 0x00, 0x00, 0x33, 0xb5, 0x00, 0x7f, 0x00, 0x6e,
  0x00, 0x34, 0xa7, 0xc2, 0x00, 0x90, 0xbd, 0x00, 0x8c, 0x00, 0x00, 0x00,
  0x79, 0x47, 0xd0, 0xe3, 0xb9, 0x00, 0xbb, 0x00, 0x3f, 0xad, 0x00, 0x91,
  0xbe, 0x00, 0x46, 0x00, 0x00, 0x6a, 0x8d, 0x2a, 0x3a, 0x00, 0x67, 0x39,
  0x9f, 0x00, 0x00, 0x00, 0x00, 0x81, 0x2a, 0x73, 0x9f, 0x5d, 0x38, 0x3e,
  0x58, 0x38, 0xb3, 0x00, 0xa8, 0x3d, 0x00, 0xb3, 0x81, 0x3a, 0x50, 0x22,
  0x4b, 0x00, 0xb8, 0x00, 0x00, 0xb8, 0x86, 0x00, 0x22, 0xff, 0xff, 0xff,
  0x04, 0x00, 0x00, 0x00, 0x28, 0x00, 0x00, 0x00, 0xca, 0x02, 0x00, 0x00,
  0x9f, 0xf6, 0xff, 0xff, 0x4e, 0xf7, 0xff, 0xff, 0xd8, 0xfc, 0xff, 0xff,
  0xeb, 0x0c, 0x00, 0x00, 0x5b, 0xfd, 0xff, 0xff, 0x9d, 0xfc, 0xff, 0xff,
  0xdd, 0xff, 0xff, 0xff, 0xba, 0xff, 0xff, 0xff, 0xaf, 0x09, 0x00, 0x00,
  0x56, 0xff, 0xff, 0xff, 0x04, 0x00, 0x00, 0x00, 0x08, 0x00, 0x00, 0x00,
  0x01, 0x00, 0x00, 0x00, 0x02, 0x00, 0x00, 0x00, 0x44, 0xea, 0xff, 0xff,
  0x48, 0xea, 0xff, 0xff, 0x0f, 0x00, 0x00, 0x00, 0x4d, 0x4c, 0x49, 0x52,
  0x20, 0x43, 0x6f, 0x6e, 0x76, 0x65, 0x72, 0x74, 0x65, 0x64, 0x2e, 0x00,
  0x01, 0x00, 0x00, 0x00, 0x14, 0x00, 0x00, 0x00, 0x00, 0x00, 0x0e, 0x00,
  0x18, 0x00, 0x14, 0x00, 0x10, 0x00, 0x0c, 0x00, 0x08, 0x00, 0x04, 0x00,
  0x0e, 0x00, 0x00, 0x00, 0x14, 0x00, 0x00, 0x00, 0x1c, 0x00, 0x00, 0x00,
  0x50, 0x02, 0x00, 0x00, 0x54, 0x02, 0x00, 0x00, 0x58, 0x02, 0x00, 0x00,
  0x04, 0x00, 0x00, 0x00, 0x6d, 0x61, 0x69, 0x6e, 0x00, 0x00, 0x00, 0x00,
  0x08, 0x00, 0x00, 0x00, 0xec, 0x01, 0x00, 0x00, 0x84, 0x01, 0x00, 0x00,
  0x34, 0x01, 0x00, 0x00, 0xec, 0x00, 0x00, 0x00, 0xac, 0x00, 0x00, 0x00,
  0x78, 0x00, 0x00, 0x00, 0x40, 0x00, 0x00, 0x00, 0x04, 0x00, 0x00, 0x00,
  0xa6, 0xfe, 0xff, 0xff, 0x1c, 0x00, 0x00, 0x00, 0x00, 0x00, 0x00, 0x09,
  0x1c, 0x00, 0x00, 0x00, 0x20, 0x00, 0x00, 0x00, 0x04, 0x00, 0x00, 0x00,
  0x00, 0x00, 0x06, 0x00, 0x08, 0x00, 0x04, 0x00, 0x06, 0x00, 0x00, 0x00,
  0x00, 0x00, 0x80, 0x3f, 0x01, 0x00, 0x00, 0x00, 0x15, 0x00, 0x00, 0x00,
  0x01, 0x00, 0x00, 0x00, 0x14, 0x00, 0x00, 0x00, 0xde, 0xfe, 0xff, 0xff,
  0x14, 0x00, 0x00, 0x00, 0x00, 0x00, 0x00, 0x08, 0x10, 0x00, 0x00, 0x00,
  0x14, 0x00, 0x00, 0x00, 0x03, 0x00, 0x00, 0x00, 0x10, 0xeb, 0xff, 0xff,
  0x01, 0x00, 0x00, 0x00, 0x14, 0x00, 0x00, 0x00, 0x03, 0x00, 0x00, 0x00,
  0x13, 0x00, 0x00, 0x00, 0x03, 0x00, 0x00, 0x00, 0x02, 0x00, 0x00, 0x00,
  0x12, 0xff, 0xff, 0xff, 0x14, 0x00, 0x00, 0x00, 0x00, 0x00, 0x00, 0x1b,
  0x10, 0x00, 0x00, 0x00, 0x14, 0x00, 0x00, 0x00, 0x02, 0x00, 0x00, 0x00,
  0x44, 0xeb, 0xff, 0xff, 0x01, 0x00, 0x00, 0x00, 0x13, 0x00, 0x00, 0x00,
  0x02, 0x00, 0x00, 0x00, 0x12, 0x00, 0x00, 0x00, 0x01, 0x00, 0x00, 0x00,
  0xde, 0xfe, 0xff, 0xff, 0x10, 0x00, 0x00, 0x00, 0x00, 0x00, 0x00, 0x01,
  0x18, 0x00, 0x00, 0x00, 0x1c, 0x00, 0x00, 0x00, 0xd0, 0xfe, 0xff, 0xff,
  0x00, 0x00, 0x00, 0x01, 0x01, 0x00, 0x00, 0x00, 0x01, 0x00, 0x00, 0x00,
  0x01, 0x00, 0x00, 0x00, 0x12, 0x00, 0x00, 0x00, 0x03, 0x00, 0x00, 0x00,
  0x11, 0x00, 0x00, 0x00, 0x05, 0x00, 0x00, 0x00, 0x04, 0x00, 0x00, 0x00,
  0x7e, 0xff, 0xff, 0xff, 0x14, 0x00, 0x00, 0x00, 0x00, 0x00, 0x00, 0x02,
  0x20, 0x00, 0x00, 0x00, 0x24, 0x00, 0x00, 0x00, 0x01, 0x00, 0x00, 0x00,
  0x6e, 0xff, 0xff, 0xff, 0x00, 0x00, 0x00, 0x01, 0x01, 0x00, 0x00, 0x00,
  0x02, 0x00, 0x00, 0x00, 0x02, 0x00, 0x00, 0x00, 0x01, 0x00, 0x00, 0x00,
  0x11, 0x00, 0x00, 0x00, 0x03, 0x00, 0x00, 0x00, 0x10, 0x00, 0x00, 0x00,
  0x07, 0x00, 0x00, 0x00, 0x06, 0x00, 0x00, 0x00, 0x5e, 0xff, 0xff, 0xff,
  0x10, 0x00, 0x00, 0x00, 0x00, 0x00, 0x00, 0x01, 0x18, 0x00, 0x00, 0x00,
  0x1c, 0x00, 0x00, 0x00, 0x50, 0xff, 0xff, 0xff, 0x00, 0x00, 0x00, 0x01,
  0x01, 0x00, 0x00, 0x00, 0x01, 0x00, 0x00, 0x00, 0x01, 0x00, 0x00, 0x00,
  0x10, 0x00, 0x00, 0x00, 0x03, 0x00, 0x00, 0x00, 0x0f, 0x00, 0x00, 0x00,
  0x09, 0x00, 0x00, 0x00, 0x08, 0x00, 0x00, 0x00, 0x00, 0x00, 0x0e, 0x00,
  0x1a, 0x00, 0x14, 0x00, 0x10, 0x00, 0x0c, 0x00, 0x0b, 0x00, 0x04, 0x00,
  0x0e, 0x00, 0x00, 0x00, 0x24, 0x00, 0x00, 0x00, 0x00, 0x00, 0x00, 0x02,
  0x30, 0x00, 0x00, 0x00, 0x34, 0x00, 0x00, 0x00, 0x01, 0x00, 0x00, 0x00,
  0x00, 0x00, 0x0e, 0x00, 0x14, 0x00, 0x00, 0x00, 0x10, 0x00, 0x0c, 0x00,
  0x08, 0x00, 0x07, 0x00, 0x0e, 0x00, 0x00, 0x00, 0x00, 0x00, 0x00, 0x01,
  0x01, 0x00, 0x00, 0x00, 0x01, 0x00, 0x00, 0x00, 0x01, 0x00, 0x00, 0x00,
  0x01, 0x00, 0x00, 0x00, 0x0f, 0x00, 0x00, 0x00, 0x03, 0x00, 0x00, 0x00,
  0x0e, 0x00, 0x00, 0x00, 0x0b, 0x00, 0x00, 0x00, 0x0a, 0x00, 0x00, 0x00,
  0x00, 0x00, 0x0e, 0x00, 0x14, 0x00, 0x00, 0x00, 0x10, 0x00, 0x0c, 0x00,
  0x0b, 0x00, 0x04, 0x00, 0x0e, 0x00, 0x00, 0x00, 0x1c, 0x00, 0x00, 0x00,
  0x00, 0x00, 0x00, 0x01, 0x24, 0x00, 0x00, 0x00, 0x28, 0x00, 0x00, 0x00,
  0x0c, 0x00, 0x10, 0x00, 0x00, 0x00, 0x0c, 0x00, 0x08, 0x00, 0x07, 0x00,
  0x0c, 0x00, 0x00, 0x00, 0x00, 0x00, 0x00, 0x01, 0x02, 0x00, 0x00, 0x00,
  0x02, 0x00, 0x00, 0x00, 0x01, 0x00, 0x00, 0x00, 0x0e, 0x00, 0x00, 0x00,
  0x03, 0x00, 0x00, 0x00, 0x00, 0x00, 0x00, 0x00, 0x0d, 0x00, 0x00, 0x00,
  0x0c, 0x00, 0x00, 0x00, 0x01, 0x00, 0x00, 0x00, 0x15, 0x00, 0x00, 0x00,
  0x01, 0x00, 0x00, 0x00, 0x00, 0x00, 0x00, 0x00, 0x16, 0x00, 0x00, 0x00,
  0x54, 0x13, 0x00, 0x00, 0xf8, 0x12, 0x00, 0x00, 0x10, 0x12, 0x00, 0x00,
  0x3c, 0x11, 0x00, 0x00, 0xc8, 0x0f, 0x00, 0x00, 0x44, 0x0e, 0x00, 0x00,
  0x30, 0x0d, 0x00, 0x00, 0xf4, 0x0b, 0x00, 0x00, 0xe0, 0x0a, 0x00, 0x00,
  0xbc, 0x09, 0x00, 0x00, 0xd8, 0x08, 0x00, 0x00, 0xe0, 0x07, 0x00, 0x00,
  0xf8, 0x06, 0x00, 0x00, 0x04, 0x06, 0x00, 0x00, 0x28, 0x05, 0x00, 0x00,
  0x44, 0x04, 0x00, 0x00, 0x68, 0x03, 0x00, 0x00, 0x84, 0x02, 0x00, 0x00,
  0xa8, 0x01, 0x00, 0x00, 0x1c, 0x01, 0x00, 0x00, 0x80, 0x00, 0x00, 0x00,
  0x04, 0x00, 0x00, 0x00, 0x1a, 0xed, 0xff, 0xff, 0x00, 0x00, 0x00, 0x01,
  0x18, 0x00, 0x00, 0x00, 0x20, 0x00, 0x00, 0x00, 0x3c, 0x00, 0x00, 0x00,
  0x16, 0x00, 0x00, 0x00, 0x00, 0x00, 0x00, 0x09, 0x50, 0x00, 0x00, 0x00,
  0x02, 0x00, 0x00, 0x00, 0xff, 0xff, 0xff, 0xff, 0x0a, 0x00, 0x00, 0x00,
  0xfc, 0xec, 0xff, 0xff, 0x08, 0x00, 0x00, 0x00, 0x10, 0x00, 0x00, 0x00,
  0x01, 0x00, 0x00, 0x00, 0x80, 0xff, 0xff, 0xff, 0xff, 0xff, 0xff, 0xff,
  0x01, 0x00, 0x00, 0x00, 0x00, 0x00, 0x80, 0x3b, 0x19, 0x00, 0x00, 0x00,
  0x53, 0x74, 0x61, 0x74, 0x65, 0x66, 0x75, 0x6c, 0x50, 0x61, 0x72, 0x74,
  0x69, 0x74, 0x69, 0x6f, 0x6e, 0x65, 0x64, 0x43, 0x61, 0x6c, 0x6c, 0x3a,
  0x30, 0x00, 0x00, 0x00, 0x02, 0x00, 0x00, 0x00, 0x01, 0x00, 0x00, 0x00,
  0x0a, 0x00, 0x00, 0x00, 0x92, 0xed, 0xff, 0xff, 0x00, 0x00, 0x00, 0x01,
  0x18, 0x00, 0x00, 0x00, 0x20, 0x00, 0x00, 0x00, 0x40, 0x00, 0x00, 0x00,
  0x15, 0x00, 0x00, 0x00, 0x00, 0x00, 0x00, 0x09, 0x70, 0x00, 0x00, 0x00,
  0x02, 0x00, 0x00, 0x00, 0xff, 0xff, 0xff, 0xff, 0x0a, 0x00, 0x00, 0x00,
  0x74, 0xed, 0xff, 0xff, 0x08, 0x00, 0x00, 0x00, 0x14, 0x00, 0x00, 0x00,
  0x01, 0x00, 0x00, 0x00, 0xf4, 0xff, 0xff, 0xff, 0xff, 0xff, 0xff, 0xff,
  0x00, 0x00, 0x00, 0x00, 0x01, 0x00, 0x00, 0x00, 0x02, 0x82, 0x31, 0x3d,
  0x34, 0x00, 0x00, 0x00, 0x74, 0x69, 0x6e, 0x79, 0x5f, 0x64, 0x73, 0x63,
  0x6e, 0x6e, 0x2f, 0x64, 0x65, 0x6e, 0x73, 0x65, 0x5f, 0x33, 0x2f, 0x4d,
  0x61, 0x74, 0x4d, 0x75, 0x6c, 0x3b, 0x74, 0x69, 0x6e, 0x79, 0x5f, 0x64,
  0x73, 0x63, 0x6e, 0x6e, 0x2f, 0x64, 0x65, 0x6e, 0x73, 0x65, 0x5f, 0x33,
  0x2f, 0x42, 0x69, 0x61, 0x73, 0x41, 0x64, 0x64, 0x00, 0x00, 0x00, 0x00,
  0x02, 0x00, 0x00, 0x00, 0x01, 0x00, 0x00, 0x00, 0x0a, 0x00, 0x00, 0x00,
  0x2a, 0xee, 0xff, 0xff, 0x00, 0x00, 0x00, 0x01, 0x18, 0x00, 0x00, 0x00,
  0x20, 0x00, 0x00, 0x00, 0x3c, 0x00, 0x00, 0x00, 0x14, 0x00, 0x00, 0x00,
  0x00, 0x00, 0x00, 0x09, 0x60, 0x00, 0x00, 0x00, 0x02, 0x00, 0x00, 0x00,
  0xff, 0xff, 0xff, 0xff, 0x18, 0x00, 0x00, 0x00, 0x0c, 0xee, 0xff, 0xff,
  0x08, 0x00, 0x00, 0x00, 0x10, 0x00, 0x00, 0x00, 0x01, 0x00, 0x00, 0x00,
  0x80, 0xff, 0xff, 0xff, 0xff, 0xff, 0xff, 0xff, 0x01, 0x00, 0x00, 0x00,
  0x51, 0xfc, 0x09, 0x3c, 0x2a, 0x00, 0x00, 0x00, 0x74, 0x69, 0x6e, 0x79,
  0x5f, 0x64, 0x73, 0x63, 0x6e, 0x6e, 0x2f, 0x67, 0x6c, 0x6f, 0x62, 0x61,
  0x6c, 0x5f, 0x61, 0x76, 0x65, 0x72, 0x61, 0x67, 0x65, 0x5f, 0x70, 0x6f,
  0x6f, 0x6c, 0x69, 0x6e, 0x67, 0x32, 0x64, 0x5f, 0x31, 0x2f, 0x4d, 0x65,
  0x61, 0x6e, 0x00, 0x00, 0x02, 0x00, 0x00, 0x00, 0x01, 0x00, 0x00, 0x00,
  0x18, 0x00, 0x00, 0x00, 0xb2, 0xee, 0xff, 0xff, 0x00, 0x00, 0x00, 0x01,
  0x18, 0x00, 0x00, 0x00, 0x28, 0x00, 0x00, 0x00, 0x48, 0x00, 0x00, 0x00,
  0x13, 0x00, 0x00, 0x00, 0x00, 0x00, 0x00, 0x09, 0xa8, 0x00, 0x00, 0x00,
  0x04, 0x00, 0x00, 0x00, 0xff, 0xff, 0xff, 0xff, 0x07, 0x00, 0x00, 0x00,
  0x07, 0x00, 0x00, 0x00, 0x18, 0x00, 0x00, 0x00, 0x9c, 0xee, 0xff, 0xff,
  0x08, 0x00, 0x00, 0x00, 0x14, 0x00, 0x00, 0x00, 0x01, 0x00, 0x00, 0x00,
  0x80, 0xff, 0xff, 0xff, 0xff, 0xff, 0xff, 0xff, 0x00, 0x00, 0x00, 0x00,
  0x01, 0x00, 0x00, 0x00, 0x99, 0xe1, 0x85, 0x3d, 0x64, 0x00, 0x00, 0x00,
  0x74, 0x69, 0x6e, 0x79, 0x5f, 0x64, 0x73, 0x63, 0x6e, 0x6e, 0x2f, 0x72,
  0x65, 0x5f, 0x6c, 0x75, 0x5f, 0x39, 0x2f, 0x52, 0x65, 0x6c, 0x75, 0x3b,
  0x74, 0x69, 0x6e, 0x79, 0x5f, 0x64, 0x73, 0x63, 0x6e, 0x6e, 0x2f, 0x62,
  0x61, 0x74, 0x63, 0x68, 0x5f, 0x6e, 0x6f, 0x72, 0x6d, 0x61, 0x6c, 0x69,
  0x7a, 0x61, 0x74, 0x69, 0x6f, 0x6e, 0x5f, 0x39, 0x2f, 0x46, 0x75, 0x73,
  0x65, 0x64, 0x42, 0x61, 0x74, 0x63, 0x68, 0x4e, 0x6f, 0x72, 0x6d, 0x56,
  0x33, 0x3b, 0x74, 0x69, 0x6e, 0x79, 0x5f, 0x64, 0x73, 0x63, 0x6e, 0x6e,
  0x2f, 0x63, 0x6f, 0x6e, 0x76, 0x32, 0x64, 0x5f, 0x39, 0x2f, 0x43, 0x6f,
  0x6e, 0x76, 0x32, 0x44, 0x00, 0x00, 0x00, 0x00, 0x04, 0x00, 0x00, 0x00,
  0x01, 0x00, 0x00, 0x00, 0x07, 0x00, 0x00, 0x00, 0x07, 0x00, 0x00, 0x00,
  0x18, 0x00, 0x00, 0x00, 0x8a, 0xef, 0xff, 0xff, 0x00, 0x00, 0x00, 0x01,
  0x18, 0x00, 0x00, 0x00, 0x28, 0x00, 0x00, 0x00, 0x44, 0x00, 0x00, 0x00,
  0x12, 0x00, 0x00, 0x00, 0x00, 0x00, 0x00, 0x09, 0xb0, 0x00, 0x00, 0x00,
  0x04, 0x00, 0x00, 0x00, 0xff, 0xff, 0xff, 0xff, 0x07, 0x00, 0x00, 0x00,
  0x07, 0x00, 0x00, 0x00, 0x10, 0x00, 0x00, 0x00, 0x74, 0xef, 0xff, 0xff,
  0x08, 0x00, 0x00, 0x00, 0x10, 0x00, 0x00, 0x00, 0x01, 0x00, 0x00, 0x00,
  0x80, 0xff, 0xff, 0xff, 0xff, 0xff, 0xff, 0xff, 0x01, 0x00, 0x00, 0x00,
  0xfa, 0x55, 0xa9, 0x3c, 0x71, 0x00, 0x00, 0x00, 0x74, 0x69, 0x6e, 0x79,
  0x5f, 0x64, 0x73, 0x63, 0x6e, 0x6e, 0x2f, 0x72, 0x65, 0x5f, 0x6c, 0x75,
  0x5f, 0x38, 0x2f, 0x52, 0x65, 0x6c, 0x75, 0x3b, 0x74, 0x69, 0x6e, 0x79,
  0x5f, 0x64, 0x73, 0x63, 0x6e, 0x6e, 0x2f, 0x62, 0x61, 0x74, 0x63, 0x68,
  0x5f, 0x6e, 0x6f, 0x72, 0x6d, 0x61, 0x6c, 0x69, 0x7a, 0x61, 0x74, 0x69,
  0x6f, 0x6e, 0x5f, 0x38, 0x2f, 0x46, 0x75, 0x73, 0x65, 0x64, 0x42, 0x61,
  0x74, 0x63, 0x68, 0x4e, 0x6f, 0x72, 0x6d, 0x56, 0x33, 0x3b, 0x74, 0x69,
  0x6e, 0x79, 0x5f, 0x64, 0x73, 0x63, 0x6e, 0x6e, 0x2f, 0x64, 0x65, 0x70,
  0x74, 0x68, 0x77, 0x69, 0x73, 0x65, 0x5f, 0x63, 0x6f, 0x6e, 0x76, 0x32,
  0x64, 0x5f, 0x33, 0x2f, 0x64, 0x65, 0x70, 0x74, 0x68, 0x77, 0x69, 0x73,
  0x65, 0x00, 0x00, 0x00, 0x04, 0x00, 0x00, 0x00, 0x01, 0x00, 0x00, 0x00,
  0x07, 0x00, 0x00, 0x00, 0x07, 0x00, 0x00, 0x00, 0x10, 0x00, 0x00, 0x00,
  0x6a, 0xf0, 0xff, 0xff, 0x00, 0x00, 0x00, 0x01, 0x18, 0x00, 0x00, 0x00,
  0x28, 0x00, 0x00, 0x00, 0x48, 0x00, 0x00, 0x00, 0x11, 0x00, 0x00, 0x00,
  0x00, 0x00, 0x00, 0x09, 0xa8, 0x00, 0x00, 0x00, 0x04, 0x00, 0x00, 0x00,
  0xff, 0xff, 0xff, 0xff, 0x0e, 0x00, 0x00, 0x00, 0x0e, 0x00, 0x00, 0x00,
  0x10, 0x00, 0x00, 0x00, 0x54, 0xf0, 0xff, 0xff, 0x08, 0x00, 0x00, 0x00,
  0x14, 0x00, 0x00, 0x00, 0x01, 0x00, 0x00, 0x00, 0x80, 0xff, 0xff, 0xff,
  0xff, 0xff, 0xff, 0xff, 0x00, 0x00, 0x00, 0x00, 0x01, 0x00, 0x00, 0x00,
  0x9a, 0xa6, 0xa9, 0x3c, 0x64, 0x00, 0x00, 0x00, 0x74, 0x69, 0x6e, 0x79,
  0x5f, 0x64, 0x73, 0x63, 0x6e, 0x6e, 0x2f, 0x72, 0x65, 0x5f, 0x6c, 0x75,
  0x5f, 0x37, 0x2f, 0x52, 0x65, 0x6c, 0x75, 0x3b, 0x74, 0x69, 0x6e, 0x79,
  0x5f, 0x64, 0x73, 0x63, 0x6e, 0x6e, 0x2f, 0x62, 0x61, 0x74, 0x63, 0x68,
  0x5f, 0x6e, 0x6f, 0x72, 0x6d, 0x61, 0x6c, 0x69, 0x7a, 0x61, 0x74, 0x69,
  0x6f, 0x6e, 0x5f, 0x37, 0x2f, 0x46, 0x75, 0x73, 0x65, 0x64, 0x42, 0x61,
  0x74, 0x63, 0x68, 0x4e, 0x6f, 0x72, 0x6d, 0x56, 0x33, 0x3b, 0x74, 0x69,
  0x6e, 0x79, 0x5f, 0x64, 0x73, 0x63, 0x6e, 0x6e, 0x2f, 0x63, 0x6f, 0x6e,
  0x76, 0x32, 0x64, 0x5f, 0x38, 0x2f, 0x43, 0x6f, 0x6e, 0x76, 0x32, 0x44,
  0x00, 0x00, 0x00, 0x00, 0x04, 0x00, 0x00, 0x00, 0x01, 0x00, 0x00, 0x00,
  0x0e, 0x00, 0x00, 0x00, 0x0e, 0x00, 0x00, 0x00, 0x10, 0x00, 0x00, 0x00,
  0x42, 0xf1, 0xff, 0xff, 0x00, 0x00, 0x00, 0x01, 0x18, 0x00, 0x00, 0x00,
  0x28, 0x00, 0x00, 0x00, 0x44, 0x00, 0x00, 0x00, 0x10, 0x00, 0x00, 0x00,
  0x00, 0x00, 0x00, 0x09, 0xb0, 0x00, 0x00, 0x00, 0x04, 0x00, 0x00, 0x00,
  0xff, 0xff, 0xff, 0xff, 0x0e, 0x00, 0x00, 0x00, 0x0e, 0x00, 0x00, 0x00,
  0x0c, 0x00, 0x00, 0x00, 0x2c, 0xf1, 0xff, 0xff, 0x08, 0x00, 0x00, 0x00,
  0x10, 0x00, 0x00, 0x00, 0x01, 0x00, 0x00, 0x00, 0x80, 0xff, 0xff, 0xff,
  0xff, 0xff, 0xff, 0xff, 0x01, 0x00, 0x00, 0x00, 0x6f, 0xd9, 0xc3, 0x3c,
  0x71, 0x00, 0x00, 0x00, 0x74, 0x69, 0x6e, 0x79, 0x5f, 0x64, 0x73, 0x63,
  0x6e, 0x6e, 0x2f, 0x72, 0x65, 0x5f, 0x6c, 0x75, 0x5f, 0x36, 0x2f, 0x52,
  0x65, 0x6c, 0x75, 0x3b, 0x74, 0x69, 0x6e, 0x79, 0x5f, 0x64, 0x73, 0x63,
  0x6e, 0x6e, 0x2f, 0x62, 0x61, 0x74, 0x63, 0x68, 0x5f, 0x6e, 0x6f, 0x72,
  0x6d, 0x61, 0x6c, 0x69, 0x7a, 0x61, 0x74, 0x69, 0x6f, 0x6e, 0x5f, 0x36,
  0x2f, 0x46, 0x75, 0x73, 0x65, 0x64, 0x42, 0x61, 0x74, 0x63, 0x68, 0x4e,
  0x6f, 0x72, 0x6d, 0x56, 0x33, 0x3b, 0x74, 0x69, 0x6e, 0x79, 0x5f, 0x64,
  0x73, 0x63, 0x6e, 0x6e, 0x2f, 0x64, 0x65, 0x70, 0x74, 0x68, 0x77, 0x69,
  0x73, 0x65, 0x5f, 0x63, 0x6f, 0x6e, 0x76, 0x32, 0x64, 0x5f, 0x32, 0x2f,
  0x64, 0x65, 0x70, 0x74, 0x68, 0x77, 0x69, 0x73, 0x65, 0x00, 0x00, 0x00,
  0x04, 0x00, 0x00, 0x00, 0x01, 0x00, 0x00, 0x00, 0x0e, 0x00, 0x00, 0x00,
  0x0e, 0x00, 0x00, 0x00, 0x0c, 0x00, 0x00, 0x00, 0x22, 0xf2, 0xff, 0xff,
  0x00, 0x00, 0x00, 0x01, 0x18, 0x00, 0x00, 0x00, 0x28, 0x00, 0x00, 0x00,
  0x48, 0x00, 0x00, 0x00, 0x0f, 0x00, 0x00, 0x00, 0x00, 0x00, 0x00, 0x09,
  0xa8, 0x00, 0x00, 0x00, 0x04, 0x00, 0x00, 0x00, 0xff, 0xff, 0xff, 0xff,
  0x0e, 0x00, 0x00, 0x00, 0x0e, 0x00, 0x00, 0x00, 0x0c, 0x00, 0x00, 0x00,
  0x0c, 0xf2, 0xff, 0xff, 0x08, 0x00, 0x00, 0x00, 0x14, 0x00, 0x00, 0x00,
  0x01, 0x00, 0x00, 0x00, 0x80, 0xff, 0xff, 0xff, 0xff, 0xff, 0xff, 0xff,
  0x00, 0x00, 0x00, 0x00, 0x01, 0x00, 0x00, 0x00, 0xc4, 0x98, 0x8a, 0x3c,
  0x65, 0x00, 0x00, 0x00, 0x74, 0x69, 0x6e, 0x79, 0x5f, 0x64, 0x73, 0x63,
  0x6e, 0x6e, 0x2f, 0x72, 0x65, 0x5f, 0x6c, 0x75, 0x5f, 0x35, 0x2f, 0x52,
  0x65, 0x6c, 0x75, 0x3b, 0x74, 0x69, 0x6e, 0x79, 0x5f, 0x64, 0x73, 0x63,
  0x6e, 0x6e, 0x2f, 0x62, 0x61, 0x74, 0x63, 0x68, 0x5f, 0x6e, 0x6f, 0x72,
  0x6d, 0x61, 0x6c, 0x69, 0x7a, 0x61, 0x74, 0x69, 0x6f, 0x6e, 0x5f, 0x35,
  0x2f, 0x46, 0x75, 0x73, 0x65, 0x64, 0x42, 0x61, 0x74, 0x63, 0x68, 0x4e,
  0x6f, 0x72, 0x6d, 0x56, 0x33, 0x3b, 0x74, 0x69, 0x6e, 0x79, 0x5f, 0x64,
  0x73, 0x63, 0x6e, 0x6e, 0x2f, 0x63, 0x6f, 0x6e, 0x76, 0x32, 0x64, 0x5f,
  0x37, 0x2f, 0x43, 0x6f, 0x6e, 0x76, 0x32, 0x44, 0x31, 0x00, 0x00, 0x00,
  0x04, 0x00, 0x00, 0x00, 0x01, 0x00, 0x00, 0x00, 0x0e, 0x00, 0x00, 0x00,
  0x0e, 0x00, 0x00, 0x00, 0x0c, 0x00, 0x00, 0x00, 0x52, 0xf3, 0xff, 0xff,
  0x00, 0x00, 0x00, 0x01, 0x14, 0x00, 0x00, 0x00, 0xb8, 0x00, 0x00, 0x00,
  0x0e, 0x00, 0x00, 0x00, 0x00, 0x00, 0x00, 0x09, 0xc4, 0x00, 0x00, 0x00,
  0xcc, 0xf2, 0xff, 0xff, 0x08, 0x00, 0x00, 0x00, 0x6c, 0x00, 0x00, 0x00,
  0x0c, 0x00, 0x00, 0x00, 0x00, 0x00, 0x00, 0x00, 0x00, 0x00, 0x00, 0x00,
  0x00, 0x00, 0x00, 0x00, 0x00, 0x00, 0x00, 0x00, 0x00, 0x00, 0x00, 0x00,
  0x00, 0x00, 0x00, 0x00, 0x00, 0x00, 0x00, 0x00, 0x00, 0x00, 0x00, 0x00,
  0x00, 0x00, 0x00, 0x00, 0x00, 0x00, 0x00, 0x00, 0x00, 0x00, 0x00, 0x00,
  0x00, 0x00, 0x00, 0x00, 0x00, 0x00, 0x00, 0x00, 0x00, 0x00, 0x00, 0x00,
  0x00, 0x00, 0x00, 0x00, 0x00, 0x00, 0x00, 0x00, 0x00, 0x00, 0x00, 0x00,
  0x00, 0x00, 0x00, 0x00, 0x00, 0x00, 0x00, 0x00, 0x00, 0x00, 0x00, 0x00,
  0x00, 0x00, 0x00, 0x00, 0x00, 0x00, 0x00, 0x00, 0x00, 0x00, 0x00, 0x00,
  0x00, 0x00, 0x00, 0x00, 0x00, 0x00, 0x00, 0x00, 0x0c, 0x00, 0x00, 0x00,
  0xe1, 0x1e, 0x8c, 0x3c, 0x13, 0xa2, 0x0e, 0x3c, 0x21, 0xc2, 0x9f, 0x3b,
  0x2f, 0x36, 0xea, 0x3b, 0x9c, 0x90, 0x85, 0x3c, 0x05, 0x72, 0x2a, 0x3c,
  0xc7, 0x5d, 0x27, 0x3c, 0x19, 0x6e, 0x5d, 0x3c, 0x3d, 0xca, 0xed, 0x3b,
  0x4e, 0xd1, 0x33, 0x3c, 0xdb, 0xd2, 0xa0, 0x3c, 0x4f, 0x32, 0x82, 0x3b,
  0x13, 0x00, 0x00, 0x00, 0x74, 0x66, 0x6c, 0x2e, 0x70, 0x73, 0x65, 0x75,
  0x64, 0x6f, 0x5f, 0x71, 0x63, 0x6f, 0x6e, 0x73, 0x74, 0x31, 0x31, 0x00,
  0x04, 0x00, 0x00, 0x00, 0x0c, 0x00, 0x00, 0x00, 0x03, 0x00, 0x00, 0x00,
  0x03, 0x00, 0x00, 0x00, 0x01, 0x00, 0x00, 0x00, 0x42, 0xf4, 0xff, 0xff,
  0x00, 0x00, 0x00, 0x01, 0x14, 0x00, 0x00, 0x00, 0xb8, 0x00, 0x00, 0x00,
  0x0d, 0x00, 0x00, 0x00, 0x00, 0x00, 0x00, 0x02, 0xc4, 0x00, 0x00, 0x00,
  0xbc, 0xf3, 0xff, 0xff, 0x08, 0x00, 0x00, 0x00, 0x6c, 0x00, 0x00, 0x00,
  0x0c, 0x00, 0x00, 0x00, 0x00, 0x00, 0x00, 0x00, 0x00, 0x00, 0x00, 0x00,
  0x00, 0x00, 0x00, 0x00, 0x00, 0x00, 0x00, 0x00, 0x00, 0x00, 0x00, 0x00,
  0x00, 0x00, 0x00, 0x00, 0x00, 0x00, 0x00, 0x00, 0x00, 0x00, 0x00, 0x00,
  0x00, 0x00, 0x00, 0x00, 0x00, 0x00, 0x00, 0x00, 0x00, 0x00, 0x00, 0x00,
  0x00, 0x00, 0x00, 0x00, 0x00, 0x00, 0x00, 0x00, 0x00, 0x00, 0x00, 0x00,
  0x00, 0x00, 0x00, 0x00, 0x00, 0x00, 0x00, 0x00, 0x00, 0x00, 0x00, 0x00,
  0x00, 0x00, 0x00, 0x00, 0x00, 0x00, 0x00, 0x00, 0x00, 0x00, 0x00, 0x00,
  0x00, 0x00, 0x00, 0x00, 0x00, 0x00, 0x00, 0x00, 0x00, 0x00, 0x00, 0x00,
  0x00, 0x00, 0x00, 0x00, 0x00, 0x00, 0x00, 0x00, 0x0c, 0x00, 0x00, 0x00,
  0x8d, 0xab, 0x8c, 0x38, 0x45, 0x31, 0x0f, 0x38, 0x84, 0x62, 0xa0, 0x37,
  0x51, 0x21, 0xeb, 0x37, 0xb3, 0x16, 0x86, 0x38, 0x23, 0x1d, 0x2b, 0x38,
  0xcd, 0x05, 0x28, 0x38, 0x66, 0x4c, 0x5e, 0x38, 0xf7, 0xb8, 0xee, 0x37,
  0xd5, 0x85, 0x34, 0x38, 0x50, 0x74, 0xa1, 0x38, 0x05, 0xb5, 0x82, 0x37,
  0x13, 0x00, 0x00, 0x00, 0x74, 0x66, 0x6c, 0x2e, 0x70, 0x73, 0x65, 0x75,
  0x64, 0x6f, 0x5f, 0x71, 0x63, 0x6f, 0x6e, 0x73, 0x74, 0x31, 0x30, 0x00,
  0x01, 0x00, 0x00, 0x00, 0x0c, 0x00, 0x00, 0x00, 0x26, 0xf5, 0xff, 0xff,
  0x00, 0x00, 0x00, 0x01, 0x14, 0x00, 0x00, 0x00, 0xbc, 0x00, 0x00, 0x00,
  0x0c, 0x00, 0x00, 0x00, 0x00, 0x00, 0x00, 0x09, 0xc8, 0x00, 0x00, 0x00,
  0xfa, 0xfb, 0xff, 0xff, 0x03, 0x00, 0x00, 0x00, 0x08, 0x00, 0x00, 0x00,
  0x6c, 0x00, 0x00, 0x00, 0x0c, 0x00, 0x00, 0x00, 0x00, 0x00, 0x00, 0x00,
  0x00, 0x00, 0x00, 0x00, 0x00, 0x00, 0x00, 0x00, 0x00, 0x00, 0x00, 0x00,
  0x00, 0x00, 0x00, 0x00, 0x00, 0x00, 0x00, 0x00, 0x00, 0x00, 0x00, 0x00,
  0x00, 0x00, 0x00, 0x00, 0x00, 0x00, 0x00, 0x00, 0x00, 0x00, 0x00, 0x00,
  0x00, 0x00, 0x00, 0x00, 0x00, 0x00, 0x00, 0x00, 0x00, 0x00, 0x00, 0x00,
  0x00, 0x00, 0x00, 0x00, 0x00, 0x00, 0x00, 0x00, 0x00, 0x00, 0x00, 0x00,
  0x00, 0x00, 0x00, 0x00, 0x00, 0x00, 0x00, 0x00, 0x00, 0x00, 0x00, 0x00,
  0x00, 0x00, 0x00, 0x00, 0x00, 0x00, 0x00, 0x00, 0x00, 0x00, 0x00, 0x00,
  0x00, 0x00, 0x00, 0x00, 0x00, 0x00, 0x00, 0x00, 0x00, 0x00, 0x00, 0x00,
  0x0c, 0x00, 0x00, 0x00, 0xfe, 0x68, 0x8e, 0x3c, 0x8c, 0x1a, 0xf7, 0x3b,
  0x26, 0x39, 0xf0, 0x3b, 0x5d, 0x31, 0x3f, 0x3c, 0xea, 0xfb, 0x8a, 0x3c,
  0xb4, 0x49, 0x81, 0x3b, 0x8e, 0x3c, 0x6b, 0x3c, 0x61, 0xd5, 0xd8, 0x3b,
  0x4d, 0x40, 0x13, 0x3c, 0x96, 0xc3, 0x17, 0x3d, 0x49, 0x08, 0x63, 0x3b,
  0x96, 0x38, 0x9d, 0x3b, 0x12, 0x00, 0x00, 0x00, 0x74, 0x66, 0x6c, 0x2e,
  0x70, 0x73, 0x65, 0x75, 0x64, 0x6f, 0x5f, 0x71, 0x63, 0x6f, 0x6e, 0x73,
  0x74, 0x39, 0x00, 0x00, 0x04, 0x00, 0x00, 0x00, 0x01, 0x00, 0x00, 0x00,
  0x03, 0x00, 0x00, 0x00, 0x03, 0x00, 0x00, 0x00, 0x0c, 0x00, 0x00, 0x00,
  0x1a, 0xf6, 0xff, 0xff, 0x00, 0x00, 0x00, 0x01, 0x14, 0x00, 0x00, 0x00,
  0xb4, 0x00, 0x00, 0x00, 0x0b, 0x00, 0x00, 0x00, 0x00, 0x00, 0x00, 0x02,
  0xc0, 0x00, 0x00, 0x00, 0x94, 0xf5, 0xff, 0xff, 0x08, 0x00, 0x00, 0x00,
  0x68, 0x00, 0x00, 0x00, 0x0c, 0x00, 0x00, 0x00, 0x00, 0x00, 0x00, 0x00,
  0x00, 0x00, 0x00, 0x00, 0x00, 0x00, 0x00, 0x00, 0x00, 0x00, 0x00, 0x00,
  0x00, 0x00, 0x00, 0x00, 0x00, 0x00, 0x00, 0x00, 0x00, 0x00, 0x00, 0x00,
  0x00, 0x00, 0x00, 0x00, 0x00, 0x00, 0x00, 0x00, 0x00, 0x00, 0x00, 0x00,
  0x00, 0x00, 0x00, 0x00, 0x00, 0x00, 0x00, 0x00, 0x00, 0x00, 0x00, 0x00,
  0x00, 0x00, 0x00, 0x00, 0x00, 0x00, 0x00, 0x00, 0x00, 0x00, 0x00, 0x00,
  0x00, 0x00, 0x00, 0x00, 0x00, 0x00, 0x00, 0x00, 0x00, 0x00, 0x00, 0x00,
  0x00, 0x00, 0x00, 0x00, 0x00, 0x00, 0x00, 0x00, 0x00, 0x00, 0x00, 0x00,
  0x00, 0x00, 0x00, 0x00, 0x00, 0x00, 0x00, 0x00, 0x0c, 0x00, 0x00, 0x00,
  0x29, 0x33, 0x9a, 0x39, 0xc4, 0xc7, 0x05, 0x39, 0x28, 0x0e, 0x02, 0x39,
  0x68, 0x05, 0x4f, 0x39, 0x78, 0x7d, 0x96, 0x39, 0xc4, 0xfd, 0x8b, 0x38,
  0x09, 0xb6, 0x7e, 0x39, 0xd6, 0xc8, 0xea, 0x38, 0x11, 0x71, 0x1f, 0x39,
  0xfe, 0x53, 0x24, 0x3a, 0xe4, 0xd3, 0x75, 0x38, 0xa6, 0x3c, 0xaa, 0x38,
  0x12, 0x00, 0x00, 0x00, 0x74, 0x66, 0x6c, 0x2e, 0x70, 0x73, 0x65, 0x75,
  0x64, 0x6f, 0x5f, 0x71, 0x63, 0x6f, 0x6e, 0x73, 0x74, 0x38, 0x00, 0x00,
  0x01, 0x00, 0x00, 0x00, 0x0c, 0x00, 0x00, 0x00, 0xfa, 0xf6, 0xff, 0xff,
  0x00, 0x00, 0x00, 0x01, 0x14, 0x00, 0x00, 0x00, 0xe8, 0x00, 0x00, 0x00,
  0x0a, 0x00, 0x00, 0x00, 0x00, 0x00, 0x00, 0x09, 0xf4, 0x00, 0x00, 0x00,
  0x74, 0xf6, 0xff, 0xff, 0x08, 0x00, 0x00, 0x00, 0x8c, 0x00, 0x00, 0x00,
  0x10, 0x00, 0x00, 0x00, 0x00, 0x00, 0x00, 0x00, 0x00, 0x00, 0x00, 0x00,
  0x00, 0x00, 0x00, 0x00, 0x00, 0x00, 0x00, 0x00, 0x00, 0x00, 0x00, 0x00,
  0x00, 0x00, 0x00, 0x00, 0x00, 0x00, 0x00, 0x00, 0x00, 0x00, 0x00, 0x00,
  0x00, 0x00, 0x00, 0x00, 0x00, 0x00, 0x00, 0x00, 0x00, 0x00, 0x00, 0x00,
  0x00, 0x00, 0x00, 0x00, 0x00, 0x00, 0x00, 0x00, 0x00, 0x00, 0x00, 0x00,
  0x00, 0x00, 0x00, 0x00, 0x00, 0x00, 0x00, 0x00, 0x00, 0x00, 0x00, 0x00,
  0x00, 0x00, 0x00, 0x00, 0x00, 0x00, 0x00, 0x00, 0x00, 0x00, 0x00, 0x00,
  0x00, 0x00, 0x00, 0x00, 0x00, 0x00, 0x00, 0x00, 0x00, 0x00, 0x00, 0x00,
  0x00, 0x00, 0x00, 0x00, 0x00, 0x00, 0x00, 0x00, 0x00, 0x00, 0x00, 0x00,
  0x00, 0x00, 0x00, 0x00, 0x00, 0x00, 0x00, 0x00, 0x00, 0x00, 0x00, 0x00,
  0x00, 0x00, 0x00, 0x00, 0x00, 0x00, 0x00, 0x00, 0x00, 0x00, 0x00, 0x00,
  0x00, 0x00, 0x00, 0x00, 0x10, 0x00, 0x00, 0x00, 0xe1, 0xa2, 0xf5, 0x3b,
  0x0d, 0xe4, 0xa0, 0x3b, 0xf6, 0xa3, 0xe3, 0x3b, 0xed, 0x54, 0x09, 0x3c,
  0x6f, 0xa2, 0x23, 0x3c, 0xfb, 0xee, 0xa1, 0x3b, 0x8a, 0xa3, 0xfa, 0x3b,
  0x1c, 0xfa, 0x0f, 0x3c, 0x44, 0x4a, 0x25, 0x3c, 0x2f, 0x80, 0x82, 0x3c,
  0x09, 0x8a, 0xfa, 0x3b, 0x54, 0x26, 0xe8, 0x3b, 0x44, 0x9a, 0x2c, 0x3c,
  0xc5, 0x3a, 0x80, 0x3b, 0x71, 0x28, 0xea, 0x3b, 0x2c, 0xae, 0x92, 0x3b,
  0x12, 0x00, 0x00, 0x00, 0x74, 0x66, 0x6c, 0x2e, 0x70, 0x73, 0x65, 0x75,
  0x64, 0x6f, 0x5f, 0x71, 0x63, 0x6f, 0x6e, 0x73, 0x74, 0x37, 0x00, 0x00,
  0x04, 0x00, 0x00, 0x00, 0x10, 0x00, 0x00, 0x00, 0x01, 0x00, 0x00, 0x00,
  0x01, 0x00, 0x00, 0x00, 0x0c, 0x00, 0x00, 0x00, 0x1a, 0xf8, 0xff, 0xff,
  0x00, 0x00, 0x00, 0x01, 0x14, 0x00, 0x00, 0x00, 0xe4, 0x00, 0x00, 0x00,
  0x09, 0x00, 0x00, 0x00, 0x00, 0x00, 0x00, 0x02, 0xf0, 0x00, 0x00, 0x00,
  0x94, 0xf7, 0xff, 0xff, 0x08, 0x00, 0x00, 0x00, 0x88, 0x00, 0x00, 0x00,
  0x10, 0x00, 0x00, 0x00, 0x00, 0x00, 0x00, 0x00, 0x00, 0x00, 0x00, 0x00,
  0x00, 0x00, 0x00, 0x00, 0x00, 0x00, 0x00, 0x00, 0x00, 0x00, 0x00, 0x00,
  0x00, 0x00, 0x00, 0x00, 0x00, 0x00, 0x00, 0x00, 0x00, 0x00, 0x00, 0x00,
  0x00, 0x00, 0x00, 0x00, 0x00, 0x00, 0x00, 0x00, 0x00, 0x00, 0x00, 0x00,
  0x00, 0x00, 0x00, 0x00, 0x00, 0x00, 0x00, 0x00, 0x00, 0x00, 0x00, 0x00,
  0x00, 0x00, 0x00, 0x00, 0x00, 0x00, 0x00, 0x00, 0x00, 0x00, 0x00, 0x00,
  0x00, 0x00, 0x00, 0x00, 0x00, 0x00, 0x00, 0x00, 0x00, 0x00, 0x00, 0x00,
  0x00, 0x00, 0x00, 0x00, 0x00, 0x00, 0x00, 0x00, 0x00, 0x00, 0x00, 0x00,
  0x00, 0x00, 0x00, 0x00, 0x00, 0x00, 0x00, 0x00, 0x00, 0x00, 0x00, 0x00,
  0x00, 0x00, 0x00, 0x00, 0x00, 0x00, 0x00, 0x00, 0x00, 0x00, 0x00, 0x00,
  0x00, 0x00, 0x00, 0x00, 0x00, 0x00, 0x00, 0x00, 0x00, 0x00, 0x00, 0x00,
  0x10, 0x00, 0x00, 0x00, 0xb3, 0xeb, 0x3b, 0x39, 0xba, 0x2c, 0xf6, 0x38,
  0x3d, 0x27, 0x2e, 0x39, 0xaa, 0x20, 0x52, 0x39, 0x6c, 0x5f, 0x7a, 0x39,
  0x26, 0xc5, 0xf7, 0x38, 0x73, 0xbf, 0x3f, 0x39, 0x9a, 0x4b, 0x5c, 0x39,
  0xeb, 0xe7, 0x7c, 0x39, 0xf6, 0xac, 0xc7, 0x39, 0xf0, 0xab, 0x3f, 0x39,
  0x5f, 0x9a, 0x31, 0x39, 0x1b, 0x0c, 0x84, 0x39, 0x5b, 0x33, 0xc4, 0x38,
  0xb0, 0x23, 0x33, 0x39, 0x82, 0x6e, 0xe0, 0x38, 0x12, 0x00, 0x00, 0x00,
  0x74, 0x66, 0x6c, 0x2e, 0x70, 0x73, 0x65, 0x75, 0x64, 0x6f, 0x5f, 0x71,
  0x63, 0x6f, 0x6e, 0x73, 0x74, 0x36, 0x00, 0x00, 0x01, 0x00, 0x00, 0x00,
  0x10, 0x00, 0x00, 0x00, 0x2a, 0xf9, 0xff, 0xff, 0x00, 0x00, 0x00, 0x01,
  0x28, 0x00, 0x00, 0x00, 0x00, 0x01, 0x00, 0x00, 0x08, 0x00, 0x00, 0x00,
  0x00, 0x00, 0x00, 0x09, 0x0c, 0x01, 0x00, 0x00, 0x00, 0x00, 0x12, 0x00,
  0x10, 0x00, 0x00, 0x00, 0x00, 0x00, 0x0c, 0x00, 0x08, 0x00, 0x00, 0x00,
  0x00, 0x00, 0x04, 0x00, 0x12, 0x00, 0x00, 0x00, 0x03, 0x00, 0x00, 0x00,
  0x08, 0x00, 0x00, 0x00, 0x8c, 0x00, 0x00, 0x00, 0x10, 0x00, 0x00, 0x00,
  0x00, 0x00, 0x00, 0x00, 0x00, 0x00, 0x00, 0x00, 0x00, 0x00, 0x00, 0x00,
  0x00, 0x00, 0x00, 0x00, 0x00, 0x00, 0x00, 0x00, 0x00, 0x00, 0x00, 0x00,
  0x00, 0x00, 0x00, 0x00, 0x00, 0x00, 0x00, 0x00, 0x00, 0x00, 0x00, 0x00,
  0x00, 0x00, 0x00, 0x00, 0x00, 0x00, 0x00, 0x00, 0x00, 0x00, 0x00, 0x00,
  0x00, 0x00, 0x00, 0x00, 0x00, 0x00, 0x00, 0x00, 0x00, 0x00, 0x00, 0x00,
  0x00, 0x00, 0x00, 0x00, 0x00, 0x00, 0x00, 0x00, 0x00, 0x00, 0x00, 0x00,
  0x00, 0x00, 0x00, 0x00, 0x00, 0x00, 0x00, 0x00, 0x00, 0x00, 0x00, 0x00,
  0x00, 0x00, 0x00, 0x00, 0x00, 0x00, 0x00, 0x00, 0x00, 0x00, 0x00, 0x00,
  0x00, 0x00, 0x00, 0x00, 0x00, 0x00, 0x00, 0x00, 0x00, 0x00, 0x00, 0x00,
  0x00, 0x00, 0x00, 0x00, 0x00, 0x00, 0x00, 0x00, 0x00, 0x00, 0x00, 0x00,
  0x00, 0x00, 0x00, 0x00, 0x00, 0x00, 0x00, 0x00, 0x00, 0x00, 0x00, 0x00,
  0x10, 0x00, 0x00, 0x00, 0x21, 0x39, 0x93, 0x3b, 0x9e, 0x01, 0x66, 0x3c,
  0xbb, 0x4e, 0x05, 0x3c, 0x81, 0x7f, 0x11, 0x3c, 0x87, 0x48, 0xcf, 0x3b,
  0xb6, 0x86, 0x51, 0x3c, 0xe9, 0xa6, 0xd4, 0x3b, 0xbc, 0xee, 0x99, 0x3c,
  0xc1, 0x78, 0xd2, 0x3b, 0x9d, 0x86, 0xd0, 0x3b, 0x5c, 0x27, 0xdc, 0x3b,
  0x27, 0x59, 0x36, 0x3c, 0x72, 0xd7, 0x3f, 0x3b, 0x84, 0x5f, 0xf6, 0x3b,
  0x1c, 0xef, 0x74, 0x3c, 0x4a, 0x70, 0xde, 0x3b, 0x12, 0x00, 0x00, 0x00,
  0x74, 0x66, 0x6c, 0x2e, 0x70, 0x73, 0x65, 0x75, 0x64, 0x6f, 0x5f, 0x71,
  0x63, 0x6f, 0x6e, 0x73, 0x74, 0x35, 0x00, 0x00, 0x04, 0x00, 0x00, 0x00,
  0x01, 0x00, 0x00, 0x00, 0x03, 0x00, 0x00, 0x00, 0x03, 0x00, 0x00, 0x00,
  0x10, 0x00, 0x00, 0x00, 0x62, 0xfa, 0xff, 0xff, 0x00, 0x00, 0x00, 0x01,
  0x14, 0x00, 0x00, 0x00, 0xe4, 0x00, 0x00, 0x00, 0x07, 0x00, 0x00, 0x00,
  0x00, 0x00, 0x00, 0x02, 0xf0, 0x00, 0x00, 0x00, 0xdc, 0xf9, 0xff, 0xff,
  0x08, 0x00, 0x00, 0x00, 0x88, 0x00, 0x00, 0x00, 0x10, 0x00, 0x00, 0x00,
  0x00, 0x00, 0x00, 0x00, 0x00, 0x00, 0x00, 0x00, 0x00, 0x00, 0x00, 0x00,
  0x00, 0x00, 0x00, 0x00, 0x00, 0x00, 0x00, 0x00, 0x00, 0x00, 0x00, 0x00,
  0x00, 0x00, 0x00, 0x00, 0x00, 0x00, 0x00, 0x00, 0x00, 0x00, 0x00, 0x00,
  0x00, 0x00, 0x00, 0x00, 0x00, 0x00, 0x00, 0x00, 0x00, 0x00, 0x00, 0x00,
  0x00, 0x00, 0x00, 0x00, 0x00, 0x00, 0x00, 0x00, 0x00, 0x00, 0x00, 0x00,
  0x00, 0x00, 0x00, 0x00, 0x00, 0x00, 0x00, 0x00, 0x00, 0x00, 0x00, 0x00,
  0x00, 0x00, 0x00, 0x00, 0x00, 0x00, 0x00, 0x00, 0x00, 0x00, 0x00, 0x00,
  0x00, 0x00, 0x00, 0x00, 0x00, 0x00, 0x00, 0x00, 0x00, 0x00, 0x00, 0x00,
  0x00, 0x00, 0x00, 0x00, 0x00, 0x00, 0x00, 0x00, 0x00, 0x00, 0x00, 0x00,
  0x00, 0x00, 0x00, 0x00, 0x00, 0x00, 0x00, 0x00, 0x00, 0x00, 0x00, 0x00,
  0x00, 0x00, 0x00, 0x00, 0x00, 0x00, 0x00, 0x00, 0x10, 0x00, 0x00, 0x00,
  0x0d, 0x21, 0xc3, 0x38, 0xc1, 0x6c, 0x98, 0x39, 0x75, 0xaf, 0x30, 0x39,
  0xb9, 0xd7, 0x40, 0x39, 0xc7, 0x5d, 0x09, 0x39, 0x4a, 0xda, 0x8a, 0x39,
  0x94, 0xec, 0x0c, 0x39, 0x8f, 0x05, 0xcc, 0x39, 0xb0, 0x7a, 0x0b, 0x39,
  0x92, 0x30, 0x0a, 0x39, 0x42, 0xe5, 0x11, 0x39, 0x0c, 0xaf, 0x71, 0x39,
  0x27, 0x44, 0x7e, 0x38, 0x64, 0x45, 0x23, 0x39, 0x40, 0x51, 0xa2, 0x39,
  0xe3, 0x68, 0x13, 0x39, 0x12, 0x00, 0x00, 0x00, 0x74, 0x66, 0x6c, 0x2e,
  0x70, 0x73, 0x65, 0x75, 0x64, 0x6f, 0x5f, 0x71, 0x63, 0x6f, 0x6e, 0x73,
  0x74, 0x34, 0x00, 0x00, 0x01, 0x00, 0x00, 0x00, 0x10, 0x00, 0x00, 0x00,
  0x72, 0xfb, 0xff, 0xff, 0x00, 0x00, 0x00, 0x01, 0x14, 0x00, 0x00, 0x00,
  0x48, 0x01, 0x00, 0x00, 0x06, 0x00, 0x00, 0x00, 0x00, 0x00, 0x00, 0x09,
  0x54, 0x01, 0x00, 0x00, 0xec, 0xfa, 0xff, 0xff, 0x08, 0x00, 0x00, 0x00,
  0xcc, 0x00, 0x00, 0x00, 0x18, 0x00, 0x00, 0x00, 0x00, 0x00, 0x00, 0x00,
  0x00, 0x00, 0x00, 0x00, 0x00, 0x00, 0x00, 0x00, 0x00, 0x00, 0x00, 0x00,
  0x00, 0x00, 0x00, 0x00, 0x00, 0x00, 0x00, 0x00, 0x00, 0x00, 0x00, 0x00,
  0x00, 0x00, 0x00, 0x00, 0x00, 0x00, 0x00, 0x00, 0x00, 0x00, 0x00, 0x00,
  0x00, 0x00, 0x00, 0x00, 0x00, 0x00, 0x00, 0x00, 0x00, 0x00, 0x00, 0x00,
  0x00, 0x00, 0x00, 0x00, 0x00, 0x00, 0x00, 0x00, 0x00, 0x00, 0x00, 0x00,
  0x00, 0x00, 0x00, 0x00, 0x00, 0x00, 0x00, 0x00, 0x00, 0x00, 0x00, 0x00,
  0x00, 0x00, 0x00, 0x00, 0x00, 0x00, 0x00, 0x00, 0x00, 0x00, 0x00, 0x00,
  0x00, 0x00, 0x00, 0x00, 0x00, 0x00, 0x00, 0x00, 0x00, 0x00, 0x00, 0x00,
  0x00, 0x00, 0x00, 0x00, 0x00, 0x00, 0x00, 0x00, 0x00, 0x00, 0x00, 0x00,
  0x00, 0x00, 0x00, 0x00, 0x00, 0x00, 0x00, 0x00, 0x00, 0x00, 0x00, 0x00,
  0x00, 0x00, 0x00, 0x00, 0x00, 0x00, 0x00, 0x00, 0x00, 0x00, 0x00, 0x00,
  0x00, 0x00, 0x00, 0x00, 0x00, 0x00, 0x00, 0x00, 0x00, 0x00, 0x00, 0x00,
  0x00, 0x00, 0x00, 0x00, 0x00, 0x00, 0x00, 0x00, 0x00, 0x00, 0x00, 0x00,
  0x00, 0x00, 0x00, 0x00, 0x00, 0x00, 0x00, 0x00, 0x00, 0x00, 0x00, 0x00,
  0x00, 0x00, 0x00, 0x00, 0x00, 0x00, 0x00, 0x00, 0x00, 0x00, 0x00, 0x00,
  0x00, 0x00, 0x00, 0x00, 0x00, 0x00, 0x00, 0x00, 0x00, 0x00, 0x00, 0x00,
  0x18, 0x00, 0x00, 0x00, 0x78, 0x68, 0x97, 0x3c, 0x2b, 0x1c, 0xd3, 0x3c,
  0xe9, 0xba, 0x23, 0x3c, 0xcb, 0xdf, 0xf1, 0x3c, 0x4b, 0x95, 0xf8, 0x3c,
  0x5e, 0xa1, 0xc0, 0x3c, 0x68, 0xb5, 0xb2, 0x3c, 0x8f, 0x6d, 0x98, 0x3c,
  0xdb, 0x68, 0x85, 0x3c, 0xbc, 0x9c, 0x77, 0x3c, 0x52, 0x0d, 0xcc, 0x3c,
  0xd8, 0x78, 0x70, 0x3c, 0xd7, 0x2b, 0xd3, 0x3c, 0xcd, 0x2d, 0xea, 0x3c,
  0xd9, 0x93, 0xe4, 0x3c, 0x12, 0x19, 0x85, 0x3c, 0xc8, 0x93, 0xe9, 0x3c,
  0x78, 0x5a, 0x80, 0x3c, 0xa4, 0xff, 0x76, 0x3c, 0x49, 0xc2, 0x4e, 0x3c,
  0x90, 0xef, 0xc3, 0x3c, 0x27, 0x31, 0x7b, 0x3c, 0xf6, 0x47, 0x95, 0x3c,
  0xbe, 0x72, 0xc2, 0x3c, 0x12, 0x00, 0x00, 0x00, 0x74, 0x66, 0x6c, 0x2e,
  0x70, 0x73, 0x65, 0x75, 0x64, 0x6f, 0x5f, 0x71, 0x63, 0x6f, 0x6e, 0x73,
  0x74, 0x33, 0x00, 0x00, 0x04, 0x00, 0x00, 0x00, 0x18, 0x00, 0x00, 0x00,
  0x01, 0x00, 0x00, 0x00, 0x01, 0x00, 0x00, 0x00, 0x10, 0x00, 0x00, 0x00,
  0xf2, 0xfc, 0xff, 0xff, 0x00, 0x00, 0x00, 0x01, 0x14, 0x00, 0x00, 0x00,
  0x44, 0x01, 0x00, 0x00, 0x05, 0x00, 0x00, 0x00, 0x00, 0x00, 0x00, 0x02,
  0x50, 0x01, 0x00, 0x00, 0x6c, 0xfc, 0xff, 0xff, 0x08, 0x00, 0x00, 0x00,
  0xc8, 0x00, 0x00, 0x00, 0x18, 0x00, 0x00, 0x00, 0x00, 0x00, 0x00, 0x00,
  0x00, 0x00, 0x00, 0x00, 0x00, 0x00, 0x00, 0x00, 0x00, 0x00, 0x00, 0x00,
  0x00, 0x00, 0x00, 0x00, 0x00, 0x00, 0x00, 0x00, 0x00, 0x00, 0x00, 0x00,
  0x00, 0x00, 0x00, 0x00, 0x00, 0x00, 0x00, 0x00, 0x00, 0x00, 0x00, 0x00,
  0x00, 0x00, 0x00, 0x00, 0x00, 0x00, 0x00, 0x00, 0x00, 0x00, 0x00, 0x00,
  0x00, 0x00, 0x00, 0x00, 0x00, 0x00, 0x00, 0x00, 0x00, 0x00, 0x00, 0x00,
  0x00, 0x00, 0x00, 0x00, 0x00, 0x00, 0x00, 0x00, 0x00, 0x00, 0x00, 0x00,
  0x00, 0x00, 0x00, 0x00, 0x00, 0x00, 0x00, 0x00, 0x00, 0x00, 0x00, 0x00,
  0x00, 0x00, 0x00, 0x00, 0x00, 0x00, 0x00, 0x00, 0x00, 0x00, 0x00, 0x00,
  0x00, 0x00, 0x00, 0x00, 0x00, 0x00, 0x00, 0x00, 0x00, 0x00, 0x00, 0x00,
  0x00, 0x00, 0x00, 0x00, 0x00, 0x00, 0x00, 0x00, 0x00, 0x00, 0x00, 0x00,
  0x00, 0x00, 0x00, 0x00, 0x00, 0x00, 0x00, 0x00, 0x00, 0x00, 0x00, 0x00,
  0x00, 0x00, 0x00, 0x00, 0x00, 0x00, 0x00, 0x00, 0x00, 0x00, 0x00, 0x00,
  0x00, 0x00, 0x00, 0x00, 0x00, 0x00, 0x00, 0x00, 0x00, 0x00, 0x00, 0x00,
  0x00, 0x00, 0x00, 0x00, 0x00, 0x00, 0x00, 0x00, 0x00, 0x00, 0x00, 0x00,
  0x00, 0x00, 0x00, 0x00, 0x00, 0x00, 0x00, 0x00, 0x00, 0x00, 0x00, 0x00,
  0x00, 0x00, 0x00, 0x00, 0x00, 0x00, 0x00, 0x00, 0x18, 0x00, 0x00, 0x00,
  0xa2, 0x4d, 0xc8, 0x39, 0x7f, 0xa4, 0x0b, 0x3a, 0xc2, 0x9a, 0x58, 0x39,
  0xf9, 0xfd, 0x1f, 0x3a, 0x0b, 0x6e, 0x24, 0x3a, 0x71, 0xd6, 0xfe, 0x39,
  0x8d, 0x6b, 0xec, 0x39, 0x09, 0xa7, 0xc9, 0x39, 0x0d, 0x7e, 0xb0, 0x39,
  0xa1, 0xc9, 0xa3, 0x39, 0x53, 0xf9, 0x06, 0x3a, 0x8a, 0x10, 0x9f, 0x39,
  0xdd, 0xae, 0x0b, 0x3a, 0xe2, 0xe6, 0x1a, 0x3a, 0x5f, 0x32, 0x17, 0x3a,
  0x80, 0x14, 0xb0, 0x39, 0x01, 0x81, 0x1a, 0x3a, 0xa9, 0xcd, 0xa9, 0x39,
  0xb7, 0x61, 0xa3, 0x39, 0xb3, 0xc3, 0x88, 0x39, 0xf4, 0x9a, 0x01, 0x3a,
  0xcf, 0x27, 0xa6, 0x39, 0x48, 0x7d, 0xc5, 0x39, 0x0d, 0x9f, 0x00, 0x3a,
  0x12, 0x00, 0x00, 0x00, 0x74, 0x66, 0x6c, 0x2e, 0x70, 0x73, 0x65, 0x75,
  0x64, 0x6f, 0x5f, 0x71, 0x63, 0x6f, 0x6e, 0x73, 0x74, 0x32, 0x00, 0x00,
  0x01, 0x00, 0x00, 0x00, 0x18, 0x00, 0x00, 0x00, 0x62, 0xfe, 0xff, 0xff,
  0x00, 0x00, 0x00, 0x01, 0x14, 0x00, 0x00, 0x00, 0xa0, 0x00, 0x00, 0x00,
  0x04, 0x00, 0x00, 0x00, 0x00, 0x00, 0x00, 0x09, 0xac, 0x00, 0x00, 0x00,
  0xdc, 0xfd, 0xff, 0xff, 0x08, 0x00, 0x00, 0x00, 0x5c, 0x00, 0x00, 0x00,
  0x0a, 0x00, 0x00, 0x00, 0x00, 0x00, 0x00, 0x00, 0x00, 0x00, 0x00, 0x00,
  0x00, 0x00, 0x00, 0x00, 0x00, 0x00, 0x00, 0x00, 0x00, 0x00, 0x00, 0x00,
  0x00, 0x00, 0x00, 0x00, 0x00, 0x00, 0x00, 0x00, 0x00, 0x00, 0x00, 0x00,
  0x00, 0x00, 0x00, 0x00, 0x00, 0x00, 0x00, 0x00, 0x00, 0x00, 0x00, 0x00,
  0x00, 0x00, 0x00, 0x00, 0x00, 0x00, 0x00, 0x00, 0x00, 0x00, 0x00, 0x00,
  0x00, 0x00, 0x00, 0x00, 0x00, 0x00, 0x00, 0x00, 0x00, 0x00, 0x00, 0x00,
  0x00, 0x00, 0x00, 0x00, 0x00, 0x00, 0x00, 0x00, 0x00, 0x00, 0x00, 0x00,
  0x00, 0x00, 0x00, 0x00, 0x0a, 0x00, 0x00, 0x00, 0x7f, 0x11, 0x06, 0x3c,
  0x53, 0x49, 0xe3, 0x3b, 0x60, 0xb6, 0xcc, 0x3b, 0x48, 0x89, 0xec, 0x3b,
  0x55, 0xd7, 0xfa, 0x3b, 0xbe, 0x4a, 0xda, 0x3b, 0xa9, 0x41, 0xe1, 0x3b,
  0x42, 0xe5, 0x00, 0x3c, 0x96, 0x05, 0xca, 0x3b, 0x26, 0xb2, 0xda, 0x3b,
  0x12, 0x00, 0x00, 0x00, 0x74, 0x66, 0x6c, 0x2e, 0x70, 0x73, 0x65, 0x75,
  0x64, 0x6f, 0x5f, 0x71, 0x63, 0x6f, 0x6e, 0x73, 0x74, 0x31, 0x00, 0x00,
  0x02, 0x00, 0x00, 0x00, 0x0a, 0x00, 0x00, 0x00, 0x18, 0x00, 0x00, 0x00,
  0x32, 0xff, 0xff, 0xff, 0x00, 0x00, 0x00, 0x01, 0x14, 0x00, 0x00, 0x00,
  0xa0, 0x00, 0x00, 0x00, 0x03, 0x00, 0x00, 0x00, 0x00, 0x00, 0x00, 0x02,
  0xac, 0x00, 0x00, 0x00, 0xac, 0xfe, 0xff, 0xff, 0x08, 0x00, 0x00, 0x00,
  0x5c, 0x00, 0x00, 0x00, 0x0a, 0x00, 0x00, 0x00, 0x00, 0x00, 0x00, 0x00,
  0x00, 0x00, 0x00, 0x00, 0x00, 0x00, 0x00, 0x00, 0x00, 0x00, 0x00, 0x00,
  0x00, 0x00, 0x00, 0x00, 0x00, 0x00, 0x00, 0x00, 0x00, 0x00, 0x00, 0x00,
  0x00, 0x00, 0x00, 0x00, 0x00, 0x00, 0x00, 0x00, 0x00, 0x00, 0x00, 0x00,
  0x00, 0x00, 0x00, 0x00, 0x00, 0x00, 0x00, 0x00, 0x00, 0x00, 0x00, 0x00,
  0x00, 0x00, 0x00, 0x00, 0x00, 0x00, 0x00, 0x00, 0x00, 0x00, 0x00, 0x00,
  0x00, 0x00, 0x00, 0x00, 0x00, 0x00, 0x00, 0x00, 0x00, 0x00, 0x00, 0x00,
  0x00, 0x00, 0x00, 0x00, 0x00, 0x00, 0x00, 0x00, 0x0a, 0x00, 0x00, 0x00,
  0x01, 0x87, 0x90, 0x38, 0x83, 0x04, 0x75, 0x38, 0xbb, 0xae, 0x5c, 0x38,
  0x33, 0xfd, 0x7e, 0x38, 0x78, 0x34, 0x87, 0x38, 0x4d, 0x52, 0x6b, 0x38,
  0x4f, 0xd4, 0x72, 0x38, 0x76, 0xf3, 0x8a, 0x38, 0x35, 0xc8, 0x59, 0x38,
  0xc6, 0xc1, 0x6b, 0x38, 0x11, 0x00, 0x00, 0x00, 0x74, 0x66, 0x6c, 0x2e,
  0x70, 0x73, 0x65, 0x75, 0x64, 0x6f, 0x5f, 0x71, 0x63, 0x6f, 0x6e, 0x73,
  0x74, 0x00, 0x00, 0x00, 0x01, 0x00, 0x00, 0x00, 0x0a, 0x00, 0x00, 0x00,
  0x00, 0x00, 0x16, 0x00, 0x1c, 0x00, 0x18, 0x00, 0x17, 0x00, 0x10, 0x00,
  0x0c, 0x00, 0x08, 0x00, 0x00, 0x00, 0x00, 0x00, 0x00, 0x00, 0x07, 0x00,
  0x16, 0x00, 0x00, 0x00, 0x00, 0x00, 0x00, 0x01, 0x18, 0x00, 0x00, 0x00,
  0x18, 0x00, 0x00, 0x00, 0x02, 0x00, 0x00, 0x00, 0x00, 0x00, 0x00, 0x02,
  0x20, 0x00, 0x00, 0x00, 0x04, 0x00, 0x04, 0x00, 0x04, 0x00, 0x00, 0x00,
  0x0e, 0x00, 0x00, 0x00, 0x61, 0x72, 0x69, 0x74, 0x68, 0x2e, 0x63, 0x6f,
  0x6e, 0x73, 0x74, 0x61, 0x6e, 0x74, 0x00, 0x00, 0x01, 0x00, 0x00, 0x00,
  0x02, 0x00, 0x00, 0x00, 0x00, 0x00, 0x16, 0x00, 0x20, 0x00, 0x1c, 0x00,
  0x1b, 0x00, 0x14, 0x00, 0x10, 0x00, 0x0c, 0x00, 0x00, 0x00, 0x00, 0x00,
  0x08, 0x00, 0x07, 0x00, 0x16, 0x00, 0x00, 0x00, 0x00, 0x00, 0x00, 0x01,
  0x18, 0x00, 0x00, 0x00, 0x34, 0x00, 0x00, 0x00, 0x50, 0x00, 0x00, 0x00,
  0x01, 0x00, 0x00, 0x00, 0x00, 0x00, 0x00, 0x09, 0x64, 0x00, 0x00, 0x00,
  0x04, 0x00, 0x00, 0x00, 0xff, 0xff, 0xff, 0xff, 0x1c, 0x00, 0x00, 0x00,
  0x1c, 0x00, 0x00, 0x00, 0x01, 0x00, 0x00, 0x00, 0x0c, 0x00, 0x0c, 0x00,
  0x00, 0x00, 0x00, 0x00, 0x08, 0x00, 0x04, 0x00, 0x0c, 0x00, 0x00, 0x00,
  0x08, 0x00, 0x00, 0x00, 0x10, 0x00, 0x00, 0x00, 0x01, 0x00, 0x00, 0x00,
  0x80, 0xff, 0xff, 0xff, 0xff, 0xff, 0xff, 0xff, 0x01, 0x00, 0x00, 0x00,
  0x81, 0x80, 0x80, 0x3b, 0x19, 0x00, 0x00, 0x00, 0x73, 0x65, 0x72, 0x76,
  0x69, 0x6e, 0x67, 0x5f, 0x64, 0x65, 0x66, 0x61, 0x75, 0x6c, 0x74, 0x5f,
  0x69, 0x6e, 0x70, 0x75, 0x74, 0x5f, 0x34, 0x3a, 0x30, 0x00, 0x00, 0x00,
  0x04, 0x00, 0x00, 0x00, 0x01, 0x00, 0x00, 0x00, 0x1c, 0x00, 0x00, 0x00,
  0x1c, 0x00, 0x00, 0x00, 0x01, 0x00, 0x00, 0x00, 0x05, 0x00, 0x00, 0x00,
  0x60, 0x00, 0x00, 0x00, 0x40, 0x00, 0x00, 0x00, 0x2c, 0x00, 0x00, 0x00,
  0x18, 0x00, 0x00, 0x00, 0x04, 0x00, 0x00, 0x00, 0xc0, 0xff, 0xff, 0xff,
  0x19, 0x00, 0x00, 0x00, 0x02, 0x00, 0x00, 0x00, 0x00, 0x00, 0x00, 0x19,
  0xd0, 0xff, 0xff, 0xff, 0x09, 0x00, 0x00, 0x00, 0x04, 0x00, 0x00, 0x00,
  0x00, 0x00, 0x00, 0x09, 0xe0, 0xff, 0xff, 0xff, 0x28, 0x00, 0x00, 0x00,
  0x02, 0x00, 0x00, 0x00, 0x00, 0x00, 0x00, 0x28, 0xf0, 0xff, 0xff, 0xff,
  0x04, 0x00, 0x00, 0x00, 0x03, 0x00, 0x00, 0x00, 0x00, 0x00, 0x00, 0x04,
  0x0c, 0x00, 0x10, 0x00, 0x0f, 0x00, 0x00, 0x00, 0x08, 0x00, 0x04, 0x00,
  0x0c, 0x00, 0x00, 0x00, 0x03, 0x00, 0x00, 0x00, 0x03, 0x00, 0x00, 0x00,
  0x00, 0x00, 0x00, 0x03
};
const unsigned int mnist_model_tflite_len = 8128;
