#include "model_data.h"

#ifdef __has_attribute
#define HAVE_ATTRIBUTE(x) __has_attribute(x)
#else
#define HAVE_ATTRIBUTE(x) 0
#endif
#if HAVE_ATTRIBUTE(aligned) || (defined(__GNUC__) && !defined(__clang__))
#define DATA_ALIGN_ATTRIBUTE __attribute__((aligned(4)))
#else
#define DATA_ALIGN_ATTRIBUTE
#endif

const unsigned char mnist_model_tflite[] DATA_ALIGN_ATTRIBUTE = {
  0x1c, 0x00, 0x00, 0x00, 0x54, 0x46, 0x4c, 0x33, 0x14, 0x00, 0x20, 0x00,
  0x1c, 0x00, 0x18, 0x00, 0x14, 0x00, 0x10, 0x00, 0x0c, 0x00, 0x00, 0x00,
  0x08, 0x00, 0x04, 0x00, 0x14, 0x00, 0x00, 0x00, 0x1c, 0x00, 0x00, 0x00,
  0x94, 0x00, 0x00, 0x00, 0xec, 0x00, 0x00, 0x00, 0xac, 0x08, 0x00, 0x00,
  0xbc, 0x08, 0x00, 0x00, 0xf8, 0x20, 0x00, 0x00, 0x03, 0x00, 0x00, 0x00,
  0x01, 0x00, 0x00, 0x00, 0x10, 0x00, 0x00, 0x00, 0x00, 0x00, 0x0a, 0x00,
  0x10, 0x00, 0x0c, 0x00, 0x08, 0x00, 0x04, 0x00, 0x0a, 0x00, 0x00, 0x00,
  0x0c, 0x00, 0x00, 0x00, 0x1c, 0x00, 0x00, 0x00, 0x40, 0x00, 0x00, 0x00,
  0x0f, 0x00, 0x00, 0x00, 0x73, 0x65, 0x72, 0x76, 0x69, 0x6e, 0x67, 0x5f,
  0x64, 0x65, 0x66, 0x61, 0x75, 0x6c, 0x74, 0x00, 0x01, 0x00, 0x00, 0x00,
  0x04, 0x00, 0x00, 0x00, 0x94, 0xff, 0xff, 0xff, 0x15, 0x00, 0x00, 0x00,
  0x04, 0x00, 0x00, 0x00, 0x0d, 0x00, 0x00, 0x00, 0x71, 0x75, 0x61, 0x6e,
  0x74, 0x5f, 0x64, 0x65, 0x6e, 0x73, 0x65, 0x5f, 0x37, 0x00, 0x00, 0x00,
  0x01, 0x00, 0x00, 0x00, 0x04, 0x00, 0x00, 0x00, 0x3e, 0xf7, 0xff, 0xff,
  0x04, 0x00, 0x00, 0x00, 0x07, 0x00, 0x00, 0x00, 0x69, 0x6e, 0x70, 0x75,
  0x74, 0x5f, 0x38, 0x00, 0x02, 0x00, 0x00, 0x00, 0x34, 0x00, 0x00, 0x00,
  0x04, 0x00, 0x00, 0x00, 0xdc, 0xff, 0xff, 0xff, 0x18, 0x00, 0x00, 0x00,
  0x04, 0x00, 0x00, 0x00, 0x13, 0x00, 0x00, 0x00, 0x43, 0x4f, 0x4e, 0x56,
  0x45, 0x52, 0x53, 0x49, 0x4f, 0x4e, 0x5f, 0x4d, 0x45, 0x54, 0x41, 0x44,
  0x41, 0x54, 0x41, 0x00, 0x08, 0x00, 0x0c, 0x00, 0x08, 0x00, 0x04, 0x00,
  0x08, 0x00, 0x00, 0x00, 0x17, 0x00, 0x00, 0x00, 0x04, 0x00, 0x00, 0x00,
  0x13, 0x00, 0x00, 0x00, 0x6d, 0x69, 0x6e, 0x5f, 0x72, 0x75, 0x6e, 0x74,
  0x69, 0x6d, 0x65, 0x5f, 0x76, 0x65, 0x72, 0x73, 0x69, 0x6f, 0x6e, 0x00,
  0x19, 0x00, 0x00, 0x00, 0xbc, 0x07, 0x00, 0x00, 0xb4, 0x07, 0x00, 0x00,
  0x9c, 0x07, 0x00, 0x00, 0x20, 0x07, 0x00, 0x00, 0xe0, 0x06, 0x00, 0x00,
  0xd8, 0x06, 0x00, 0x00, 0x5c, 0x06, 0x00, 0x00, 0x1c, 0x06, 0x00, 0x00,
  0x14, 0x06, 0x00, 0x00, 0x44, 0x05, 0x00, 0x00, 0xf4, 0x04, 0x00, 0x00,
  0xec, 0x04, 0x00, 0x00, 0x4c, 0x04, 0x00, 0x00, 0xfc, 0x03, 0x00, 0x00,
  0xf4, 0x03, 0x00, 0x00, 0x64, 0x02, 0x00, 0x00, 0xf4, 0x01, 0x00, 0x00,
  0xec, 0x01, 0x00, 0x00, 0xe4, 0x01, 0x00, 0x00, 0xe4, 0x00, 0x00, 0x00,
  0xac, 0x00, 0x00, 0x00, 0xa4, 0x00, 0x00, 0x00, 0x9c, 0x00, 0x00, 0x00,
  0x7c, 0x00, 0x00, 0x00, 0x04, 0x00, 0x00, 0x00, 0x16, 0xf8, 0xff, 0xff,
  0x04, 0x00, 0x00, 0x00, 0x68, 0x00, 0x00, 0x00, 0x10, 0x00, 0x00, 0x00,
  0x00, 0x00, 0x00, 0x00, 0x08, 0x00, 0x0e, 0x00, 0x08, 0x00, 0x04, 0x00,
  0x08, 0x00, 0x00, 0x00, 0x10, 0x00, 0x00, 0x00, 0x2c, 0x00, 0x00, 0x00,
  0x00, 0x00, 0x06, 0x00, 0x08, 0x00, 0x04, 0x00, 0x06, 0x00, 0x00, 0x00,
  0x04, 0x00, 0x00, 0x00, 0x02, 0x00, 0x00, 0x00, 0xeb, 0x03, 0x00, 0x00,
  0xd0, 0x07, 0x00, 0x00, 0x0c, 0x00, 0x18, 0x00, 0x14, 0x00, 0x10, 0x00,
  0x0c, 0x00, 0x04, 0x00, 0x0c, 0x00, 0x00, 0x00, 0x5e, 0x56, 0x90, 0x97,
  0x9a, 0xe3, 0x20, 0x38, 0x02, 0x00, 0x00, 0x00, 0x02, 0x00, 0x00, 0x00,
  0x04, 0x00, 0x00, 0x00, 0x06, 0x00, 0x00, 0x00, 0x32, 0x2e, 0x32, 0x30,
  0x2e, 0x30, 0x00, 0x00, 0x8a, 0xf8, 0xff, 0xff, 0x04, 0x00, 0x00, 0x00,
  0x10, 0x00, 0x00, 0x00, 0x31, 0x2e, 0x31, 0x34, 0x2e, 0x30, 0x00, 0x00,
  0x00, 0x00, 0x00, 0x00, 0x00, 0x00, 0x00, 0x00, 0xb0, 0xe1, 0xff, 0xff,
  0xb4, 0xe1, 0xff, 0xff, 0xae, 0xf8, 0xff, 0xff, 0x04, 0x00, 0x00, 0x00,
  0x28, 0x00, 0x00, 0x00, 0x22, 0x01, 0x00, 0x00, 0x98, 0xfe, 0xff, 0xff,
  0x48, 0xfe, 0xff, 0xff, 0x22, 0xfe, 0xff, 0xff, 0xc4, 0x02, 0x00, 0x00,
  0x67, 0xff, 0xff, 0xff, 0x09, 0xfe, 0xff, 0xff, 0x65, 0xff, 0xff, 0xff,
  0x18, 0xff, 0xff, 0xff, 0x46, 0x01, 0x00, 0x00, 0xe2, 0xf8, 0xff, 0xff,
  0x04, 0x00, 0x00, 0x00, 0xf0, 0x00, 0x00, 0x00, 0xe5, 0xf2, 0xba, 0x0c,
  0x3c, 0x9c, 0x37, 0xc4, 0x3b, 0xf0, 0x06, 0xfc, 0xf9, 0xe5, 0x32, 0xb8,
  0xe9, 0xdc, 0x3c, 0xd8, 0x31, 0xd8, 0x16, 0x04, 0xd7, 0xce, 0x02, 0xe7,
  0xfb, 0x30, 0xe9, 0x08, 0x45, 0xb8, 0xf2, 0xde, 0xb8, 0x35, 0xff, 0x2f,
  0xc3, 0x3c, 0x40, 0x1c, 0xb7, 0x2e, 0xdf, 0xb0, 0x10, 0x1e, 0xf4, 0xfb,
  0xe5, 0xee, 0x03, 0x2e, 0xe1, 0xfa, 0x3d, 0xf1, 0x32, 0xf0, 0x09, 0x08,
  0xfc, 0x0d, 0xb0, 0xc2, 0xf7, 0x2b, 0x1e, 0xd1, 0x3e, 0x08, 0xdf, 0x25,
  0xdc, 0x48, 0xf5, 0x0b, 0xa5, 0x0d, 0xdb, 0x1d, 0xec, 0x05, 0xc0, 0xd7,
  0xf3, 0xdb, 0xb8, 0xd0, 0x01, 0x36, 0x1d, 0x10, 0xf1, 0x24, 0xff, 0x12,
  0x4f, 0xe1, 0xca, 0x0c, 0xe5, 0xb2, 0xf4, 0x81, 0xfa, 0x25, 0x3e, 0x19,
  0xf8, 0x2a, 0xf2, 0xdc, 0x03, 0xe3, 0xc9, 0x0b, 0x18, 0xf2, 0x1a, 0xeb,
  0xb5, 0x07, 0xff, 0xea, 0x27, 0x03, 0x03, 0x3d, 0xf6, 0xad, 0xa6, 0xef,
  0x06, 0xff, 0x14, 0x35, 0x10, 0xf2, 0x38, 0xd5, 0xd5, 0xb1, 0x2f, 0xb7,
  0xfc, 0xba, 0xc9, 0x3d, 0x1d, 0x28, 0x46, 0xca, 0x38, 0xc5, 0x2d, 0xe8,
  0xd2, 0xfe, 0x3f, 0x17, 0xe6, 0xcb, 0x0e, 0xec, 0xed, 0x43, 0x02, 0x49,
  0xec, 0x19, 0xcb, 0xc8, 0x16, 0xc1, 0xcd, 0x17, 0xb2, 0xf2, 0x0c, 0xec,
  0x4b, 0x2d, 0xfa, 0xe6, 0xc9, 0x16, 0xcc, 0xd3, 0x1c, 0xc8, 0x0d, 0xba,
  0xe3, 0xff, 0x1b, 0xd2, 0xe5, 0x42, 0xbb, 0x04, 0x10, 0x07, 0x16, 0x25,
  0xca, 0xe2, 0xed, 0x1d, 0x15, 0xb5, 0x0b, 0x43, 0xbc, 0x27, 0x2e, 0x13,
  0x11, 0x13, 0xd5, 0xf7, 0xc9, 0x3e, 0xed, 0xe1, 0xbc, 0x10, 0x0b, 0x12,
  0x24, 0xe9, 0xd9, 0xfd, 0x1a, 0xb9, 0xb7, 0x2c, 0xe8, 0xe2, 0xff, 0xff,
  0xec, 0xe2, 0xff, 0xff, 0xe6, 0xf9, 0xff, 0xff, 0x04, 0x00, 0x00, 0x00,
  0x60, 0x00, 0x00, 0x00, 0x21, 0xf7, 0xff, 0xff, 0x21, 0x25, 0x00, 0x00,
  0x8a, 0x0d, 0x00, 0x00, 0x71, 0x17, 0x00, 0x00, 0xa0, 0x28, 0x00, 0x00,
  0x22, 0xfd, 0xff, 0xff, 0x01, 0xed, 0xff, 0xff, 0xc9, 0x0b, 0x00, 0x00,
  0xaa, 0xf3, 0xff, 0xff, 0x3b, 0xfe, 0xff, 0xff, 0xf5, 0x00, 0x00, 0x00,
  0x50, 0xe8, 0xff, 0xff, 0x01, 0xf7, 0xff, 0xff, 0xd2, 0x13, 0x00, 0x00,
  0xd1, 0x1c, 0x00, 0x00, 0x54, 0x09, 0x00, 0x00, 0xa6, 0x1a, 0x00, 0x00,
  0xf0, 0x1c, 0x00, 0x00, 0x2f, 0xfc, 0xff, 0xff, 0x25, 0xd9, 0xff, 0xff,
  0x02, 0x1d, 0x00, 0x00, 0x07, 0xfd, 0xff, 0xff, 0x41, 0xdf, 0xff, 0xff,
  0xd3, 0x0c, 0x00, 0x00, 0x52, 0xfa, 0xff, 0xff, 0x04, 0x00, 0x00, 0x00,
  0x80, 0x01, 0x00, 0x00, 0x1c, 0xdb, 0xf9, 0x37, 0x1f, 0xfb, 0x15, 0xc5,
  0x32, 0x4f, 0x01, 0x7f, 0xfe, 0x01, 0x28, 0xc7, 0x90, 0xc9, 0x24, 0x8a,
  0xa0, 0x7f, 0xdb, 0xf0, 0xf6, 0xa4, 0x12, 0x0a, 0x03, 0xd6, 0xad, 0xde,
  0xf8, 0xe6, 0x24, 0x81, 0xa8, 0xda, 0x71, 0xc5, 0x3d, 0xc1, 0x1e, 0xc9,
  0xab, 0xde, 0x72, 0x6d, 0x81, 0xe2, 0xde, 0xb8, 0xe5, 0x7b, 0xc7, 0x37,
  0xec, 0xca, 0x39, 0x44, 0x14, 0xc8, 0xde, 0xfa, 0xce, 0xc8, 0x2c, 0xf4,
  0xe0, 0x1f, 0xe3, 0xc2, 0xa8, 0xa9, 0xc0, 0xd0, 0x64, 0xb6, 0xd3, 0x81,
  0xe3, 0xab, 0x12, 0x03, 0x7f, 0x14, 0xfe, 0xf3, 0x32, 0xf1, 0x62, 0x70,
  0xec, 0xea, 0x22, 0xfa, 0x1f, 0x56, 0xdd, 0x53, 0x4e, 0x18, 0xf3, 0x1e,
  0xed, 0x7f, 0xeb, 0xf4, 0xf9, 0x3d, 0x0a, 0xc9, 0xcb, 0xef, 0x4f, 0xeb,
  0x9f, 0xf5, 0xf7, 0xd7, 0xd3, 0xf9, 0xd3, 0x02, 0x24, 0x00, 0x7f, 0x08,
  0x2c, 0x7f, 0x16, 0x08, 0xc9, 0xc4, 0x0e, 0xfe, 0x03, 0x10, 0x1c, 0xef,
  0x04, 0x67, 0x0d, 0x04, 0x23, 0xf9, 0xc7, 0xcc, 0x45, 0x05, 0x33, 0xfb,
  0x7f, 0x37, 0x03, 0xf3, 0xbc, 0xad, 0x13, 0x0f, 0xe6, 0x1c, 0x59, 0xfc,
  0x81, 0xc6, 0xfd, 0xec, 0xcb, 0x11, 0xd2, 0xe9, 0x2b, 0x25, 0x4e, 0x3c,
  0x42, 0x3e, 0xe3, 0x61, 0x1d, 0xe3, 0x22, 0x7f, 0x38, 0x7a, 0x68, 0x2e,
  0x9e, 0x31, 0xd3, 0xa6, 0x03, 0xef, 0x63, 0x25, 0xa4, 0xae, 0x4b, 0xb3,
  0xdb, 0x2a, 0x81, 0xfd, 0x7e, 0x27, 0x53, 0x56, 0xc3, 0xa7, 0x28, 0xd1,
  0x43, 0x52, 0xf3, 0xd0, 0x20, 0xc4, 0xef, 0x25, 0x33, 0xfe, 0xf9, 0x81,
  0x01, 0x0d, 0x55, 0xce, 0x9d, 0x17, 0x1e, 0xa3, 0xa5, 0xc5, 0x90, 0xcf,
  0x7f, 0xef, 0xd9, 0xad, 0xe5, 0xaa, 0x7f, 0x9b, 0x12, 0x06, 0x3f, 0xe0,
  0xe8, 0xd0, 0xce, 0x03, 0x0c, 0x36, 0xee, 0xdc, 0x81, 0x12, 0xf2, 0x86,
  0x8a, 0x57, 0x03, 0x59, 0xc0, 0xbc, 0x4c, 0xf4, 0xbd, 0xe9, 0x95, 0x40,
  0x83, 0xee, 0x49, 0xfc, 0x9a, 0x43, 0xeb, 0x02, 0x81, 0x8f, 0xe4, 0x1a,
  0x29, 0x41, 0xf5, 0x92, 0x58, 0x7f, 0x27, 0xbf, 0x04, 0xe0, 0xff, 0xc8,
  0x05, 0x0c, 0x3b, 0xb6, 0xe3, 0x30, 0x76, 0xf8, 0x7f, 0x70, 0x28, 0x4b,
  0x37, 0x9b, 0x69, 0x15, 0x75, 0x57, 0xf2, 0x3a, 0x9f, 0x78, 0xb8, 0xeb,
  0xe1, 0xb2, 0xdc, 0xcc, 0x44, 0xe3, 0x18, 0xc7, 0x22, 0x61, 0xc1, 0xd4,
  0xd8, 0x99, 0xa8, 0x81, 0xca, 0xeb, 0x0c, 0x2a, 0xef, 0x65, 0xcc, 0x19,
  0xe8, 0x12, 0x19, 0x7f, 0x1d, 0x15, 0x42, 0xd2, 0x31, 0x45, 0x04, 0x66,
  0xfd, 0xbb, 0x14, 0xf1, 0x5d, 0x7e, 0x0d, 0x0c, 0xf0, 0x7f, 0x50, 0x0f,
  0x10, 0xa6, 0xf0, 0xae, 0x71, 0x0e, 0x2f, 0xab, 0x57, 0x38, 0x00, 0xfa,
  0xea, 0x81, 0xe8, 0xee, 0xe8, 0xe4, 0xff, 0xff, 0xe2, 0xfb, 0xff, 0xff,
  0x04, 0x00, 0x00, 0x00, 0x40, 0x00, 0x00, 0x00, 0xb2, 0x1b, 0x00, 0x00,
  0xc0, 0xdf, 0xff, 0xff, 0xf9, 0x12, 0x00, 0x00, 0xa6, 0x16, 0x00, 0x00,
  0x0e, 0x0e, 0x00, 0x00, 0x00, 0xea, 0xff, 0xff, 0xdf, 0xfb, 0xff, 0xff,
  0xd6, 0xf1, 0xff, 0xff, 0xde, 0x06, 0x00, 0x00, 0xcc, 0x25, 0x00, 0x00,
  0x3b, 0xf0, 0xff, 0xff, 0x07, 0xff, 0xff, 0xff, 0x76, 0xe5, 0xff, 0xff,
  0x6a, 0x17, 0x00, 0x00, 0x50, 0xf2, 0xff, 0xff, 0x85, 0x0e, 0x00, 0x00,
  0x2e, 0xfc, 0xff, 0xff, 0x04, 0x00, 0x00, 0x00, 0x90, 0x00, 0x00, 0x00,
  0xcd, 0x34, 0xe5, 0xd8, 0xa2, 0x1a, 0x09, 0x25, 0x4e, 0xd2, 0xb9, 0x26,
  0x32, 0x56, 0x20, 0x0d, 0x9d, 0x32, 0xbb, 0xc2, 0xd8, 0x38, 0x3a, 0x3e,
  0xf3, 0x99, 0xcd, 0x2f, 0x49, 0x2a, 0x1c, 0xfc, 0xe6, 0xfd, 0xd3, 0xca,
  0xe7, 0x22, 0x22, 0x31, 0x9e, 0xce, 0xee, 0x23, 0x38, 0xff, 0x2a, 0x0e,
  0xd5, 0x2e, 0xec, 0xc9, 0xd3, 0x41, 0x2c, 0x5d, 0x51, 0xd6, 0x3d, 0x4a,
  0x3b, 0x08, 0x16, 0x33, 0xc0, 0x4b, 0xea, 0xef, 0xd6, 0x3a, 0x54, 0x4e,
  0xe0, 0xb2, 0x2a, 0x54, 0x2f, 0xf5, 0x11, 0x50, 0xcb, 0x25, 0xea, 0xa2,
  0xae, 0x04, 0x36, 0x36, 0x98, 0xd2, 0x38, 0x3e, 0x2d, 0xa5, 0xf2, 0x1e,
  0xd0, 0x06, 0xad, 0xf6, 0xf7, 0x49, 0x33, 0x0e, 0x31, 0xe7, 0x3f, 0x13,
  0x2e, 0xb5, 0xa5, 0x96, 0xf5, 0x39, 0xa9, 0x0e, 0xc5, 0xf9, 0x3f, 0x22,
  0xec, 0xcd, 0x3b, 0x38, 0x22, 0xce, 0x91, 0x95, 0xe6, 0x2d, 0xc4, 0xf6,
  0xbd, 0xb1, 0x22, 0x1c, 0x97, 0xe9, 0x37, 0x36, 0xf9, 0x81, 0xc4, 0x99,
  0xd4, 0xe5, 0xff, 0xff, 0xce, 0xfc, 0xff, 0xff, 0x04, 0x00, 0x00, 0x00,
  0x40, 0x00, 0x00, 0x00, 0x16, 0xed, 0xff, 0xff, 0x64, 0x23, 0x00, 0x00,
  0x82, 0xf2, 0xff, 0xff, 0xc7, 0x0f, 0x00, 0x00, 0xb1, 0xe9, 0xff, 0xff,
  0x8d, 0x16, 0x00, 0x00, 0xff, 0xe8, 0xff, 0xff, 0xa3, 0xf5, 0xff, 0xff,
  0x2d, 0xe9, 0xff, 0xff, 0x86, 0xf8, 0xff, 0xff, 0xc7, 0xf1, 0xff, 0xff,
  0x3f, 0xf7, 0xff, 0xff, 0x29, 0x00, 0x00, 0x00, 0x94, 0x0a, 0x00, 0x00,
  0x4b, 0xdf, 0xff, 0xff, 0x2b, 0x20, 0x00, 0x00, 0x1a, 0xfd, 0xff, 0xff,
  0x04, 0x00, 0x00, 0x00, 0xc0, 0x00, 0x00, 0x00, 0x4d, 0x39, 0x1b, 0xff,
  0x1f, 0x2d, 0x1c, 0xec, 0x7f, 0xfa, 0x31, 0xb5, 0x2a, 0xf1, 0x89, 0x8a,
  0x81, 0x27, 0xbf, 0xff, 0xff, 0xed, 0xa8, 0x3a, 0x68, 0x24, 0x4e, 0xef,
  0x1a, 0xf0, 0xff, 0x8c, 0xed, 0x7f, 0xf0, 0x43, 0xfa, 0x28, 0x07, 0x81,
  0x10, 0x16, 0xd1, 0x36, 0x36, 0xfc, 0x14, 0x05, 0x24, 0xe6, 0x4f, 0x7f,
  0x3e, 0xf8, 0x45, 0xdb, 0x13, 0x17, 0xd1, 0xe2, 0x24, 0x81, 0x2d, 0xbd,
  0x17, 0x07, 0x03, 0xb6, 0x45, 0x3a, 0x81, 0xc9, 0x20, 0xe5, 0x25, 0x59,
  0x17, 0xf0, 0x23, 0xb8, 0x9c, 0x7f, 0xfa, 0x8a, 0x87, 0x7f, 0x31, 0x3b,
  0x0f, 0xf8, 0xd2, 0xde, 0x1b, 0xfb, 0x42, 0xce, 0x10, 0x0a, 0x21, 0x66,
  0x7f, 0xcd, 0x70, 0x39, 0x06, 0x61, 0x10, 0xa1, 0x21, 0x21, 0xb4, 0x18,
  0x9d, 0x6f, 0xc6, 0xc8, 0x7f, 0xef, 0xd7, 0x73, 0xc7, 0xb6, 0x81, 0x61,
  0x18, 0x1c, 0x43, 0x0b, 0xf5, 0x4f, 0xba, 0x29, 0xfe, 0x7f, 0x64, 0xe5,
  0x03, 0xb6, 0xe5, 0xc4, 0xe9, 0xb7, 0xba, 0xca, 0x3e, 0x00, 0x81, 0x10,
  0xca, 0xe9, 0xbb, 0xde, 0x3b, 0x74, 0x12, 0x2e, 0xf0, 0x2b, 0x33, 0xc2,
  0xef, 0xf9, 0x15, 0x23, 0xdc, 0x26, 0xdf, 0x81, 0x0c, 0x00, 0x1a, 0x30,
  0x50, 0x02, 0x4b, 0xc3, 0x97, 0x66, 0xeb, 0x7f, 0xb7, 0x81, 0xa1, 0xde,
  0xeb, 0x2d, 0xbb, 0x1f, 0xf5, 0x74, 0x53, 0xf5, 0xf0, 0xe6, 0xff, 0xff,
  0xea, 0xfd, 0xff, 0xff, 0x04, 0x00, 0x00, 0x00, 0x30, 0x00, 0x00, 0x00,
  0x62, 0x04, 0x00, 0x00, 0x0a, 0x0c, 0x00, 0x00, 0x59, 0x06, 0x00, 0x00,
  0x1a, 0x09, 0x00, 0x00, 0x86, 0x05, 0x00, 0x00, 0x97, 0xff, 0xff, 0xff,
  0x7a, 0x06, 0x00, 0x00, 0xcf, 0xef, 0xff, 0xff, 0xdb, 0x07, 0x00, 0x00,
  0xd7, 0x1d, 0x00, 0x00, 0xfb, 0xf0, 0xff, 0xff, 0xa1, 0x22, 0x00, 0x00,
  0x26, 0xfe, 0xff, 0xff, 0x04, 0x00, 0x00, 0x00, 0x6c, 0x00, 0x00, 0x00,
  0x28, 0xa2, 0xe7, 0x02, 0xc6, 0x19, 0xe6, 0xf5, 0xd9, 0xf9, 0x29, 0x99,
  0x0b, 0xb8, 0xf6, 0x19, 0xd9, 0x06, 0xf5, 0x47, 0x1b, 0x03, 0x25, 0x9d,
  0xa9, 0xde, 0xd6, 0xf5, 0xc2, 0xe6, 0x2c, 0xeb, 0xf1, 0xd4, 0x01, 0xf5,
  0x27, 0xdd, 0xdd, 0xb6, 0x28, 0xf9, 0x19, 0xd6, 0xcb, 0xdd, 0x51, 0xe7,
  0xd0, 0xfd, 0x29, 0xd1, 0x2a, 0x1b, 0x2c, 0xdc, 0x2d, 0xfc, 0x05, 0xdd,
  0x03, 0xff, 0x4b, 0xa9, 0x1d, 0xf8, 0x14, 0x41, 0xf1, 0x02, 0x13, 0x05,
  0xdd, 0xfd, 0xf8, 0x1b, 0xee, 0x28, 0xf0, 0x2c, 0xde, 0x81, 0x36, 0xca,
  0x10, 0x27, 0xd1, 0x14, 0xf0, 0xff, 0xb5, 0x1c, 0xe7, 0x04, 0x22, 0x07,
  0x0e, 0x2f, 0xd4, 0xfb, 0xfb, 0xc6, 0xe0, 0x21, 0xe6, 0xcb, 0x0b, 0x0c,
  0xa8, 0xe7, 0xff, 0xff, 0xa2, 0xfe, 0xff, 0xff, 0x04, 0x00, 0x00, 0x00,
  0x30, 0x00, 0x00, 0x00, 0x2d, 0x30, 0x00, 0x00, 0x17, 0x8b, 0xff, 0xff,
  0x7b, 0x21, 0x00, 0x00, 0x19, 0x03, 0x00, 0x00, 0x4d, 0x27, 0x00, 0x00,
  0xc2, 0xd7, 0xff, 0xff, 0xc4, 0x27, 0x00, 0x00, 0x3e, 0x2f, 0x00, 0x00,
  0x55, 0xe3, 0xff, 0xff, 0xae, 0x56, 0x00, 0x00, 0x6f, 0xff, 0xff, 0xff,
  0x95, 0x42, 0x00, 0x00, 0xde, 0xfe, 0xff, 0xff, 0x04, 0x00, 0x00, 0x00,
  0x6c, 0x00, 0x00, 0x00, 0x63, 0x0d, 0x01, 0x51, 0xb6, 0xe4, 0xef, 0x81,
  0xcc, 0x49, 0x3d, 0x2a, 0x60, 0x7f, 0x3b, 0x2b, 0xea, 0x52, 0x4d, 0x3f,
  0x59, 0x34, 0x60, 0x3a, 0x7f, 0x67, 0x30, 0x0d, 0x01, 0x09, 0x22, 0x4a,
  0x7f, 0x0e, 0xfa, 0x30, 0x81, 0xdf, 0x10, 0xfb, 0x04, 0xde, 0xba, 0x15,
  0x51, 0xe6, 0x1e, 0x39, 0xd9, 0x2f, 0x7c, 0xe0, 0x47, 0x7f, 0xe7, 0x0d,
  0x67, 0x11, 0x07, 0xfa, 0xa9, 0xa7, 0x81, 0x08, 0xee, 0x08, 0x61, 0x7f,
  0x52, 0x49, 0x22, 0x59, 0x7f, 0x34, 0x3f, 0x73, 0x2c, 0x4d, 0x4d, 0x12,
  0x2d, 0xf3, 0xf9, 0x0f, 0xfd, 0xea, 0xe0, 0x81, 0xd4, 0xdb, 0x2c, 0xf4,
  0x81, 0x4f, 0xf5, 0xba, 0x3b, 0x10, 0x42, 0xdf, 0x27, 0x7f, 0xb5, 0x5f,
  0x74, 0xa8, 0xfe, 0x22, 0x56, 0xff, 0xff, 0xff, 0x04, 0x00, 0x00, 0x00,
  0x08, 0x00, 0x00, 0x00, 0x01, 0x00, 0x00, 0x00, 0x02, 0x00, 0x00, 0x00,
  0x74, 0xe8, 0xff, 0xff, 0x78, 0xe8, 0xff, 0xff, 0x0f, 0x00, 0x00, 0x00,
  0x4d, 0x4c, 0x49, 0x52, 0x20, 0x43, 0x6f, 0x6e, 0x76, 0x65, 0x72, 0x74,
  0x65, 0x64, 0x2e, 0x00, 0x01, 0x00, 0x00, 0x00, 0x14, 0x00, 0x00, 0x00,
  0x00, 0x00, 0x0e, 0x00, 0x18, 0x00, 0x14, 0x00, 0x10, 0x00, 0x0c, 0x00,
  0x08, 0x00, 0x04, 0x00, 0x0e, 0x00, 0x00, 0x00, 0x14, 0x00, 0x00, 0x00,
  0x1c, 0x00, 0x00, 0x00, 0x50, 0x02, 0x00, 0x00, 0x54, 0x02, 0x00, 0x00,
  0x58, 0x02, 0x00, 0x00, 0x04, 0x00, 0x00, 0x00, 0x6d, 0x61, 0x69, 0x6e,
  0x00, 0x00, 0x00, 0x00, 0x08, 0x00, 0x00, 0x00, 0xec, 0x01, 0x00, 0x00,
  0x84, 0x01, 0x00, 0x00, 0x34, 0x01, 0x00, 0x00, 0xec, 0x00, 0x00, 0x00,
  0xac, 0x00, 0x00, 0x00, 0x78, 0x00, 0x00, 0x00, 0x40, 0x00, 0x00, 0x00,
  0x04, 0x00, 0x00, 0x00, 0xa6, 0xfe, 0xff, 0xff, 0x1c, 0x00, 0x00, 0x00,
  0x00, 0x00, 0x00, 0x09, 0x1c, 0x00, 0x00, 0x00, 0x20, 0x00, 0x00, 0x00,
  0x04, 0x00, 0x00, 0x00, 0x00, 0x00, 0x06, 0x00, 0x08, 0x00, 0x04, 0x00,
  0x06, 0x00, 0x00, 0x00, 0x00, 0x00, 0x80, 0x3f, 0x01, 0x00, 0x00, 0x00,
  0x15, 0x00, 0x00, 0x00, 0x01, 0x00, 0x00, 0x00, 0x14, 0x00, 0x00, 0x00,
  0xde, 0xfe, 0xff, 0xff, 0x14, 0x00, 0x00, 0x00, 0x00, 0x00, 0x00, 0x08,
  0x10, 0x00, 0x00, 0x00, 0x14, 0x00, 0x00, 0x00, 0x03, 0x00, 0x00, 0x00,
  0x40, 0xe9, 0xff, 0xff, 0x01, 0x00, 0x00, 0x00, 0x14, 0x00, 0x00, 0x00,
  0x03, 0x00, 0x00, 0x00, 0x11, 0x00, 0x00, 0x00, 0x12, 0x00, 0x00, 0x00,
  0x13, 0x00, 0x00, 0x00, 0x12, 0xff, 0xff, 0xff, 0x14, 0x00, 0x00, 0x00,
  0x00, 0x00, 0x00, 0x1b, 0x10, 0x00, 0x00, 0x00, 0x14, 0x00, 0x00, 0x00,
  0x02, 0x00, 0x00, 0x00, 0x74, 0xe9, 0xff, 0xff, 0x01, 0x00, 0x00, 0x00,
  0x11, 0x00, 0x00, 0x00, 0x02, 0x00, 0x00, 0x00, 0x10, 0x00, 0x00, 0x00,
  0x01, 0x00, 0x00, 0x00, 0xde, 0xfe, 0xff, 0xff, 0x10, 0x00, 0x00, 0x00,
  0x00, 0x00, 0x00, 0x01, 0x18, 0x00, 0x00, 0x00, 0x1c, 0x00, 0x00, 0x00,
  0xd0, 0xfe, 0xff, 0xff, 0x00, 0x00, 0x00, 0x01, 0x01, 0x00, 0x00, 0x00,
  0x01, 0x00, 0x00, 0x00, 0x01, 0x00, 0x00, 0x00, 0x10, 0x00, 0x00, 0x00,
  0x03, 0x00, 0x00, 0x00, 0x0d, 0x00, 0x00, 0x00, 0x0e, 0x00, 0x00, 0x00,
  0x0f, 0x00, 0x00, 0x00, 0x7e, 0xff, 0xff, 0xff, 0x14, 0x00, 0x00, 0x00,
  0x00, 0x00, 0x00, 0x02, 0x20, 0x00, 0x00, 0x00, 0x24, 0x00, 0x00, 0x00,
  0x01, 0x00, 0x00, 0x00, 0x6e, 0xff, 0xff, 0xff, 0x00, 0x00, 0x00, 0x01,
  0x01, 0x00, 0x00, 0x00, 0x02, 0x00, 0x00, 0x00, 0x02, 0x00, 0x00, 0x00,
  0x01, 0x00, 0x00, 0x00, 0x0d, 0x00, 0x00, 0x00, 0x03, 0x00, 0x00, 0x00,
  0x0a, 0x00, 0x00, 0x00, 0x0b, 0x00, 0x00, 0x00, 0x0c, 0x00, 0x00, 0x00,
  0x5e, 0xff, 0xff, 0xff, 0x10, 0x00, 0x00, 0x00, 0x00, 0x00, 0x00, 0x01,
  0x18, 0x00, 0x00, 0x00, 0x1c, 0x00, 0x00, 0x00, 0x50, 0xff, 0xff, 0xff,
  0x00, 0x00, 0x00, 0x01, 0x01, 0x00, 0x00, 0x00, 0x01, 0x00, 0x00, 0x00,
  0x01, 0x00, 0x00, 0x00, 0x0a, 0x00, 0x00, 0x00, 0x03, 0x00, 0x00, 0x00,
  0x07, 0x00, 0x00, 0x00, 0x08, 0x00, 0x00, 0x00, 0x09, 0x00, 0x00, 0x00,
  0x00, 0x00, 0x0e, 0x00, 0x1a, 0x00, 0x14, 0x00, 0x10, 0x00, 0x0c, 0x00,
  0x0b, 0x00, 0x04, 0x00, 0x0e, 0x00, 0x00, 0x00, 0x24, 0x00, 0x00, 0x00,
  0x00, 0x00, 0x00, 0x02, 0x30, 0x00, 0x00, 0x00, 0x34, 0x00, 0x00, 0x00,
  0x01, 0x00, 0x00, 0x00, 0x00, 0x00, 0x0e, 0x00, 0x14, 0x00, 0x00, 0x00,
  0x10, 0x00, 0x0c, 0x00, 0x08, 0x00, 0x07, 0x00, 0x0e, 0x00, 0x00, 0x00,
  0x00, 0x00, 0x00, 0x01, 0x01, 0x00, 0x00, 0x00, 0x01, 0x00, 0x00, 0x00,
  0x01, 0x00, 0x00, 0x00, 0x01, 0x00, 0x00, 0x00, 0x07, 0x00, 0x00, 0x00,
  0x03, 0x00, 0x00, 0x00, 0x04, 0x00, 0x00, 0x00, 0x05, 0x00, 0x00, 0x00,
  0x06, 0x00, 0x00, 0x00, 0x00, 0x00, 0x0e, 0x00, 0x14, 0x00, 0x00, 0x00,
  0x10, 0x00, 0x0c, 0x00, 0x0b, 0x00, 0x04, 0x00, 0x0e, 0x00, 0x00, 0x00,
  0x1c, 0x00, 0x00, 0x00, 0x00, 0x00, 0x00, 0x01, 0x24, 0x00, 0x00, 0x00,
  0x28, 0x00, 0x00, 0x00, 0x0c, 0x00, 0x10, 0x00, 0x00, 0x00, 0x0c, 0x00,
  0x08, 0x00, 0x07, 0x00, 0x0c, 0x00, 0x00, 0x00, 0x00, 0x00, 0x00, 0x01,
  0x02, 0x00, 0x00, 0x00, 0x02, 0x00, 0x00, 0x00, 0x01, 0x00, 0x00, 0x00,
  0x04, 0x00, 0x00, 0x00, 0x03, 0x00, 0x00, 0x00, 0x00, 0x00, 0x00, 0x00,
  0x02, 0x00, 0x00, 0x00, 0x03, 0x00, 0x00, 0x00, 0x01, 0x00, 0x00, 0x00,
  0x15, 0x00, 0x00, 0x00, 0x01, 0x00, 0x00, 0x00, 0x00, 0x00, 0x00, 0x00,
  0x16, 0x00, 0x00, 0x00, 0x24, 0x15, 0x00, 0x00, 0xc8, 0x14, 0x00, 0x00,
  0x60, 0x13, 0x00, 0x00, 0x7c, 0x12, 0x00, 0x00, 0x90, 0x11, 0x00, 0x00,
  0x14, 0x10, 0x00, 0x00, 0x30, 0x0f, 0x00, 0x00, 0x34, 0x0e, 0x00, 0x00,
  0xb8, 0x0c, 0x00, 0x00, 0xa4, 0x0b, 0x00, 0x00, 0xb8, 0x0a, 0x00, 0x00,
  0x20, 0x09, 0x00, 0x00, 0x08, 0x08, 0x00, 0x00, 0x0c, 0x07, 0x00, 0x00,
  0x30, 0x05, 0x00, 0x00, 0xbc, 0x03, 0x00, 0x00, 0xd0, 0x02, 0x00, 0x00,
  0x3c, 0x02, 0x00, 0x00, 0x88, 0x01, 0x00, 0x00, 0x24, 0x01, 0x00, 0x00,
  0x80, 0x00, 0x00, 0x00, 0x04, 0x00, 0x00, 0x00, 0x4a, 0xeb, 0xff, 0xff,
  0x00, 0x00, 0x00, 0x01, 0x18, 0x00, 0x00, 0x00, 0x20, 0x00, 0x00, 0x00,
  0x3c, 0x00, 0x00, 0x00, 0x16, 0x00, 0x00, 0x00, 0x00, 0x00, 0x00, 0x09,
  0x50, 0x00, 0x00, 0x00, 0x02, 0x00, 0x00, 0x00, 0xff, 0xff, 0xff, 0xff,
  0x0a, 0x00, 0x00, 0x00, 0x2c, 0xeb, 0xff, 0xff, 0x08, 0x00, 0x00, 0x00,
  0x10, 0x00, 0x00, 0x00, 0x01, 0x00, 0x00, 0x00, 0x80, 0xff, 0xff, 0xff,
  0xff, 0xff, 0xff, 0xff, 0x01, 0x00, 0x00, 0x00, 0x00, 0x00, 0x80, 0x3b,
  0x19, 0x00, 0x00, 0x00, 0x53, 0x74, 0x61, 0x74, 0x65, 0x66, 0x75, 0x6c,
  0x50, 0x61, 0x72, 0x74, 0x69, 0x74, 0x69, 0x6f, 0x6e, 0x65, 0x64, 0x43,
  0x61, 0x6c, 0x6c, 0x3a, 0x30, 0x00, 0x00, 0x00, 0x02, 0x00, 0x00, 0x00,
  0x01, 0x00, 0x00, 0x00, 0x0a, 0x00, 0x00, 0x00, 0xc2, 0xeb, 0xff, 0xff,
  0x00, 0x00, 0x00, 0x01, 0x18, 0x00, 0x00, 0x00, 0x20, 0x00, 0x00, 0x00,
  0x3c, 0x00, 0x00, 0x00, 0x15, 0x00, 0x00, 0x00, 0x00, 0x00, 0x00, 0x09,
  0x78, 0x00, 0x00, 0x00, 0x02, 0x00, 0x00, 0x00, 0xff, 0xff, 0xff, 0xff,
  0x0a, 0x00, 0x00, 0x00, 0xa4, 0xeb, 0xff, 0xff, 0x08, 0x00, 0x00, 0x00,
  0x10, 0x00, 0x00, 0x00, 0x01, 0x00, 0x00, 0x00, 0x29, 0x00, 0x00, 0x00,
  0x00, 0x00, 0x00, 0x00, 0x01, 0x00, 0x00, 0x00, 0x0a, 0x1d, 0xca, 0x3d,
  0x40, 0x00, 0x00, 0x00, 0x74, 0x69, 0x6e, 0x79, 0x5f, 0x64, 0x73, 0x63,
  0x6e, 0x6e, 0x2f, 0x71, 0x75, 0x61, 0x6e, 0x74, 0x5f, 0x64, 0x65, 0x6e,
  0x73, 0x65, 0x5f, 0x37, 0x2f, 0x4d, 0x61, 0x74, 0x4d, 0x75, 0x6c, 0x3b,
  0x74, 0x69, 0x6e, 0x79, 0x5f, 0x64, 0x73, 0x63, 0x6e, 0x6e, 0x2f, 0x71,
  0x75, 0x61, 0x6e, 0x74, 0x5f, 0x64, 0x65, 0x6e, 0x73, 0x65, 0x5f, 0x37,
  0x2f, 0x42, 0x69, 0x61, 0x73, 0x41, 0x64, 0x64, 0x00, 0x00, 0x00, 0x00,
  0x02, 0x00, 0x00, 0x00, 0x01, 0x00, 0x00, 0x00, 0x0a, 0x00, 0x00, 0x00,
  0xba, 0xec, 0xff, 0xff, 0x00, 0x00, 0x00, 0x01, 0x14, 0x00, 0x00, 0x00,
  0x34, 0x00, 0x00, 0x00, 0x14, 0x00, 0x00, 0x00, 0x00, 0x00, 0x00, 0x02,
  0x40, 0x00, 0x00, 0x00, 0x34, 0xec, 0xff, 0xff, 0x08, 0x00, 0x00, 0x00,
  0x14, 0x00, 0x00, 0x00, 0x01, 0x00, 0x00, 0x00, 0x00, 0x00, 0x00, 0x00,
  0x00, 0x00, 0x00, 0x00, 0x00, 0x00, 0x00, 0x00, 0x01, 0x00, 0x00, 0x00,
  0x9e, 0xc8, 0x95, 0x39, 0x12, 0x00, 0x00, 0x00, 0x74, 0x66, 0x6c, 0x2e,
  0x70, 0x73, 0x65, 0x75, 0x64, 0x6f, 0x5f, 0x71, 0x63, 0x6f, 0x6e, 0x73,
  0x74, 0x35, 0x00, 0x00, 0x01, 0x00, 0x00, 0x00, 0x0a, 0x00, 0x00, 0x00,
  0x1a, 0xed, 0xff, 0xff, 0x00, 0x00, 0x00, 0x01, 0x14, 0x00, 0x00, 0x00,
  0x34, 0x00, 0x00, 0x00, 0x13, 0x00, 0x00, 0x00, 0x00, 0x00, 0x00, 0x09,
  0x8c, 0x00, 0x00, 0x00, 0x94, 0xec, 0xff, 0xff, 0x08, 0x00, 0x00, 0x00,
  0x14, 0x00, 0x00, 0x00, 0x01, 0x00, 0x00, 0x00, 0x00, 0x00, 0x00, 0x00,
  0x00, 0x00, 0x00, 0x00, 0x00, 0x00, 0x00, 0x00, 0x01, 0x00, 0x00, 0x00,
  0xe3, 0x21, 0xa0, 0x3c, 0x5f, 0x00, 0x00, 0x00, 0x74, 0x69, 0x6e, 0x79,
  0x5f, 0x64, 0x73, 0x63, 0x6e, 0x6e, 0x2f, 0x71, 0x75, 0x61, 0x6e, 0x74,
  0x5f, 0x64, 0x65, 0x6e, 0x73, 0x65, 0x5f, 0x37, 0x2f, 0x4d, 0x61, 0x74,
  0x4d, 0x75, 0x6c, 0x3b, 0x74, 0x69, 0x6e, 0x79, 0x5f, 0x64, 0x73, 0x63,
  0x6e, 0x6e, 0x2f, 0x71, 0x75, 0x61, 0x6e, 0x74, 0x5f, 0x64, 0x65, 0x6e,
  0x73, 0x65, 0x5f, 0x37, 0x2f, 0x4c, 0x61, 0x73, 0x74, 0x56, 0x61, 0x6c,
  0x75, 0x65, 0x51, 0x75, 0x61, 0x6e, 0x74, 0x2f, 0x46, 0x61, 0x6b, 0x65,
  0x51, 0x75, 0x61, 0x6e, 0x74, 0x57, 0x69, 0x74, 0x68, 0x4d, 0x69, 0x6e,
  0x4d, 0x61, 0x78, 0x56, 0x61, 0x72, 0x73, 0x00, 0x02, 0x00, 0x00, 0x00,
  0x0a, 0x00, 0x00, 0x00, 0x18, 0x00, 0x00, 0x00, 0x72, 0xed, 0xff, 0xff,
  0x00, 0x00, 0x00, 0x01, 0x18, 0x00, 0x00, 0x00, 0x20, 0x00, 0x00, 0x00,
  0x3c, 0x00, 0x00, 0x00, 0x12, 0x00, 0x00, 0x00, 0x00, 0x00, 0x00, 0x09,
  0x68, 0x00, 0x00, 0x00, 0x02, 0x00, 0x00, 0x00, 0xff, 0xff, 0xff, 0xff,
  0x18, 0x00, 0x00, 0x00, 0x54, 0xed, 0xff, 0xff, 0x08, 0x00, 0x00, 0x00,
  0x10, 0x00, 0x00, 0x00, 0x01, 0x00, 0x00, 0x00, 0x86, 0xff, 0xff, 0xff,
  0xff, 0xff, 0xff, 0xff, 0x01, 0x00, 0x00, 0x00, 0xac, 0x74, 0x6f, 0x3c,
  0x30, 0x00, 0x00, 0x00, 0x74, 0x69, 0x6e, 0x79, 0x5f, 0x64, 0x73, 0x63,
  0x6e, 0x6e, 0x2f, 0x71, 0x75, 0x61, 0x6e, 0x74, 0x5f, 0x67, 0x6c, 0x6f,
  0x62, 0x61, 0x6c, 0x5f, 0x61, 0x76, 0x65, 0x72, 0x61, 0x67, 0x65, 0x5f,
  0x70, 0x6f, 0x6f, 0x6c, 0x69, 0x6e, 0x67, 0x32, 0x64, 0x5f, 0x33, 0x2f,
  0x4d, 0x65, 0x61, 0x6e, 0x00, 0x00, 0x00, 0x00, 0x02, 0x00, 0x00, 0x00,
  0x01, 0x00, 0x00, 0x00, 0x18, 0x00, 0x00, 0x00, 0x02, 0xee, 0xff, 0xff,
  0x00, 0x00, 0x00, 0x01, 0x18, 0x00, 0x00, 0x00, 0x28, 0x00, 0x00, 0x00,
  0x44, 0x00, 0x00, 0x00, 0x11, 0x00, 0x00, 0x00, 0x00, 0x00, 0x00, 0x09,
  0xb8, 0x00, 0x00, 0x00, 0x04, 0x00, 0x00, 0x00, 0xff, 0xff, 0xff, 0xff,
  0x07, 0x00, 0x00, 0x00, 0x07, 0x00, 0x00, 0x00, 0x18, 0x00, 0x00, 0x00,
  0xec, 0xed, 0xff, 0xff, 0x08, 0x00, 0x00, 0x00, 0x10, 0x00, 0x00, 0x00,
  0x01, 0x00, 0x00, 0x00, 0x81, 0xff, 0xff, 0xff, 0xff, 0xff, 0xff, 0xff,
  0x01, 0x00, 0x00, 0x00, 0x8c, 0x8f, 0xc5, 0x3d, 0x79, 0x00, 0x00, 0x00,
  0x74, 0x69, 0x6e, 0x79, 0x5f, 0x64, 0x73, 0x63, 0x6e, 0x6e, 0x2f, 0x71,
  0x75, 0x61, 0x6e, 0x74, 0x5f, 0x72, 0x65, 0x5f, 0x6c, 0x75, 0x5f, 0x31,
  0x39, 0x2f, 0x52, 0x65, 0x6c, 0x75, 0x3b, 0x74, 0x69, 0x6e, 0x79, 0x5f,
  0x64, 0x73, 0x63, 0x6e, 0x6e, 0x2f, 0x71, 0x75, 0x61, 0x6e, 0x74, 0x5f,
  0x62, 0x61, 0x74, 0x63, 0x68, 0x5f, 0x6e, 0x6f, 0x72, 0x6d, 0x61, 0x6c,
  0x69, 0x7a, 0x61, 0x74, 0x69, 0x6f, 0x6e, 0x5f, 0x31, 0x39, 0x2f, 0x46,
  0x75, 0x73, 0x65, 0x64, 0x42, 0x61, 0x74, 0x63, 0x68, 0x4e, 0x6f, 0x72,
  0x6d, 0x56, 0x33, 0x3b, 0x74, 0x69, 0x6e, 0x79, 0x5f, 0x64, 0x73, 0x63,
  0x6e, 0x6e, 0x2f, 0x71, 0x75, 0x61, 0x6e, 0x74, 0x5f, 0x63, 0x6f, 0x6e,
  0x76, 0x32, 0x64, 0x5f, 0x31, 0x39, 0x2f, 0x43, 0x6f, 0x6e, 0x76, 0x32,
  0x44, 0x00, 0x00, 0x00, 0x04, 0x00, 0x00, 0x00, 0x01, 0x00, 0x00, 0x00,
  0x07, 0x00, 0x00, 0x00, 0x07, 0x00, 0x00, 0x00, 0x18, 0x00, 0x00, 0x00,
  0x42, 0xef, 0xff, 0xff, 0x00, 0x00, 0x00, 0x01, 0x14, 0x00, 0x00, 0x00,
  0x44, 0x01, 0x00, 0x00, 0x10, 0x00, 0x00, 0x00, 0x00, 0x00, 0x00, 0x02,
  0x50, 0x01, 0x00, 0x00, 0xbc, 0xee, 0xff, 0xff, 0x08, 0x00, 0x00, 0x00,
  0xc8, 0x00, 0x00, 0x00, 0x18, 0x00, 0x00, 0x00, 0x00, 0x00, 0x00, 0x00,
  0x00, 0x00, 0x00, 0x00, 0x00, 0x00, 0x00, 0x00, 0x00, 0x00, 0x00, 0x00,
  0x00, 0x00, 0x00, 0x00, 0x00, 0x00, 0x00, 0x00, 0x00, 0x00, 0x00, 0x00,
  0x00, 0x00, 0x00, 0x00, 0x00, 0x00, 0x00, 0x00, 0x00, 0x00, 0x00, 0x00,
  0x00, 0x00, 0x00, 0x00, 0x00, 0x00, 0x00, 0x00, 0x00, 0x00, 0x00, 0x00,
  0x00, 0x00, 0x00, 0x00, 0x00, 0x00, 0x00, 0x00, 0x00, 0x00, 0x00, 0x00,
  0x00, 0x00, 0x00, 0x00, 0x00, 0x00, 0x00, 0x00, 0x00, 0x00, 0x00, 0x00,
  0x00, 0x00, 0x00, 0x00, 0x00, 0x00, 0x00, 0x00, 0x00, 0x00, 0x00, 0x00,
  0x00, 0x00, 0x00, 0x00, 0x00, 0x00, 0x00, 0x00, 0x00, 0x00, 0x00, 0x00,
  0x00, 0x00, 0x00, 0x00, 0x00, 0x00, 0x00, 0x00, 0x00, 0x00, 0x00, 0x00,
  0x00, 0x00, 0x00, 0x00, 0x00, 0x00, 0x00, 0x00, 0x00, 0x00, 0x00, 0x00,
  0x00, 0x00, 0x00, 0x00, 0x00, 0x00, 0x00, 0x00, 0x00, 0x00, 0x00, 0x00,
  0x00, 0x00, 0x00, 0x00, 0x00, 0x00, 0x00, 0x00, 0x00, 0x00, 0x00, 0x00,
  0x00, 0x00, 0x00, 0x00, 0x00, 0x00, 0x00, 0x00, 0x00, 0x00, 0x00, 0x00,
  0x00, 0x00, 0x00, 0x00, 0x00, 0x00, 0x00, 0x00, 0x00, 0x00, 0x00, 0x00,
  0x00, 0x00, 0x00, 0x00, 0x00, 0x00, 0x00, 0x00, 0x00, 0x00, 0x00, 0x00,
  0x00, 0x00, 0x00, 0x00, 0x00, 0x00, 0x00, 0x00, 0x18, 0x00, 0x00, 0x00,
  0x58, 0x9e, 0x51, 0x3a, 0xf4, 0xd4, 0x6e, 0x3a, 0x9b, 0xa0, 0x22, 0x3a,
  0xd9, 0x43, 0x3e, 0x3a, 0x00, 0x04, 0x55, 0x3a, 0x65, 0xd5, 0x7c, 0x3a,
  0x0e, 0xb9, 0x5b, 0x3a, 0xca, 0xbc, 0x7b, 0x3a, 0x3b, 0x7e, 0xab, 0x3a,
  0xe6, 0xbe, 0x9d, 0x3a, 0xb3, 0x94, 0x80, 0x3a, 0xdb, 0xad, 0x1d, 0x3a,
  0x0c, 0x91, 0x26, 0x3a, 0x8f, 0xc0, 0x60, 0x3a, 0x1b, 0x84, 0x46, 0x3a,
  0xd7, 0x25, 0x4d, 0x3a, 0x99, 0x2b, 0x42, 0x3a, 0xe0, 0x1d, 0x70, 0x3a,
  0xb1, 0xa4, 0x48, 0x3a, 0x34, 0xc9, 0x36, 0x3a, 0xa8, 0x76, 0x18, 0x3a,
  0x7a, 0x54, 0x4c, 0x3a, 0x94, 0x07, 0x63, 0x3a, 0xe5, 0xdd, 0x64, 0x3a,
  0x11, 0x00, 0x00, 0x00, 0x74, 0x66, 0x6c, 0x2e, 0x70, 0x73, 0x65, 0x75,
  0x64, 0x6f, 0x5f, 0x71, 0x63, 0x6f, 0x6e, 0x73, 0x74, 0x00, 0x00, 0x00,
  0x01, 0x00, 0x00, 0x00, 0x18, 0x00, 0x00, 0x00, 0xb2, 0xf0, 0xff, 0xff,
  0x00, 0x00, 0x00, 0x01, 0x14, 0x00, 0x00, 0x00, 0x44, 0x01, 0x00, 0x00,
  0x0f, 0x00, 0x00, 0x00, 0x00, 0x00, 0x00, 0x09, 0xac, 0x01, 0x00, 0x00,
  0x2c, 0xf0, 0xff, 0xff, 0x08, 0x00, 0x00, 0x00, 0xc8, 0x00, 0x00, 0x00,
  0x18, 0x00, 0x00, 0x00, 0x00, 0x00, 0x00, 0x00, 0x00, 0x00, 0x00, 0x00,
  0x00, 0x00, 0x00, 0x00, 0x00, 0x00, 0x00, 0x00, 0x00, 0x00, 0x00, 0x00,
  0x00, 0x00, 0x00, 0x00, 0x00, 0x00, 0x00, 0x00, 0x00, 0x00, 0x00, 0x00,
  0x00, 0x00, 0x00, 0x00, 0x00, 0x00, 0x00, 0x00, 0x00, 0x00, 0x00, 0x00,
  0x00, 0x00, 0x00, 0x00, 0x00, 0x00, 0x00, 0x00, 0x00, 0x00, 0x00, 0x00,
  0x00, 0x00, 0x00, 0x00, 0x00, 0x00, 0x00, 0x00, 0x00, 0x00, 0x00, 0x00,
  0x00, 0x00, 0x00, 0x00, 0x00, 0x00, 0x00, 0x00, 0x00, 0x00, 0x00, 0x00,
  0x00, 0x00, 0x00, 0x00, 0x00, 0x00, 0x00, 0x00, 0x00, 0x00, 0x00, 0x00,
  0x00, 0x00, 0x00, 0x00, 0x00, 0x00, 0x00, 0x00, 0x00, 0x00, 0x00, 0x00,
  0x00, 0x00, 0x00, 0x00, 0x00, 0x00, 0x00, 0x00, 0x00, 0x00, 0x00, 0x00,
  0x00, 0x00, 0x00, 0x00, 0x00, 0x00, 0x00, 0x00, 0x00, 0x00, 0x00, 0x00,
  0x00, 0x00, 0x00, 0x00, 0x00, 0x00, 0x00, 0x00, 0x00, 0x00, 0x00, 0x00,
  0x00, 0x00, 0x00, 0x00, 0x00, 0x00, 0x00, 0x00, 0x00, 0x00, 0x00, 0x00,
  0x00, 0x00, 0x00, 0x00, 0x00, 0x00, 0x00, 0x00, 0x00, 0x00, 0x00, 0x00,
  0x00, 0x00, 0x00, 0x00, 0x00, 0x00, 0x00, 0x00, 0x00, 0x00, 0x00, 0x00,
  0x00, 0x00, 0x00, 0x00, 0x00, 0x00, 0x00, 0x00, 0x00, 0x00, 0x00, 0x00,
  0x00, 0x00, 0x00, 0x00, 0x18, 0x00, 0x00, 0x00, 0xa8, 0x8c, 0xda, 0x3c,
  0xe6, 0x01, 0xf9, 0x3c, 0x63, 0x8e, 0xa9, 0x3c, 0x13, 0x5f, 0xc6, 0x3c,
  0x5f, 0x17, 0xde, 0x3c, 0x87, 0xcd, 0x03, 0x3d, 0x94, 0x15, 0xe5, 0x3c,
  0x40, 0x3b, 0x03, 0x3d, 0xb6, 0xcc, 0x32, 0x3d, 0x70, 0x77, 0x24, 0x3d,
  0x22, 0x0f, 0x06, 0x3d, 0xab, 0x65, 0xa4, 0x3c, 0xcb, 0xa9, 0xad, 0x3c,
  0xf1, 0x53, 0xea, 0x3c, 0x54, 0xf9, 0xce, 0x3c, 0x65, 0xe3, 0xd5, 0x3c,
  0x6c, 0x71, 0xca, 0x3c, 0xd6, 0x58, 0xfa, 0x3c, 0x1d, 0x31, 0xd1, 0x3c,
  0xdb, 0x92, 0xbe, 0x3c, 0x94, 0xf5, 0x9e, 0x3c, 0x1c, 0x09, 0xd5, 0x3c,
  0xcc, 0xb3, 0xec, 0x3c, 0x27, 0x9e, 0xee, 0x3c, 0x6d, 0x00, 0x00, 0x00,
  0x74, 0x69, 0x6e, 0x79, 0x5f, 0x64, 0x73, 0x63, 0x6e, 0x6e, 0x2f, 0x71,
  0x75, 0x61, 0x6e, 0x74, 0x5f, 0x63, 0x6f, 0x6e, 0x76, 0x32, 0x64, 0x5f,
  0x31, 0x39, 0x2f, 0x43, 0x6f, 0x6e, 0x76, 0x32, 0x44, 0x3b, 0x74, 0x69,
  0x6e, 0x79, 0x5f, 0x64, 0x73, 0x63, 0x6e, 0x6e, 0x2f, 0x71, 0x75, 0x61,
  0x6e, 0x74, 0x5f, 0x63, 0x6f, 0x6e, 0x76, 0x32, 0x64, 0x5f, 0x31, 0x39,
  0x2f, 0x4c, 0x61, 0x73, 0x74, 0x56, 0x61, 0x6c, 0x75, 0x65, 0x51, 0x75,
  0x61, 0x6e, 0x74, 0x2f, 0x46, 0x61, 0x6b, 0x65, 0x51, 0x75, 0x61, 0x6e,
  0x74, 0x57, 0x69, 0x74, 0x68, 0x4d, 0x69, 0x6e, 0x4d, 0x61, 0x78, 0x56,
  0x61, 0x72, 0x73, 0x50, 0x65, 0x72, 0x43, 0x68, 0x61, 0x6e, 0x6e, 0x65,
  0x6c, 0x00, 0x00, 0x00, 0x04, 0x00, 0x00, 0x00, 0x18, 0x00, 0x00, 0x00,
  0x01, 0x00, 0x00, 0x00, 0x01, 0x00, 0x00, 0x00, 0x10, 0x00, 0x00, 0x00,
  0x32, 0xf2, 0xff, 0xff, 0x00, 0x00, 0x00, 0x01, 0x18, 0x00, 0x00, 0x00,
  0x28, 0x00, 0x00, 0x00, 0x48, 0x00, 0x00, 0x00, 0x0e, 0x00, 0x00, 0x00,
  0x00, 0x00, 0x00, 0x09, 0xc8, 0x00, 0x00, 0x00, 0x04, 0x00, 0x00, 0x00,
  0xff, 0xff, 0xff, 0xff, 0x07, 0x00, 0x00, 0x00, 0x07, 0x00, 0x00, 0x00,
  0x10, 0x00, 0x00, 0x00, 0x1c, 0xf2, 0xff, 0xff, 0x08, 0x00, 0x00, 0x00,
  0x14, 0x00, 0x00, 0x00, 0x01, 0x00, 0x00, 0x00, 0x83, 0xff, 0xff, 0xff,
  0xff, 0xff, 0xff, 0xff, 0x00, 0x00, 0x00, 0x00, 0x01, 0x00, 0x00, 0x00,
  0xe7, 0x89, 0xf5, 0x3c, 0x85, 0x00, 0x00, 0x00, 0x74, 0x69, 0x6e, 0x79,
  0x5f, 0x64, 0x73, 0x63, 0x6e, 0x6e, 0x2f, 0x71, 0x75, 0x61, 0x6e, 0x74,
  0x5f, 0x72, 0x65, 0x5f, 0x6c, 0x75, 0x5f, 0x31, 0x38, 0x2f, 0x52, 0x65,
  0x6c, 0x75, 0x3b, 0x74, 0x69, 0x6e, 0x79, 0x5f, 0x64, 0x73, 0x63, 0x6e,
  0x6e, 0x2f, 0x71, 0x75, 0x61, 0x6e, 0x74, 0x5f, 0x62, 0x61, 0x74, 0x63,
  0x68, 0x5f, 0x6e, 0x6f, 0x72, 0x6d, 0x61, 0x6c, 0x69, 0x7a, 0x61, 0x74,
  0x69, 0x6f, 0x6e, 0x5f, 0x31, 0x38, 0x2f, 0x46, 0x75, 0x73, 0x65, 0x64,
  0x42, 0x61, 0x74, 0x63, 0x68, 0x4e, 0x6f, 0x72, 0x6d, 0x56, 0x33, 0x3b,
  0x74, 0x69, 0x6e, 0x79, 0x5f, 0x64, 0x73, 0x63, 0x6e, 0x6e, 0x2f, 0x71,
  0x75, 0x61, 0x6e, 0x74, 0x5f, 0x64, 0x65, 0x70, 0x74, 0x68, 0x77, 0x69,
  0x73, 0x65, 0x5f, 0x63, 0x6f, 0x6e, 0x76, 0x32, 0x64, 0x5f, 0x37, 0x2f,
  0x64, 0x65, 0x70, 0x74, 0x68, 0x77, 0x69, 0x73, 0x65, 0x00, 0x00, 0x00,
  0x04, 0x00, 0x00, 0x00, 0x01, 0x00, 0x00, 0x00, 0x07, 0x00, 0x00, 0x00,
  0x07, 0x00, 0x00, 0x00, 0x10, 0x00, 0x00, 0x00, 0x82, 0xf3, 0xff, 0xff,
  0x00, 0x00, 0x00, 0x01, 0x14, 0x00, 0x00, 0x00, 0xe8, 0x00, 0x00, 0x00,
  0x0d, 0x00, 0x00, 0x00, 0x00, 0x00, 0x00, 0x02, 0xf4, 0x00, 0x00, 0x00,
  0xfc, 0xf2, 0xff, 0xff, 0x08, 0x00, 0x00, 0x00, 0x8c, 0x00, 0x00, 0x00,
  0x10, 0x00, 0x00, 0x00, 0x00, 0x00, 0x00, 0x00, 0x00, 0x00, 0x00, 0x00,
  0x00, 0x00, 0x00, 0x00, 0x00, 0x00, 0x00, 0x00, 0x00, 0x00, 0x00, 0x00,
  0x00, 0x00, 0x00, 0x00, 0x00, 0x00, 0x00, 0x00, 0x00, 0x00, 0x00, 0x00,
  0x00, 0x00, 0x00, 0x00, 0x00, 0x00, 0x00, 0x00, 0x00, 0x00, 0x00, 0x00,
  0x00, 0x00, 0x00, 0x00, 0x00, 0x00, 0x00, 0x00, 0x00, 0x00, 0x00, 0x00,
  0x00, 0x00, 0x00, 0x00, 0x00, 0x00, 0x00, 0x00, 0x00, 0x00, 0x00, 0x00,
  0x00, 0x00, 0x00, 0x00, 0x00, 0x00, 0x00, 0x00, 0x00, 0x00, 0x00, 0x00,
  0x00, 0x00, 0x00, 0x00, 0x00, 0x00, 0x00, 0x00, 0x00, 0x00, 0x00, 0x00,
  0x00, 0x00, 0x00, 0x00, 0x00, 0x00, 0x00, 0x00, 0x00, 0x00, 0x00, 0x00,
  0x00, 0x00, 0x00, 0x00, 0x00, 0x00, 0x00, 0x00, 0x00, 0x00, 0x00, 0x00,
  0x00, 0x00, 0x00, 0x00, 0x00, 0x00, 0x00, 0x00, 0x00, 0x00, 0x00, 0x00,
  0x00, 0x00, 0x00, 0x00, 0x10, 0x00, 0x00, 0x00, 0x41, 0x73, 0x38, 0x39,
  0xfa, 0xf2, 0x4f, 0x39, 0xee, 0x33, 0xbb, 0x39, 0x34, 0x37, 0x8d, 0x39,
  0xc8, 0x88, 0x78, 0x39, 0x4e, 0x45, 0x8d, 0x39, 0xdb, 0xe3, 0x11, 0x3a,
  0xae, 0x88, 0x1a, 0x39, 0x98, 0xac, 0x3a, 0x39, 0x15, 0x4d, 0x56, 0x39,
  0xe4, 0x00, 0x7d, 0x39, 0xa1, 0x43, 0x82, 0x3a, 0xcc, 0x4f, 0x51, 0x39,
  0xb0, 0x5a, 0x0d, 0x39, 0x04, 0x57, 0x9b, 0x39, 0x1c, 0x46, 0x56, 0x39,
  0x12, 0x00, 0x00, 0x00, 0x74, 0x66, 0x6c, 0x2e, 0x70, 0x73, 0x65, 0x75,
  0x64, 0x6f, 0x5f, 0x71, 0x63, 0x6f, 0x6e, 0x73, 0x74, 0x31, 0x00, 0x00,
  0x01, 0x00, 0x00, 0x00, 0x10, 0x00, 0x00, 0x00, 0x96, 0xf4, 0xff, 0xff,
  0x00, 0x00, 0x00, 0x01, 0x14, 0x00, 0x00, 0x00, 0xec, 0x00, 0x00, 0x00,
  0x0c, 0x00, 0x00, 0x00, 0x00, 0x00, 0x00, 0x09, 0x68, 0x01, 0x00, 0x00,
  0x22, 0xf9, 0xff, 0xff, 0x03, 0x00, 0x00, 0x00, 0x08, 0x00, 0x00, 0x00,
  0x8c, 0x00, 0x00, 0x00, 0x10, 0x00, 0x00, 0x00, 0x00, 0x00, 0x00, 0x00,
  0x00, 0x00, 0x00, 0x00, 0x00, 0x00, 0x00, 0x00, 0x00, 0x00, 0x00, 0x00,
  0x00, 0x00, 0x00, 0x00, 0x00, 0x00, 0x00, 0x00, 0x00, 0x00, 0x00, 0x00,
  0x00, 0x00, 0x00, 0x00, 0x00, 0x00, 0x00, 0x00, 0x00, 0x00, 0x00, 0x00,
  0x00, 0x00, 0x00, 0x00, 0x00, 0x00, 0x00, 0x00, 0x00, 0x00, 0x00, 0x00,
  0x00, 0x00, 0x00, 0x00, 0x00, 0x00, 0x00, 0x00, 0x00, 0x00, 0x00, 0x00,
  0x00, 0x00, 0x00, 0x00, 0x00, 0x00, 0x00, 0x00, 0x00, 0x00, 0x00, 0x00,
  0x00, 0x00, 0x00, 0x00, 0x00, 0x00, 0x00, 0x00, 0x00, 0x00, 0x00, 0x00,
  0x00, 0x00, 0x00, 0x00, 0x00, 0x00, 0x00, 0x00, 0x00, 0x00, 0x00, 0x00,
  0x00, 0x00, 0x00, 0x00, 0x00, 0x00, 0x00, 0x00, 0x00, 0x00, 0x00, 0x00,
  0x00, 0x00, 0x00, 0x00, 0x00, 0x00, 0x00, 0x00, 0x00, 0x00, 0x00, 0x00,
  0x00, 0x00, 0x00, 0x00, 0x00, 0x00, 0x00, 0x00, 0x10, 0x00, 0x00, 0x00,
  0xbf, 0xba, 0xef, 0x3b, 0xaf, 0x22, 0x07, 0x3c, 0x9d, 0x4e, 0x73, 0x3c,
  0xa2, 0x89, 0x37, 0x3c, 0x7d, 0x82, 0x21, 0x3c, 0xf5, 0x9b, 0x37, 0x3c,
  0xeb, 0x9c, 0xbd, 0x3c, 0xeb, 0xd8, 0xc8, 0x3b, 0xb8, 0x9e, 0xf2, 0x3b,
  0x68, 0x43, 0x0b, 0x3c, 0xfc, 0x69, 0x24, 0x3c, 0xd5, 0x4d, 0x29, 0x3d,
  0x5e, 0x05, 0x08, 0x3c, 0xc0, 0xb7, 0xb7, 0x3b, 0x17, 0xe5, 0x49, 0x3c,
  0xe0, 0x3e, 0x0b, 0x3c, 0x82, 0x00, 0x00, 0x00, 0x74, 0x69, 0x6e, 0x79,
  0x5f, 0x64, 0x73, 0x63, 0x6e, 0x6e, 0x2f, 0x71, 0x75, 0x61, 0x6e, 0x74,
  0x5f, 0x64, 0x65, 0x70, 0x74, 0x68, 0x77, 0x69, 0x73, 0x65, 0x5f, 0x63,
  0x6f, 0x6e, 0x76, 0x32, 0x64, 0x5f, 0x37, 0x2f, 0x64, 0x65, 0x70, 0x74,
  0x68, 0x77, 0x69, 0x73, 0x65, 0x3b, 0x74, 0x69, 0x6e, 0x79, 0x5f, 0x64,
  0x73, 0x63, 0x6e, 0x6e, 0x2f, 0x71, 0x75, 0x61, 0x6e, 0x74, 0x5f, 0x64,
  0x65, 0x70, 0x74, 0x68, 0x77, 0x69, 0x73, 0x65, 0x5f, 0x63, 0x6f, 0x6e,
  0x76, 0x32, 0x64, 0x5f, 0x37, 0x2f, 0x4c, 0x61, 0x73, 0x74, 0x56, 0x61,
  0x6c, 0x75, 0x65, 0x51, 0x75, 0x61, 0x6e, 0x74, 0x2f, 0x46, 0x61, 0x6b,
  0x65, 0x51, 0x75, 0x61, 0x6e, 0x74, 0x57, 0x69, 0x74, 0x68, 0x4d, 0x69,
  0x6e, 0x4d, 0x61, 0x78, 0x56, 0x61, 0x72, 0x73, 0x50, 0x65, 0x72, 0x43,
  0x68, 0x61, 0x6e, 0x6e, 0x65, 0x6c, 0x00, 0x00, 0x04, 0x00, 0x00, 0x00,
  0x01, 0x00, 0x00, 0x00, 0x03, 0x00, 0x00, 0x00, 0x03, 0x00, 0x00, 0x00,
  0x10, 0x00, 0x00, 0x00, 0xd2, 0xf5, 0xff, 0xff, 0x00, 0x00, 0x00, 0x01,
  0x18, 0x00, 0x00, 0x00, 0x28, 0x00, 0x00, 0x00, 0x44, 0x00, 0x00, 0x00,
  0x0b, 0x00, 0x00, 0x00, 0x00, 0x00, 0x00, 0x09, 0xb8, 0x00, 0x00, 0x00,
  0x04, 0x00, 0x00, 0x00, 0xff, 0xff, 0xff, 0xff, 0x0e, 0x00, 0x00, 0x00,
  0x0e, 0x00, 0x00, 0x00, 0x10, 0x00, 0x00, 0x00, 0xbc, 0xf5, 0xff, 0xff,
  0x08, 0x00, 0x00, 0x00, 0x10, 0x00, 0x00, 0x00, 0x01, 0x00, 0x00, 0x00,
  0x83, 0xff, 0xff, 0xff, 0xff, 0xff, 0xff, 0xff, 0x01, 0x00, 0x00, 0x00,
  0x0a, 0xf8, 0xc4, 0x3c, 0x79, 0x00, 0x00, 0x00, 0x74, 0x69, 0x6e, 0x79,
  0x5f, 0x64, 0x73, 0x63, 0x6e, 0x6e, 0x2f, 0x71, 0x75, 0x61, 0x6e, 0x74,
  0x5f, 0x72, 0x65, 0x5f, 0x6c, 0x75, 0x5f, 0x31, 0x37, 0x2f, 0x52, 0x65,
  0x6c, 0x75, 0x3b, 0x74, 0x69, 0x6e, 0x79, 0x5f, 0x64, 0x73, 0x63, 0x6e,
  0x6e, 0x2f, 0x71, 0x75, 0x61, 0x6e, 0x74, 0x5f, 0x62, 0x61, 0x74, 0x63,
  0x68, 0x5f, 0x6e, 0x6f, 0x72, 0x6d, 0x61, 0x6c, 0x69, 0x7a, 0x61, 0x74,
  0x69, 0x6f, 0x6e, 0x5f, 0x31, 0x37, 0x2f, 0x46, 0x75, 0x73, 0x65, 0x64,
  0x42, 0x61, 0x74, 0x63, 0x68, 0x4e, 0x6f, 0x72, 0x6d, 0x56, 0x33, 0x3b,
  0x74, 0x69, 0x6e, 0x79, 0x5f, 0x64, 0x73, 0x63, 0x6e, 0x6e, 0x2f, 0x71,
  0x75, 0x61, 0x6e, 0x74, 0x5f, 0x63, 0x6f, 0x6e, 0x76, 0x32, 0x64, 0x5f,
  0x31, 0x38, 0x2f, 0x43, 0x6f, 0x6e, 0x76, 0x32, 0x44, 0x00, 0x00, 0x00,
  0x04, 0x00, 0x00, 0x00, 0x01, 0x00, 0x00, 0x00, 0x0e, 0x00, 0x00, 0x00,
  0x0e, 0x00, 0x00, 0x00, 0x10, 0x00, 0x00, 0x00, 0x12, 0xf7, 0xff, 0xff,
  0x00, 0x00, 0x00, 0x01, 0x14, 0x00, 0x00, 0x00, 0xe4, 0x00, 0x00, 0x00,
  0x0a, 0x00, 0x00, 0x00, 0x00, 0x00, 0x00, 0x02, 0xf0, 0x00, 0x00, 0x00,
  0x8c, 0xf6, 0xff, 0xff, 0x08, 0x00, 0x00, 0x00, 0x88, 0x00, 0x00, 0x00,
  0x10, 0x00, 0x00, 0x00, 0x00, 0x00, 0x00, 0x00, 0x00, 0x00, 0x00, 0x00,
  0x00, 0x00, 0x00, 0x00, 0x00, 0x00, 0x00, 0x00, 0x00, 0x00, 0x00, 0x00,
  0x00, 0x00, 0x00, 0x00, 0x00, 0x00, 0x00, 0x00, 0x00, 0x00, 0x00, 0x00,
  0x00, 0x00, 0x00, 0x00, 0x00, 0x00, 0x00, 0x00, 0x00, 0x00, 0x00, 0x00,
  0x00, 0x00, 0x00, 0x00, 0x00, 0x00, 0x00, 0x00, 0x00, 0x00, 0x00, 0x00,
  0x00, 0x00, 0x00, 0x00, 0x00, 0x00, 0x00, 0x00, 0x00, 0x00, 0x00, 0x00,
  0x00, 0x00, 0x00, 0x00, 0x00, 0x00, 0x00, 0x00, 0x00, 0x00, 0x00, 0x00,
  0x00, 0x00, 0x00, 0x00, 0x00, 0x00, 0x00, 0x00, 0x00, 0x00, 0x00, 0x00,
  0x00, 0x00, 0x00, 0x00, 0x00, 0x00, 0x00, 0x00, 0x00, 0x00, 0x00, 0x00,
  0x00, 0x00, 0x00, 0x00, 0x00, 0x00, 0x00, 0x00, 0x00, 0x00, 0x00, 0x00,
  0x00, 0x00, 0x00, 0x00, 0x00, 0x00, 0x00, 0x00, 0x00, 0x00, 0x00, 0x00,
  0x10, 0x00, 0x00, 0x00, 0x81, 0xf1, 0xa3, 0x39, 0xdb, 0xef, 0x33, 0x39,
  0x91, 0x88, 0xd5, 0x38, 0x49, 0xf0, 0xf2, 0x38, 0xce, 0xb4, 0x72, 0x39,
  0xf2, 0x67, 0x2b, 0x39, 0xdc, 0x31, 0xc7, 0x38, 0x01, 0xeb, 0x66, 0x39,
  0x34, 0xd4, 0xcb, 0x38, 0x0d, 0x1b, 0x48, 0x39, 0x90, 0xd7, 0x28, 0x39,
  0xeb, 0xbd, 0x96, 0x38, 0x21, 0xc8, 0x0d, 0x39, 0x39, 0xef, 0x5c, 0x39,
  0xea, 0x26, 0x36, 0x39, 0x5d, 0x96, 0x9b, 0x38, 0x12, 0x00, 0x00, 0x00,
  0x74, 0x66, 0x6c, 0x2e, 0x70, 0x73, 0x65, 0x75, 0x64, 0x6f, 0x5f, 0x71,
  0x63, 0x6f, 0x6e, 0x73, 0x74, 0x32, 0x00, 0x00, 0x01, 0x00, 0x00, 0x00,
  0x10, 0x00, 0x00, 0x00, 0x22, 0xf8, 0xff, 0xff, 0x00, 0x00, 0x00, 0x01,
  0x14, 0x00, 0x00, 0x00, 0xe4, 0x00, 0x00, 0x00, 0x09, 0x00, 0x00, 0x00,
  0x00, 0x00, 0x00, 0x09, 0x4c, 0x01, 0x00, 0x00, 0x9c, 0xf7, 0xff, 0xff,
  0x08, 0x00, 0x00, 0x00, 0x88, 0x00, 0x00, 0x00, 0x10, 0x00, 0x00, 0x00,
  0x00, 0x00, 0x00, 0x00, 0x00, 0x00, 0x00, 0x00, 0x00, 0x00, 0x00, 0x00,
  0x00, 0x00, 0x00, 0x00, 0x00, 0x00, 0x00, 0x00, 0x00, 0x00, 0x00, 0x00,
  0x00, 0x00, 0x00, 0x00, 0x00, 0x00, 0x00, 0x00, 0x00, 0x00, 0x00, 0x00,
  0x00, 0x00, 0x00, 0x00, 0x00, 0x00, 0x00, 0x00, 0x00, 0x00, 0x00, 0x00,
  0x00, 0x00, 0x00, 0x00, 0x00, 0x00, 0x00, 0x00, 0x00, 0x00, 0x00, 0x00,
  0x00, 0x00, 0x00, 0x00, 0x00, 0x00, 0x00, 0x00, 0x00, 0x00, 0x00, 0x00,
  0x00, 0x00, 0x00, 0x00, 0x00, 0x00, 0x00, 0x00, 0x00, 0x00, 0x00, 0x00,
  0x00, 0x00, 0x00, 0x00, 0x00, 0x00, 0x00, 0x00, 0x00, 0x00, 0x00, 0x00,
  0x00, 0x00, 0x00, 0x00, 0x00, 0x00, 0x00, 0x00, 0x00, 0x00, 0x00, 0x00,
  0x00, 0x00, 0x00, 0x00, 0x00, 0x00, 0x00, 0x00, 0x00, 0x00, 0x00, 0x00,
  0x00, 0x00, 0x00, 0x00, 0x00, 0x00, 0x00, 0x00, 0x10, 0x00, 0x00, 0x00,
  0x07, 0x86, 0x8a, 0x3c, 0x8a, 0x09, 0x18, 0x3c, 0xaf, 0x6c, 0xb4, 0x3b,
  0x37, 0x45, 0xcd, 0x3b, 0xf5, 0x12, 0x4d, 0x3c, 0x3f, 0xd4, 0x10, 0x3c,
  0x22, 0x4f, 0xa8, 0x3b, 0x13, 0x1d, 0x43, 0x3c, 0x88, 0x39, 0xac, 0x3b,
  0x2a, 0x14, 0x29, 0x3c, 0xa3, 0xa9, 0x0e, 0x3c, 0xe8, 0xbc, 0x7e, 0x3b,
  0xa4, 0x98, 0xef, 0x3b, 0x92, 0xad, 0x3a, 0x3c, 0xac, 0xe8, 0x19, 0x3c,
  0x91, 0x76, 0x83, 0x3b, 0x6d, 0x00, 0x00, 0x00, 0x74, 0x69, 0x6e, 0x79,
  0x5f, 0x64, 0x73, 0x63, 0x6e, 0x6e, 0x2f, 0x71, 0x75, 0x61, 0x6e, 0x74,
  0x5f, 0x63, 0x6f, 0x6e, 0x76, 0x32, 0x64, 0x5f, 0x31, 0x38, 0x2f, 0x43,
  0x6f, 0x6e, 0x76, 0x32, 0x44, 0x3b, 0x74, 0x69, 0x6e, 0x79, 0x5f, 0x64,
  0x73, 0x63, 0x6e, 0x6e, 0x2f, 0x71, 0x75, 0x61, 0x6e, 0x74, 0x5f, 0x63,
  0x6f, 0x6e, 0x76, 0x32, 0x64, 0x5f, 0x31, 0x38, 0x2f, 0x4c, 0x61, 0x73,
  0x74, 0x56, 0x61, 0x6c, 0x75, 0x65, 0x51, 0x75, 0x61, 0x6e, 0x74, 0x2f,
  0x46, 0x61, 0x6b, 0x65, 0x51, 0x75, 0x61, 0x6e, 0x74, 0x57, 0x69, 0x74,
  0x68, 0x4d, 0x69, 0x6e, 0x4d, 0x61, 0x78, 0x56, 0x61, 0x72, 0x73, 0x50,
  0x65, 0x72, 0x43, 0x68, 0x61, 0x6e, 0x6e, 0x65, 0x6c, 0x00, 0x00, 0x00,
  0x04, 0x00, 0x00, 0x00, 0x10, 0x00, 0x00, 0x00, 0x01, 0x00, 0x00, 0x00,
  0x01, 0x00, 0x00, 0x00, 0x0c, 0x00, 0x00, 0x00, 0x42, 0xf9, 0xff, 0xff,
  0x00, 0x00, 0x00, 0x01, 0x18, 0x00, 0x00, 0x00, 0x28, 0x00, 0x00, 0x00,
  0x48, 0x00, 0x00, 0x00, 0x08, 0x00, 0x00, 0x00, 0x00, 0x00, 0x00, 0x09,
  0xc8, 0x00, 0x00, 0x00, 0x04, 0x00, 0x00, 0x00, 0xff, 0xff, 0xff, 0xff,
  0x0e, 0x00, 0x00, 0x00, 0x0e, 0x00, 0x00, 0x00, 0x0c, 0x00, 0x00, 0x00,
  0x2c, 0xf9, 0xff, 0xff, 0x08, 0x00, 0x00, 0x00, 0x14, 0x00, 0x00, 0x00,
  0x01, 0x00, 0x00, 0x00, 0x84, 0xff, 0xff, 0xff, 0xff, 0xff, 0xff, 0xff,
  0x00, 0x00, 0x00, 0x00, 0x01, 0x00, 0x00, 0x00, 0x1c, 0x7d, 0x97, 0x3c,
  0x85, 0x00, 0x00, 0x00, 0x74, 0x69, 0x6e, 0x79, 0x5f, 0x64, 0x73, 0x63,
  0x6e, 0x6e, 0x2f, 0x71, 0x75, 0x61, 0x6e, 0x74, 0x5f, 0x72, 0x65, 0x5f,
  0x6c, 0x75, 0x5f, 0x31, 0x36, 0x2f, 0x52, 0x65, 0x6c, 0x75, 0x3b, 0x74,
  0x69, 0x6e, 0x79, 0x5f, 0x64, 0x73, 0x63, 0x6e, 0x6e, 0x2f, 0x71, 0x75,
  0x61, 0x6e, 0x74, 0x5f, 0x62, 0x61, 0x74, 0x63, 0x68, 0x5f, 0x6e, 0x6f,
  0x72, 0x6d, 0x61, 0x6c, 0x69, 0x7a, 0x61, 0x74, 0x69, 0x6f, 0x6e, 0x5f,
  0x31, 0x36, 0x2f, 0x46, 0x75, 0x73, 0x65, 0x64, 0x42, 0x61, 0x74, 0x63,
  0x68, 0x4e, 0x6f, 0x72, 0x6d, 0x56, 0x33, 0x3b, 0x74, 0x69, 0x6e, 0x79,
  0x5f, 0x64, 0x73, 0x63, 0x6e, 0x6e, 0x2f, 0x71, 0x75, 0x61, 0x6e, 0x74,
  0x5f, 0x64, 0x65, 0x70, 0x74, 0x68, 0x77, 0x69, 0x73, 0x65, 0x5f, 0x63,
  0x6f, 0x6e, 0x76, 0x32, 0x64, 0x5f, 0x36, 0x2f, 0x64, 0x65, 0x70, 0x74,
  0x68, 0x77, 0x69, 0x73, 0x65, 0x00, 0x00, 0x00, 0x04, 0x00, 0x00, 0x00,
  0x01, 0x00, 0x00, 0x00, 0x0e, 0x00, 0x00, 0x00, 0x0e, 0x00, 0x00, 0x00,
  0x0c, 0x00, 0x00, 0x00, 0x92, 0xfa, 0xff, 0xff, 0x00, 0x00, 0x00, 0x01,
  0x14, 0x00, 0x00, 0x00, 0xb4, 0x00, 0x00, 0x00, 0x07, 0x00, 0x00, 0x00,
  0x00, 0x00, 0x00, 0x02, 0xc0, 0x00, 0x00, 0x00, 0x0c, 0xfa, 0xff, 0xff,
  0x08, 0x00, 0x00, 0x00, 0x68, 0x00, 0x00, 0x00, 0x0c, 0x00, 0x00, 0x00,
  0x00, 0x00, 0x00, 0x00, 0x00, 0x00, 0x00, 0x00, 0x00, 0x00, 0x00, 0x00,
  0x00, 0x00, 0x00, 0x00, 0x00, 0x00, 0x00, 0x00, 0x00, 0x00, 0x00, 0x00,
  0x00, 0x00, 0x00, 0x00, 0x00, 0x00, 0x00, 0x00, 0x00, 0x00, 0x00, 0x00,
  0x00, 0x00, 0x00, 0x00, 0x00, 0x00, 0x00, 0x00, 0x00, 0x00, 0x00, 0x00,
  0x00, 0x00, 0x00, 0x00, 0x00, 0x00, 0x00, 0x00, 0x00, 0x00, 0x00, 0x00,
  0x00, 0x00, 0x00, 0x00, 0x00, 0x00, 0x00, 0x00, 0x00, 0x00, 0x00, 0x00,
  0x00, 0x00, 0x00, 0x00, 0x00, 0x00, 0x00, 0x00, 0x00, 0x00, 0x00, 0x00,
  0x00, 0x00, 0x00, 0x00, 0x00, 0x00, 0x00, 0x00, 0x00, 0x00, 0x00, 0x00,
  0x0c, 0x00, 0x00, 0x00, 0xdc, 0xd0, 0x9e, 0x39, 0x0c, 0xf8, 0x48, 0x39,
  0x11, 0x30, 0xe4, 0x39, 0x2f, 0xd6, 0x7d, 0x39, 0x2e, 0xcb, 0xed, 0x39,
  0x12, 0x2c, 0x79, 0x39, 0xeb, 0x32, 0xb3, 0x39, 0x97, 0x28, 0x93, 0x39,
  0xb6, 0xc6, 0x97, 0x39, 0x30, 0x7f, 0x9f, 0x39, 0xfd, 0xad, 0x02, 0x39,
  0x67, 0x31, 0x4d, 0x39, 0x12, 0x00, 0x00, 0x00, 0x74, 0x66, 0x6c, 0x2e,
  0x70, 0x73, 0x65, 0x75, 0x64, 0x6f, 0x5f, 0x71, 0x63, 0x6f, 0x6e, 0x73,
  0x74, 0x33, 0x00, 0x00, 0x01, 0x00, 0x00, 0x00, 0x0c, 0x00, 0x00, 0x00,
  0x72, 0xfb, 0xff, 0xff, 0x00, 0x00, 0x00, 0x01, 0x28, 0x00, 0x00, 0x00,
  0xd0, 0x00, 0x00, 0x00, 0x06, 0x00, 0x00, 0x00, 0x00, 0x00, 0x00, 0x09,
  0x4c, 0x01, 0x00, 0x00, 0x00, 0x00, 0x12, 0x00, 0x10, 0x00, 0x00, 0x00,
  0x00, 0x00, 0x0c, 0x00, 0x08, 0x00, 0x00, 0x00, 0x00, 0x00, 0x04, 0x00,
  0x12, 0x00, 0x00, 0x00, 0x03, 0x00, 0x00, 0x00, 0x08, 0x00, 0x00, 0x00,
  0x6c, 0x00, 0x00, 0x00, 0x0c, 0x00, 0x00, 0x00, 0x00, 0x00, 0x00, 0x00,
  0x00, 0x00, 0x00, 0x00, 0x00, 0x00, 0x00, 0x00, 0x00, 0x00, 0x00, 0x00,
  0x00, 0x00, 0x00, 0x00, 0x00, 0x00, 0x00, 0x00, 0x00, 0x00, 0x00, 0x00,
  0x00, 0x00, 0x00, 0x00, 0x00, 0x00, 0x00, 0x00, 0x00, 0x00, 0x00, 0x00,
  0x00, 0x00, 0x00, 0x00, 0x00, 0x00, 0x00, 0x00, 0x00, 0x00, 0x00, 0x00,
  0x00, 0x00, 0x00, 0x00, 0x00, 0x00, 0x00, 0x00, 0x00, 0x00, 0x00, 0x00,
  0x00, 0x00, 0x00, 0x00, 0x00, 0x00, 0x00, 0x00, 0x00, 0x00, 0x00, 0x00,
  0x00, 0x00, 0x00, 0x00, 0x00, 0x00, 0x00, 0x00, 0x00, 0x00, 0x00, 0x00,
  0x00, 0x00, 0x00, 0x00, 0x00, 0x00, 0x00, 0x00, 0x00, 0x00, 0x00, 0x00,
  0x0c, 0x00, 0x00, 0x00, 0x41, 0x30, 0x8d, 0x3c, 0xb3, 0xa9, 0x32, 0x3c,
  0x52, 0xdc, 0xca, 0x3c, 0xa6, 0xa9, 0x61, 0x3c, 0x7e, 0x66, 0xd3, 0x3c,
  0x12, 0x84, 0x5d, 0x3c, 0x26, 0x4f, 0x9f, 0x3c, 0x37, 0xd3, 0x82, 0x3c,
  0x21, 0xee, 0x86, 0x3c, 0x3b, 0xcb, 0x8d, 0x3c, 0xb1, 0x59, 0xe8, 0x3b,
  0x08, 0x6b, 0x36, 0x3c, 0x82, 0x00, 0x00, 0x00, 0x74, 0x69, 0x6e, 0x79,
  0x5f, 0x64, 0x73, 0x63, 0x6e, 0x6e, 0x2f, 0x71, 0x75, 0x61, 0x6e, 0x74,
  0x5f, 0x64, 0x65, 0x70, 0x74, 0x68, 0x77, 0x69, 0x73, 0x65, 0x5f, 0x63,
  0x6f, 0x6e, 0x76, 0x32, 0x64, 0x5f, 0x36, 0x2f, 0x64, 0x65, 0x70, 0x74,
  0x68, 0x77, 0x69, 0x73, 0x65, 0x3b, 0x74, 0x69, 0x6e, 0x79, 0x5f, 0x64,
  0x73, 0x63, 0x6e, 0x6e, 0x2f, 0x71, 0x75, 0x61, 0x6e, 0x74, 0x5f, 0x64,
  0x65, 0x70, 0x74, 0x68, 0x77, 0x69, 0x73, 0x65, 0x5f, 0x63, 0x6f, 0x6e,
  0x76, 0x32, 0x64, 0x5f, 0x36, 0x2f, 0x4c, 0x61, 0x73, 0x74, 0x56, 0x61,
  0x6c, 0x75, 0x65, 0x51, 0x75, 0x61, 0x6e, 0x74, 0x2f, 0x46, 0x61, 0x6b,
  0x65, 0x51, 0x75, 0x61, 0x6e, 0x74, 0x57, 0x69, 0x74, 0x68, 0x4d, 0x69,
  0x6e, 0x4d, 0x61, 0x78, 0x56, 0x61, 0x72, 0x73, 0x50, 0x65, 0x72, 0x43,
  0x68, 0x61, 0x6e, 0x6e, 0x65, 0x6c, 0x00, 0x00, 0x04, 0x00, 0x00, 0x00,
  0x01, 0x00, 0x00, 0x00, 0x03, 0x00, 0x00, 0x00, 0x03, 0x00, 0x00, 0x00,
  0x0c, 0x00, 0x00, 0x00, 0x92, 0xfc, 0xff, 0xff, 0x00, 0x00, 0x00, 0x01,
  0x18, 0x00, 0x00, 0x00, 0x28, 0x00, 0x00, 0x00, 0x44, 0x00, 0x00, 0x00,
  0x05, 0x00, 0x00, 0x00, 0x00, 0x00, 0x00, 0x09, 0xb8, 0x00, 0x00, 0x00,
  0x04, 0x00, 0x00, 0x00, 0xff, 0xff, 0xff, 0xff, 0x0e, 0x00, 0x00, 0x00,
  0x0e, 0x00, 0x00, 0x00, 0x0c, 0x00, 0x00, 0x00, 0x7c, 0xfc, 0xff, 0xff,
  0x08, 0x00, 0x00, 0x00, 0x10, 0x00, 0x00, 0x00, 0x01, 0x00, 0x00, 0x00,
  0x85, 0xff, 0xff, 0xff, 0xff, 0xff, 0xff, 0xff, 0x01, 0x00, 0x00, 0x00,
  0x15, 0xfb, 0x8f, 0x3c, 0x79, 0x00, 0x00, 0x00, 0x74, 0x69, 0x6e, 0x79,
  0x5f, 0x64, 0x73, 0x63, 0x6e, 0x6e, 0x2f, 0x71, 0x75, 0x61, 0x6e, 0x74,
  0x5f, 0x72, 0x65, 0x5f, 0x6c, 0x75, 0x5f, 0x31, 0x35, 0x2f, 0x52, 0x65,
  0x6c, 0x75, 0x3b, 0x74, 0x69, 0x6e, 0x79, 0x5f, 0x64, 0x73, 0x63, 0x6e,
  0x6e, 0x2f, 0x71, 0x75, 0x61, 0x6e, 0x74, 0x5f, 0x62, 0x61, 0x74, 0x63,
  0x68, 0x5f, 0x6e, 0x6f, 0x72, 0x6d, 0x61, 0x6c, 0x69, 0x7a, 0x61, 0x74,
  0x69, 0x6f, 0x6e, 0x5f, 0x31, 0x35, 0x2f, 0x46, 0x75, 0x73, 0x65, 0x64,
  0x42, 0x61, 0x74, 0x63, 0x68, 0x4e, 0x6f, 0x72, 0x6d, 0x56, 0x33, 0x3b,
  0x74, 0x69, 0x6e, 0x79, 0x5f, 0x64, 0x73, 0x63, 0x6e, 0x6e, 0x2f, 0x71,
  0x75, 0x61, 0x6e, 0x74, 0x5f, 0x63, 0x6f, 0x6e, 0x76, 0x32, 0x64, 0x5f,
  0x31, 0x37, 0x2f, 0x43, 0x6f, 0x6e, 0x76, 0x32, 0x44, 0x00, 0x00, 0x00,
  0x04, 0x00, 0x00, 0x00, 0x01, 0x00, 0x00, 0x00, 0x0e, 0x00, 0x00, 0x00,
  0x0e, 0x00, 0x00, 0x00, 0x0c, 0x00, 0x00, 0x00, 0xd2, 0xfd, 0xff, 0xff,
  0x00, 0x00, 0x00, 0x01, 0x14, 0x00, 0x00, 0x00, 0xb4, 0x00, 0x00, 0x00,
  0x04, 0x00, 0x00, 0x00, 0x00, 0x00, 0x00, 0x02, 0xc0, 0x00, 0x00, 0x00,
  0x4c, 0xfd, 0xff, 0xff, 0x08, 0x00, 0x00, 0x00, 0x68, 0x00, 0x00, 0x00,
  0x0c, 0x00, 0x00, 0x00, 0x00, 0x00, 0x00, 0x00, 0x00, 0x00, 0x00, 0x00,
  0x00, 0x00, 0x00, 0x00, 0x00, 0x00, 0x00, 0x00, 0x00, 0x00, 0x00, 0x00,
  0x00, 0x00, 0x00, 0x00, 0x00, 0x00, 0x00, 0x00, 0x00, 0x00, 0x00, 0x00,
  0x00, 0x00, 0x00, 0x00, 0x00, 0x00, 0x00, 0x00, 0x00, 0x00, 0x00, 0x00,
  0x00, 0x00, 0x00, 0x00, 0x00, 0x00, 0x00, 0x00, 0x00, 0x00, 0x00, 0x00,
  0x00, 0x00, 0x00, 0x00, 0x00, 0x00, 0x00, 0x00, 0x00, 0x00, 0x00, 0x00,
  0x00, 0x00, 0x00, 0x00, 0x00, 0x00, 0x00, 0x00, 0x00, 0x00, 0x00, 0x00,
  0x00, 0x00, 0x00, 0x00, 0x00, 0x00, 0x00, 0x00, 0x00, 0x00, 0x00, 0x00,
  0x00, 0x00, 0x00, 0x00, 0x0c, 0x00, 0x00, 0x00, 0xfb, 0xeb, 0x1d, 0x38,
  0xae, 0xa8, 0xb7, 0x37, 0xc8, 0x9e, 0x4e, 0x37, 0xad, 0xb5, 0x02, 0x38,
  0x07, 0x9a, 0x57, 0x38, 0x15, 0x07, 0x19, 0x38, 0x51, 0xb8, 0x45, 0x38,
  0x32, 0x39, 0x79, 0x37, 0xb7, 0xa9, 0x92, 0x37, 0x00, 0x33, 0xf4, 0x37,
  0xdf, 0xac, 0x94, 0x38, 0x98, 0x06, 0xb1, 0x37, 0x12, 0x00, 0x00, 0x00,
  0x74, 0x66, 0x6c, 0x2e, 0x70, 0x73, 0x65, 0x75, 0x64, 0x6f, 0x5f, 0x71,
  0x63, 0x6f, 0x6e, 0x73, 0x74, 0x34, 0x00, 0x00, 0x01, 0x00, 0x00, 0x00,
  0x0c, 0x00, 0x00, 0x00, 0xb2, 0xfe, 0xff, 0xff, 0x00, 0x00, 0x00, 0x01,
  0x14, 0x00, 0x00, 0x00, 0xb8, 0x00, 0x00, 0x00, 0x03, 0x00, 0x00, 0x00,
  0x00, 0x00, 0x00, 0x09, 0x20, 0x01, 0x00, 0x00, 0x2c, 0xfe, 0xff, 0xff,
  0x08, 0x00, 0x00, 0x00, 0x6c, 0x00, 0x00, 0x00, 0x0c, 0x00, 0x00, 0x00,
  0x00, 0x00, 0x00, 0x00, 0x00, 0x00, 0x00, 0x00, 0x00, 0x00, 0x00, 0x00,
  0x00, 0x00, 0x00, 0x00, 0x00, 0x00, 0x00, 0x00, 0x00, 0x00, 0x00, 0x00,
  0x00, 0x00, 0x00, 0x00, 0x00, 0x00, 0x00, 0x00, 0x00, 0x00, 0x00, 0x00,
  0x00, 0x00, 0x00, 0x00, 0x00, 0x00, 0x00, 0x00, 0x00, 0x00, 0x00, 0x00,
  0x00, 0x00, 0x00, 0x00, 0x00, 0x00, 0x00, 0x00, 0x00, 0x00, 0x00, 0x00,
  0x00, 0x00, 0x00, 0x00, 0x00, 0x00, 0x00, 0x00, 0x00, 0x00, 0x00, 0x00,
  0x00, 0x00, 0x00, 0x00, 0x00, 0x00, 0x00, 0x00, 0x00, 0x00, 0x00, 0x00,
  0x00, 0x00, 0x00, 0x00, 0x00, 0x00, 0x00, 0x00, 0x00, 0x00, 0x00, 0x00,
  0x00, 0x00, 0x00, 0x00, 0x0c, 0x00, 0x00, 0x00, 0x0f, 0x4e, 0x1d, 0x3c,
  0x05, 0xf1, 0xb6, 0x3b, 0x29, 0xd0, 0x4d, 0x3b, 0xf8, 0x32, 0x02, 0x3c,
  0x6d, 0xc2, 0x56, 0x3c, 0x0e, 0x6e, 0x18, 0x3c, 0x99, 0xf2, 0x44, 0x3c,
  0xf9, 0x3f, 0x78, 0x3b, 0x0d, 0x17, 0x92, 0x3b, 0xcd, 0x3e, 0xf3, 0x3b,
  0x32, 0x18, 0x94, 0x3c, 0x92, 0x55, 0xb0, 0x3b, 0x6d, 0x00, 0x00, 0x00,
  0x74, 0x69, 0x6e, 0x79, 0x5f, 0x64, 0x73, 0x63, 0x6e, 0x6e, 0x2f, 0x71,
  0x75, 0x61, 0x6e, 0x74, 0x5f, 0x63, 0x6f, 0x6e, 0x76, 0x32, 0x64, 0x5f,
  0x31, 0x37, 0x2f, 0x43, 0x6f, 0x6e, 0x76, 0x32, 0x44, 0x3b, 0x74, 0x69,
  0x6e, 0x79, 0x5f, 0x64, 0x73, 0x63, 0x6e, 0x6e, 0x2f, 0x71, 0x75, 0x61,
  0x6e, 0x74, 0x5f, 0x63, 0x6f, 0x6e, 0x76, 0x32, 0x64, 0x5f, 0x31, 0x37,
  0x2f, 0x4c, 0x61, 0x73, 0x74, 0x56, 0x61, 0x6c, 0x75, 0x65, 0x51, 0x75,
  0x61, 0x6e, 0x74, 0x2f, 0x46, 0x61, 0x6b, 0x65, 0x51, 0x75, 0x61, 0x6e,
  0x74, 0x57, 0x69, 0x74, 0x68, 0x4d, 0x69, 0x6e, 0x4d, 0x61, 0x78, 0x56,
  0x61, 0x72, 0x73, 0x50, 0x65, 0x72, 0x43, 0x68, 0x61, 0x6e, 0x6e, 0x65,
  0x6c, 0x00, 0x00, 0x00, 0x04, 0x00, 0x00, 0x00, 0x0c, 0x00, 0x00, 0x00,
  0x03, 0x00, 0x00, 0x00, 0x03, 0x00, 0x00, 0x00, 0x01, 0x00, 0x00, 0x00,
  0x00, 0x00, 0x16, 0x00, 0x1c, 0x00, 0x18, 0x00, 0x17, 0x00, 0x10, 0x00,
  0x0c, 0x00, 0x08, 0x00, 0x00, 0x00, 0x00, 0x00, 0x00, 0x00, 0x07, 0x00,
  0x16, 0x00, 0x00, 0x00, 0x00, 0x00, 0x00, 0x01, 0x18, 0x00, 0x00, 0x00,
  0x18, 0x00, 0x00, 0x00, 0x02, 0x00, 0x00, 0x00, 0x00, 0x00, 0x00, 0x02,
  0x20, 0x00, 0x00, 0x00, 0x04, 0x00, 0x04, 0x00, 0x04, 0x00, 0x00, 0x00,
  0x0e, 0x00, 0x00, 0x00, 0x61, 0x72, 0x69, 0x74, 0x68, 0x2e, 0x63, 0x6f,
  0x6e, 0x73, 0x74, 0x61, 0x6e, 0x74, 0x00, 0x00, 0x01, 0x00, 0x00, 0x00,
  0x02, 0x00, 0x00, 0x00, 0x00, 0x00, 0x16, 0x00, 0x20, 0x00, 0x1c, 0x00,
  0x1b, 0x00, 0x14, 0x00, 0x10, 0x00, 0x0c, 0x00, 0x00, 0x00, 0x00, 0x00,
  0x08, 0x00, 0x07, 0x00, 0x16, 0x00, 0x00, 0x00, 0x00, 0x00, 0x00, 0x01,
  0x18, 0x00, 0x00, 0x00, 0x34, 0x00, 0x00, 0x00, 0x50, 0x00, 0x00, 0x00,
  0x01, 0x00, 0x00, 0x00, 0x00, 0x00, 0x00, 0x09, 0x64, 0x00, 0x00, 0x00,
  0x04, 0x00, 0x00, 0x00, 0xff, 0xff, 0xff, 0xff, 0x1c, 0x00, 0x00, 0x00,
  0x1c, 0x00, 0x00, 0x00, 0x01, 0x00, 0x00, 0x00, 0x0c, 0x00, 0x0c, 0x00,
  0x00, 0x00, 0x00, 0x00, 0x08, 0x00, 0x04, 0x00, 0x0c, 0x00, 0x00, 0x00,
  0x08, 0x00, 0x00, 0x00, 0x10, 0x00, 0x00, 0x00, 0x01, 0x00, 0x00, 0x00,
  0x80, 0xff, 0xff, 0xff, 0xff, 0xff, 0xff, 0xff, 0x01, 0x00, 0x00, 0x00,
  0x81, 0x80, 0x80, 0x3b, 0x19, 0x00, 0x00, 0x00, 0x73, 0x65, 0x72, 0x76,
  0x69, 0x6e, 0x67, 0x5f, 0x64, 0x65, 0x66, 0x61, 0x75, 0x6c, 0x74, 0x5f,
  0x69, 0x6e, 0x70, 0x75, 0x74, 0x5f, 0x38, 0x3a, 0x30, 0x00, 0x00, 0x00,
  0x04, 0x00, 0x00, 0x00, 0x01, 0x00, 0x00, 0x00, 0x1c, 0x00, 0x00, 0x00,
  0x1c, 0x00, 0x00, 0x00, 0x01, 0x00, 0x00, 0x00, 0x05, 0x00, 0x00, 0x00,
  0x60, 0x00, 0x00, 0x00, 0x40, 0x00, 0x00, 0x00, 0x2c, 0x00, 0x00, 0x00,
  0x18, 0x00, 0x00, 0x00, 0x04, 0x00, 0x00, 0x00, 0xc0, 0xff, 0xff, 0xff,
  0x19, 0x00, 0x00, 0x00, 0x02, 0x00, 0x00, 0x00, 0x00, 0x00, 0x00, 0x19,
  0xd0, 0xff, 0xff, 0xff, 0x09, 0x00, 0x00, 0x00, 0x04, 0x00, 0x00, 0x00,
  0x00, 0x00, 0x00, 0x09, 0xe0, 0xff, 0xff, 0xff, 0x28, 0x00, 0x00, 0x00,
  0x02, 0x00, 0x00, 0x00, 0x00, 0x00, 0x00, 0x28, 0xf0, 0xff, 0xff, 0xff,
  0x04, 0x00, 0x00, 0x00, 0x03, 0x00, 0x00, 0x00, 0x00, 0x00, 0x00, 0x04,
  0x0c, 0x00, 0x10, 0x00, 0x0f, 0x00, 0x00, 0x00, 0x08, 0x00, 0x04, 0x00,
  0x0c, 0x00, 0x00, 0x00, 0x03, 0x00, 0x00, 0x00, 0x03, 0x00, 0x00, 0x00,
  0x00, 0x00, 0x00, 0x03
};
const unsigned int mnist_model_tflite_len = 8608;
