#include "model_data.h"

#ifdef __has_attribute
#define HAVE_ATTRIBUTE(x) __has_attribute(x)
#else
#define HAVE_ATTRIBUTE(x) 0
#endif
#if HAVE_ATTRIBUTE(aligned) || (defined(__GNUC__) && !defined(__clang__))
#define DATA_ALIGN_ATTRIBUTE __attribute__((aligned(4)))
#else
#define DATA_ALIGN_ATTRIBUTE
#endif

const unsigned char mnist_model_tflite[] DATA_ALIGN_ATTRIBUTE = {
  0x1c, 0x00, 0x00, 0x00, 0x54, 0x46, 0x4c, 0x33, 0x14, 0x00, 0x20, 0x00,
  0x1c, 0x00, 0x18, 0x00, 0x14, 0x00, 0x10, 0x00, 0x0c, 0x00, 0x00, 0x00,
  0x08, 0x00, 0x04, 0x00, 0x14, 0x00, 0x00, 0x00, 0x1c, 0x00, 0x00, 0x00,
  0x8c, 0x00, 0x00, 0x00, 0xe4, 0x00, 0x00, 0x00, 0x9c, 0x08, 0x00, 0x00,
  0xac, 0x08, 0x00, 0x00, 0x10, 0x1f, 0x00, 0x00, 0x03, 0x00, 0x00, 0x00,
  0x01, 0x00, 0x00, 0x00, 0x10, 0x00, 0x00, 0x00, 0x00, 0x00, 0x0a, 0x00,
  0x10, 0x00, 0x0c, 0x00, 0x08, 0x00, 0x04, 0x00, 0x0a, 0x00, 0x00, 0x00,
  0x0c, 0x00, 0x00, 0x00, 0x1c, 0x00, 0x00, 0x00, 0x38, 0x00, 0x00, 0x00,
  0x0f, 0x00, 0x00, 0x00, 0x73, 0x65, 0x72, 0x76, 0x69, 0x6e, 0x67, 0x5f,
  0x64, 0x65, 0x66, 0x61, 0x75, 0x6c, 0x74, 0x00, 0x01, 0x00, 0x00, 0x00,
  0x04, 0x00, 0x00, 0x00, 0x9c, 0xff, 0xff, 0xff, 0x15, 0x00, 0x00, 0x00,
  0x04, 0x00, 0x00, 0x00, 0x07, 0x00, 0x00, 0x00, 0x64, 0x65, 0x6e, 0x73,
  0x65, 0x5f, 0x31, 0x00, 0x01, 0x00, 0x00, 0x00, 0x04, 0x00, 0x00, 0x00,
  0x46, 0xf7, 0xff, 0xff, 0x04, 0x00, 0x00, 0x00, 0x07, 0x00, 0x00, 0x00,
  0x69, 0x6e, 0x70, 0x75, 0x74, 0x5f, 0x32, 0x00, 0x02, 0x00, 0x00, 0x00,
  0x34, 0x00, 0x00, 0x00, 0x04, 0x00, 0x00, 0x00, 0xdc, 0xff, 0xff, 0xff,
  0x18, 0x00, 0x00, 0x00, 0x04, 0x00, 0x00, 0x00, 0x13, 0x00, 0x00, 0x00,
  0x43, 0x4f, 0x4e, 0x56, 0x45, 0x52, 0x53, 0x49, 0x4f, 0x4e, 0x5f, 0x4d,
  0x45, 0x54, 0x41, 0x44, 0x41, 0x54, 0x41, 0x00, 0x08, 0x00, 0x0c, 0x00,
  0x08, 0x00, 0x04, 0x00, 0x08, 0x00, 0x00, 0x00, 0x17, 0x00, 0x00, 0x00,
  0x04, 0x00, 0x00, 0x00, 0x13, 0x00, 0x00, 0x00, 0x6d, 0x69, 0x6e, 0x5f,
  0x72, 0x75, 0x6e, 0x74, 0x69, 0x6d, 0x65, 0x5f, 0x76, 0x65, 0x72, 0x73,
  0x69, 0x6f, 0x6e, 0x00, 0x19, 0x00, 0x00, 0x00, 0xb4, 0x07, 0x00, 0x00,
  0xac, 0x07, 0x00, 0x00, 0x94, 0x07, 0x00, 0x00, 0x5c, 0x07, 0x00, 0x00,
  0x5c, 0x06, 0x00, 0x00, 0xec, 0x05, 0x00, 0x00, 0x5c, 0x04, 0x00, 0x00,
  0x0c, 0x04, 0x00, 0x00, 0x6c, 0x03, 0x00, 0x00, 0x1c, 0x03, 0x00, 0x00,
  0x4c, 0x02, 0x00, 0x00, 0x0c, 0x02, 0x00, 0x00, 0x90, 0x01, 0x00, 0x00,
  0x50, 0x01, 0x00, 0x00, 0xd4, 0x00, 0x00, 0x00, 0xcc, 0x00, 0x00, 0x00,
  0xc4, 0x00, 0x00, 0x00, 0xbc, 0x00, 0x00, 0x00, 0xb4, 0x00, 0x00, 0x00,
  0xac, 0x00, 0x00, 0x00, 0xa4, 0x00, 0x00, 0x00, 0x9c, 0x00, 0x00, 0x00,
  0x94, 0x00, 0x00, 0x00, 0x74, 0x00, 0x00, 0x00, 0x04, 0x00, 0x00, 0x00,
  0x1e, 0xf8, 0xff, 0xff, 0x04, 0x00, 0x00, 0x00, 0x60, 0x00, 0x00, 0x00,
  0x0c, 0x00, 0x00, 0x00, 0x08, 0x00, 0x0e, 0x00, 0x08, 0x00, 0x04, 0x00,
  0x08, 0x00, 0x00, 0x00, 0x10, 0x00, 0x00, 0x00, 0x28, 0x00, 0x00, 0x00,
  0x00, 0x00, 0x06, 0x00, 0x08, 0x00, 0x04, 0x00, 0x06, 0x00, 0x00, 0x00,
  0x04, 0x00, 0x00, 0x00, 0x01, 0x00, 0x00, 0x00, 0xeb, 0x03, 0x00, 0x00,
  0x0c, 0x00, 0x18, 0x00, 0x14, 0x00, 0x10, 0x00, 0x0c, 0x00, 0x04, 0x00,
  0x0c, 0x00, 0x00, 0x00, 0x06, 0xab, 0xbf, 0x65, 0x40, 0x87, 0x9f, 0x75,
  0x02, 0x00, 0x00, 0x00, 0x02, 0x00, 0x00, 0x00, 0x04, 0x00, 0x00, 0x00,
  0x06, 0x00, 0x00, 0x00, 0x32, 0x2e, 0x32, 0x30, 0x2e, 0x30, 0x00, 0x00,
  0x8a, 0xf8, 0xff, 0xff, 0x04, 0x00, 0x00, 0x00, 0x10, 0x00, 0x00, 0x00,
  0x31, 0x2e, 0x31, 0x34, 0x2e, 0x30, 0x00, 0x00, 0x00, 0x00, 0x00, 0x00,
  0x00, 0x00, 0x00, 0x00, 0x88, 0xe3, 0xff, 0xff, 0x8c, 0xe3, 0xff, 0xff,
  0x90, 0xe3, 0xff, 0xff, 0x94, 0xe3, 0xff, 0xff, 0x98, 0xe3, 0xff, 0xff,
  0x9c, 0xe3, 0xff, 0xff, 0xa0, 0xe3, 0xff, 0xff, 0xa4, 0xe3, 0xff, 0xff,
  0xc6, 0xf8, 0xff, 0xff, 0x04, 0x00, 0x00, 0x00, 0x6c, 0x00, 0x00, 0x00,
  0xfa, 0xc9, 0xce, 0xc7, 0x9b, 0xe9, 0x81, 0xf3, 0xa9, 0x7f, 0x7d, 0x1b,
  0x11, 0x5a, 0x56, 0xfe, 0xa6, 0xb3, 0x19, 0xf2, 0x40, 0x0b, 0x16, 0x3c,
  0x7f, 0x3b, 0x24, 0xc1, 0xcb, 0xf8, 0x7f, 0x38, 0x60, 0x15, 0x11, 0x39,
  0xa1, 0xc3, 0xfc, 0xd6, 0xe1, 0xd3, 0x81, 0x1f, 0x71, 0xb6, 0xf0, 0x60,
  0xcb, 0x1a, 0x7f, 0x07, 0x76, 0x7d, 0xe4, 0x11, 0x4b, 0xec, 0xfc, 0x12,
  0xe9, 0xa0, 0x81, 0xe1, 0xb3, 0xdb, 0x2a, 0x0d, 0xf0, 0x4c, 0x41, 0x7f,
  0x7f, 0xe4, 0xbf, 0x61, 0x27, 0xed, 0x47, 0x33, 0x1d, 0xe1, 0x0f, 0xf7,
  0xd5, 0xf0, 0xf4, 0x81, 0xfb, 0xf2, 0x3f, 0xbe, 0x81, 0x29, 0x23, 0xe6,
  0x2d, 0x2d, 0x3a, 0x1e, 0x23, 0x1b, 0x50, 0x45, 0x7f, 0xef, 0x1a, 0x26,
  0x3e, 0xf9, 0xff, 0xff, 0x04, 0x00, 0x00, 0x00, 0x30, 0x00, 0x00, 0x00,
  0xea, 0xab, 0x00, 0x00, 0x5b, 0xfd, 0xff, 0xff, 0x19, 0x09, 0x00, 0x00,
  0x97, 0x11, 0x00, 0x00, 0x4a, 0x1d, 0x00, 0x00, 0x17, 0xff, 0xff, 0xff,
  0xe8, 0x26, 0x00, 0x00, 0x11, 0x00, 0x00, 0x00, 0x24, 0x2e, 0x00, 0x00,
  0xf5, 0x33, 0x00, 0x00, 0x79, 0x03, 0x00, 0x00, 0xc8, 0x36, 0x00, 0x00,
  0x7a, 0xf9, 0xff, 0xff, 0x04, 0x00, 0x00, 0x00, 0x6c, 0x00, 0x00, 0x00,
  0xf5, 0x81, 0x81, 0xc5, 0xff, 0xff, 0xf6, 0x3c, 0xd1, 0xd5, 0x20, 0xc6,
  0xf0, 0x84, 0x03, 0x37, 0x81, 0x36, 0x06, 0x7f, 0xfc, 0x10, 0x18, 0x81,
  0xd6, 0x87, 0xee, 0xf4, 0xd4, 0x02, 0x3b, 0xcc, 0xf9, 0xbc, 0x2d, 0xfa,
  0xe4, 0xe7, 0xcc, 0xea, 0x07, 0xf1, 0x0f, 0xf7, 0xc2, 0xf2, 0x72, 0xd7,
  0xe7, 0x0c, 0x4a, 0xee, 0x2a, 0x32, 0x30, 0x12, 0x22, 0x13, 0x2c, 0xeb,
  0xc4, 0x2b, 0x16, 0x81, 0x19, 0xb8, 0x7f, 0x51, 0x25, 0xff, 0x33, 0xce,
  0xfd, 0x19, 0xf6, 0x1c, 0x13, 0x7f, 0xd6, 0x13, 0x81, 0x81, 0x7f, 0x08,
  0x81, 0x25, 0xe0, 0x0e, 0x0f, 0x27, 0xa4, 0x0c, 0xd4, 0x69, 0x08, 0x0c,
  0xb0, 0x3d, 0xca, 0x21, 0x0a, 0xaf, 0xd9, 0x3d, 0xe1, 0xb6, 0xbc, 0xfe,
  0xf2, 0xf9, 0xff, 0xff, 0x04, 0x00, 0x00, 0x00, 0x30, 0x00, 0x00, 0x00,
  0xf3, 0x30, 0x00, 0x00, 0x6b, 0x0d, 0x00, 0x00, 0x01, 0x0f, 0x00, 0x00,
  0xd8, 0x0a, 0x00, 0x00, 0x60, 0x04, 0x00, 0x00, 0xf3, 0xfa, 0xff, 0xff,
  0x16, 0xfc, 0xff, 0xff, 0xf3, 0xeb, 0xff, 0xff, 0xd3, 0x17, 0x00, 0x00,
  0xc3, 0x0f, 0x00, 0x00, 0xfd, 0xe3, 0xff, 0xff, 0x70, 0x25, 0x00, 0x00,
  0x2e, 0xfa, 0xff, 0xff, 0x04, 0x00, 0x00, 0x00, 0xc0, 0x00, 0x00, 0x00,
  0x7f, 0xdc, 0x42, 0xfc, 0x45, 0x3e, 0x39, 0xbd, 0x5a, 0xce, 0x1c, 0xaf,
  0xe2, 0x0f, 0xaa, 0x88, 0xbf, 0x10, 0x9f, 0x0f, 0x08, 0x81, 0xc6, 0xa9,
  0x61, 0xeb, 0x12, 0x25, 0x11, 0xfa, 0x05, 0x81, 0xb1, 0x4b, 0x00, 0x4c,
  0x3d, 0x55, 0x40, 0x81, 0x35, 0x0b, 0xcd, 0x07, 0x56, 0xf3, 0x5c, 0xc6,
  0x09, 0x27, 0x3d, 0x7f, 0x59, 0x03, 0x47, 0xe8, 0xff, 0x2c, 0xe6, 0xfd,
  0x85, 0xcf, 0xf5, 0x9f, 0xc2, 0x58, 0xb2, 0xd6, 0x92, 0x7f, 0xe3, 0xe8,
  0x7f, 0x06, 0x72, 0x34, 0x79, 0xdd, 0x3d, 0xf8, 0xa0, 0xfb, 0xd2, 0x13,
  0xd3, 0x7f, 0x03, 0x2d, 0xe6, 0xe7, 0xc2, 0x14, 0x3b, 0xc1, 0x2d, 0x36,
  0x3a, 0x02, 0x81, 0xcb, 0x4e, 0x8c, 0x10, 0x23, 0x3f, 0x30, 0xd9, 0x1b,
  0xd4, 0xf2, 0xa8, 0xff, 0xa7, 0x57, 0xbb, 0xe2, 0x7f, 0x01, 0xac, 0x33,
  0xcb, 0x01, 0xe8, 0xac, 0x47, 0x71, 0xdb, 0xda, 0x32, 0x13, 0x81, 0x20,
  0xba, 0x7f, 0x48, 0x40, 0x16, 0xe6, 0xdf, 0x26, 0x72, 0xcd, 0x9e, 0x94,
  0x4d, 0xb8, 0xe7, 0x93, 0x1b, 0x22, 0xd3, 0x81, 0xdc, 0xff, 0x13, 0x3f,
  0x64, 0xdc, 0xd8, 0xd2, 0xee, 0x18, 0x0b, 0x04, 0xd4, 0x29, 0xf3, 0x81,
  0x08, 0xf8, 0x2e, 0x0a, 0x29, 0xfc, 0x11, 0xd4, 0xb7, 0x21, 0xfe, 0x7f,
  0x42, 0xe3, 0x93, 0x21, 0xe4, 0xe4, 0xd6, 0x10, 0x81, 0x41, 0x3c, 0x09,
  0xfa, 0xfa, 0xff, 0xff, 0x04, 0x00, 0x00, 0x00, 0x40, 0x00, 0x00, 0x00,
  0x6b, 0xfb, 0xff, 0xff, 0x79, 0x2e, 0x00, 0x00, 0x35, 0xf6, 0xff, 0xff,
  0x09, 0xf5, 0xff, 0xff, 0xd3, 0xea, 0xff, 0xff, 0x84, 0x27, 0x00, 0x00,
  0xdb, 0xe3, 0xff, 0xff, 0xd0, 0xf0, 0xff, 0xff, 0x1a, 0x04, 0x00, 0x00,
  0x61, 0x12, 0x00, 0x00, 0x3f, 0x05, 0x00, 0x00, 0x43, 0xf6, 0xff, 0xff,
  0xcc, 0xf4, 0xff, 0xff, 0xd4, 0x0e, 0x00, 0x00, 0x6e, 0xef, 0xff, 0xff,
  0xe3, 0x14, 0x00, 0x00, 0x46, 0xfb, 0xff, 0xff, 0x04, 0x00, 0x00, 0x00,
  0x90, 0x00, 0x00, 0x00, 0xc5, 0x7f, 0xc7, 0x97, 0xa4, 0x0b, 0x21, 0x7f,
  0xcb, 0xa7, 0x23, 0x24, 0x42, 0x07, 0x21, 0x48, 0xb1, 0x58, 0xa4, 0xb9,
  0x83, 0x12, 0x50, 0x47, 0xa9, 0x81, 0x30, 0x4f, 0x53, 0x04, 0x2d, 0x3e,
  0x81, 0xf8, 0xb4, 0x41, 0xab, 0x11, 0x17, 0xf6, 0xfd, 0x9c, 0x1a, 0x29,
  0x35, 0xd2, 0x0f, 0x2d, 0xe9, 0x59, 0xb7, 0x89, 0x9a, 0x1f, 0x3a, 0x66,
  0xfa, 0xd4, 0x43, 0x73, 0x5b, 0x30, 0xff, 0x28, 0x0c, 0x6d, 0x81, 0x81,
  0x88, 0x1f, 0x7f, 0x6c, 0xbb, 0xd3, 0x7f, 0x7f, 0x7f, 0x3e, 0xcd, 0x3e,
  0xe2, 0x34, 0xc3, 0xdc, 0x9d, 0xee, 0x44, 0x44, 0xa9, 0xc6, 0x65, 0x64,
  0x41, 0x36, 0xb2, 0x29, 0x9d, 0x62, 0xb1, 0x19, 0xca, 0x1b, 0x18, 0x01,
  0x0c, 0xd9, 0x22, 0x60, 0x3c, 0xe6, 0x8b, 0x86, 0xc5, 0x42, 0xce, 0x0d,
  0x84, 0xe9, 0x70, 0x39, 0xf5, 0xa4, 0x5f, 0x4e, 0x46, 0x9e, 0x81, 0x81,
  0xe4, 0x01, 0x0c, 0x00, 0x81, 0x81, 0x73, 0x2d, 0x81, 0xe1, 0x47, 0x2e,
  0xf9, 0x81, 0xb9, 0x90, 0xe2, 0xfb, 0xff, 0xff, 0x04, 0x00, 0x00, 0x00,
  0x40, 0x00, 0x00, 0x00, 0x68, 0x26, 0x00, 0x00, 0xb3, 0xcf, 0xff, 0xff,
  0x44, 0x22, 0x00, 0x00, 0x41, 0x1a, 0x00, 0x00, 0x67, 0x3f, 0x00, 0x00,
  0x82, 0xf7, 0xff, 0xff, 0xfb, 0xf2, 0xff, 0xff, 0xb2, 0xf0, 0xff, 0xff,
  0x57, 0x1a, 0x00, 0x00, 0x9a, 0x3e, 0x00, 0x00, 0xa1, 0xe4, 0xff, 0xff,
  0x66, 0xff, 0xff, 0xff, 0x18, 0xff, 0xff, 0xff, 0xab, 0x0b, 0x00, 0x00,
  0x1d, 0xfe, 0xff, 0xff, 0x57, 0xf3, 0xff, 0xff, 0x2e, 0xfc, 0xff, 0xff,
  0x04, 0x00, 0x00, 0x00, 0x80, 0x01, 0x00, 0x00, 0x06, 0x02, 0xe7, 0x16,
  0x05, 0xfd, 0xfb, 0xe1, 0x1c, 0x20, 0xd6, 0x7f, 0x49, 0xc8, 0x1c, 0xe7,
  0x81, 0xa5, 0x16, 0xaf, 0xea, 0x26, 0xfc, 0xfc, 0xf6, 0x8e, 0x46, 0x0b,
  0xf6, 0x43, 0xb6, 0x28, 0xee, 0x1d, 0x08, 0x81, 0x95, 0xa5, 0x17, 0xe8,
  0x2a, 0xc6, 0xce, 0xdf, 0xe9, 0xec, 0x10, 0x2f, 0x81, 0xa4, 0xba, 0xcf,
  0x10, 0x20, 0xf5, 0x1d, 0x2d, 0xae, 0x52, 0x48, 0xef, 0x22, 0xc8, 0x04,
  0x81, 0xb9, 0x11, 0xbb, 0x22, 0x7a, 0xe9, 0xe3, 0xe8, 0xbe, 0x34, 0xde,
  0xe4, 0xc7, 0xf4, 0x20, 0xee, 0xbf, 0x05, 0x22, 0x7f, 0xf8, 0x43, 0x1d,
  0x5d, 0xe8, 0x05, 0x7b, 0xe9, 0x5a, 0x03, 0xcf, 0xf0, 0x3e, 0xfa, 0x2b,
  0x2b, 0xfb, 0xdd, 0x10, 0xcb, 0x71, 0xef, 0xde, 0x6d, 0xe2, 0xe2, 0x81,
  0xd7, 0xda, 0x52, 0xf3, 0xa6, 0x32, 0xf6, 0xd1, 0x52, 0xe7, 0xfd, 0x17,
  0x19, 0xf0, 0x7f, 0x68, 0x45, 0x61, 0x35, 0x05, 0xff, 0x19, 0xc7, 0x32,
  0x81, 0x37, 0x3f, 0xb4, 0xd4, 0xff, 0x27, 0xbb, 0xc7, 0x4f, 0xd8, 0xcf,
  0xe9, 0xec, 0x77, 0xfa, 0x0f, 0x0f, 0x81, 0xd7, 0x6b, 0x25, 0x14, 0xb0,
  0x0a, 0xf6, 0x7a, 0x10, 0x8e, 0x1f, 0xde, 0xde, 0x02, 0x09, 0x07, 0x05,
  0x16, 0xf8, 0x7f, 0x69, 0x1c, 0x53, 0xc8, 0x58, 0xd5, 0x9d, 0x04, 0x7f,
  0x42, 0x78, 0xfd, 0xff, 0xf8, 0x5c, 0xdf, 0x90, 0xfb, 0x43, 0x3c, 0x0d,
  0xb6, 0x52, 0xf8, 0xdb, 0x00, 0x0a, 0xa5, 0xf4, 0x7f, 0xe7, 0x77, 0x65,
  0xb4, 0xa5, 0x1a, 0xdb, 0x7f, 0x40, 0x1e, 0x03, 0x24, 0xe8, 0x21, 0x16,
  0x05, 0x19, 0x0d, 0xe2, 0xc4, 0xf0, 0x19, 0xd5, 0xee, 0x7f, 0xf1, 0xe3,
  0xd3, 0xd3, 0x02, 0xe1, 0x09, 0xdc, 0xf7, 0x31, 0xbb, 0xf0, 0x7f, 0xb3,
  0xc6, 0x93, 0xf4, 0xdc, 0x25, 0x9f, 0xe1, 0x0c, 0xfc, 0xcb, 0xfc, 0x11,
  0xbb, 0x13, 0xdf, 0xdd, 0xc4, 0xd7, 0x0e, 0x61, 0xff, 0xc1, 0x0d, 0xf6,
  0xf1, 0x7f, 0xbe, 0xf1, 0xb8, 0xdc, 0x1d, 0x58, 0x0c, 0xe6, 0xf7, 0x3a,
  0x1d, 0xcf, 0x54, 0x6a, 0xc8, 0x7f, 0xe6, 0xc2, 0x36, 0x42, 0x3f, 0xd0,
  0x41, 0x07, 0xf0, 0xf5, 0x85, 0xea, 0x23, 0xab, 0xd2, 0xf9, 0x7f, 0xd9,
  0x53, 0x7f, 0x30, 0x0b, 0x1a, 0xba, 0x17, 0xf9, 0xf8, 0xd1, 0xd1, 0xd9,
  0x05, 0xf1, 0x4a, 0x28, 0x1f, 0xd5, 0xd2, 0xd3, 0xe4, 0xd4, 0xcf, 0xe3,
  0xa4, 0x39, 0x16, 0xf1, 0xe7, 0x81, 0xd4, 0x16, 0x17, 0xd0, 0x2c, 0x3c,
  0xfc, 0x12, 0x03, 0x0b, 0x29, 0x2a, 0x2e, 0x7f, 0xe7, 0x1c, 0x3a, 0x16,
  0x52, 0x52, 0x01, 0x4f, 0xab, 0xb3, 0xdc, 0x18, 0x1e, 0x7f, 0x00, 0xf6,
  0x22, 0x35, 0x4e, 0x00, 0xb9, 0x26, 0x98, 0x9c, 0x4e, 0x81, 0x78, 0xd6,
  0x0d, 0x15, 0x8d, 0x08, 0x74, 0x4a, 0x8d, 0x95, 0xba, 0xfd, 0xff, 0xff,
  0x04, 0x00, 0x00, 0x00, 0x60, 0x00, 0x00, 0x00, 0xf1, 0xff, 0xff, 0xff,
  0x0a, 0x14, 0x00, 0x00, 0x69, 0x12, 0x00, 0x00, 0xe7, 0x0f, 0x00, 0x00,
  0x20, 0x18, 0x00, 0x00, 0x19, 0xf0, 0xff, 0xff, 0xed, 0x00, 0x00, 0x00,
  0x3c, 0x03, 0x00, 0x00, 0x0d, 0xfd, 0xff, 0xff, 0x13, 0x06, 0x00, 0x00,
  0xf4, 0xfe, 0xff, 0xff, 0x78, 0xef, 0xff, 0xff, 0x8b, 0x00, 0x00, 0x00,
  0x69, 0xff, 0xff, 0xff, 0x71, 0x10, 0x00, 0x00, 0xfe, 0x11, 0x00, 0x00,
  0x28, 0x06, 0x00, 0x00, 0x41, 0xf7, 0xff, 0xff, 0x32, 0x01, 0x00, 0x00,
  0x7c, 0xf8, 0xff, 0xff, 0xa8, 0x15, 0x00, 0x00, 0xae, 0xf0, 0xff, 0xff,
  0x1c, 0xef, 0xff, 0xff, 0x6f, 0x0b, 0x00, 0x00, 0x26, 0xfe, 0xff, 0xff,
  0x04, 0x00, 0x00, 0x00, 0xf0, 0x00, 0x00, 0x00, 0xcf, 0x09, 0xa2, 0x23,
  0x56, 0x81, 0x56, 0xb3, 0x52, 0xe8, 0x06, 0xf1, 0xfd, 0xdc, 0x40, 0xa0,
  0xf3, 0xaf, 0x3d, 0xe6, 0x4f, 0xb7, 0x29, 0xe9, 0xbe, 0xb2, 0x0d, 0xe1,
  0x10, 0x54, 0xc2, 0x05, 0x76, 0x89, 0xed, 0xbe, 0x91, 0x61, 0x0a, 0x48,
  0xa2, 0x67, 0x6e, 0x2d, 0x95, 0x43, 0xc9, 0x81, 0x2a, 0x38, 0xf4, 0xf4,
  0xde, 0xf7, 0xf4, 0x62, 0xc5, 0xfc, 0x7e, 0xdf, 0x5c, 0xec, 0x18, 0x10,
  0xf3, 0x03, 0x81, 0x8c, 0xfb, 0x5c, 0x37, 0x9d, 0x6d, 0xe3, 0xc5, 0x1e,
  0xbd, 0x7f, 0xe2, 0x2f, 0x86, 0x29, 0xdf, 0x34, 0xf2, 0x21, 0x84, 0xa6,
  0xd4, 0xfc, 0xac, 0xa7, 0xdd, 0x4f, 0x34, 0x3b, 0x03, 0x33, 0x14, 0x36,
  0x51, 0xe2, 0xd0, 0x0e, 0xd9, 0xb0, 0xfa, 0x81, 0xe4, 0x0c, 0x46, 0x24,
  0xf1, 0x06, 0xe7, 0xf0, 0x27, 0xf1, 0xbb, 0xe5, 0x22, 0xe3, 0x1c, 0xe1,
  0x85, 0x04, 0x00, 0xdb, 0x2a, 0x04, 0x01, 0x64, 0xf9, 0x81, 0x99, 0xf3,
  0x23, 0x11, 0x1f, 0x34, 0x2e, 0x03, 0x54, 0xec, 0xba, 0x8f, 0x44, 0x8b,
  0x13, 0x81, 0xbd, 0x5d, 0x32, 0x30, 0x6c, 0xa6, 0x5c, 0x88, 0x5d, 0xf8,
  0xb6, 0xee, 0x6c, 0x3f, 0xe2, 0xb3, 0x22, 0xc1, 0xf8, 0x60, 0xfa, 0x65,
  0xe9, 0x2f, 0xad, 0xb4, 0x21, 0x95, 0xaf, 0x2b, 0x81, 0x02, 0x0a, 0xe7,
  0x73, 0x59, 0xe7, 0xe1, 0xaf, 0x31, 0xd3, 0xd2, 0x27, 0xbb, 0x14, 0x97,
  0xce, 0xe9, 0x42, 0xbd, 0xe9, 0x6e, 0x96, 0x0c, 0x1b, 0x01, 0x1d, 0x24,
  0xab, 0xdd, 0xef, 0x26, 0x13, 0x81, 0x0e, 0x6f, 0x88, 0x47, 0x44, 0x1b,
  0x17, 0x1f, 0xbe, 0xdc, 0xa4, 0x6f, 0xc3, 0xd3, 0x9c, 0x43, 0x16, 0x1a,
  0x40, 0xf3, 0xb3, 0xec, 0x07, 0x81, 0x8c, 0x63, 0x22, 0xff, 0xff, 0xff,
  0x04, 0x00, 0x00, 0x00, 0x28, 0x00, 0x00, 0x00, 0x12, 0x01, 0x00, 0x00,
  0xb4, 0xfc, 0xff, 0xff, 0x1d, 0xfa, 0xff, 0xff, 0x31, 0xfc, 0xff, 0xff,
  0x4a, 0x03, 0x00, 0x00, 0xe5, 0x00, 0x00, 0x00, 0x7f, 0xfd, 0xff, 0xff,
  0xd4, 0xfe, 0xff, 0xff, 0xa7, 0x02, 0x00, 0x00, 0xb7, 0x05, 0x00, 0x00,
  0x56, 0xff, 0xff, 0xff, 0x04, 0x00, 0x00, 0x00, 0x08, 0x00, 0x00, 0x00,
  0x01, 0x00, 0x00, 0x00, 0x02, 0x00, 0x00, 0x00, 0x4c, 0xea, 0xff, 0xff,
  0x50, 0xea, 0xff, 0xff, 0x0f, 0x00, 0x00, 0x00, 0x4d, 0x4c, 0x49, 0x52,
  0x20, 0x43, 0x6f, 0x6e, 0x76, 0x65, 0x72, 0x74, 0x65, 0x64, 0x2e, 0x00,
  0x01, 0x00, 0x00, 0x00, 0x14, 0x00, 0x00, 0x00, 0x00, 0x00, 0x0e, 0x00,
  0x18, 0x00, 0x14, 0x00, 0x10, 0x00, 0x0c, 0x00, 0x08, 0x00, 0x04, 0x00,
  0x0e, 0x00, 0x00, 0x00, 0x14, 0x00, 0x00, 0x00, 0x1c, 0x00, 0x00, 0x00,
  0x50, 0x02, 0x00, 0x00, 0x54, 0x02, 0x00, 0x00, 0x58, 0x02, 0x00, 0x00,
  0x04, 0x00, 0x00, 0x00, 0x6d, 0x61, 0x69, 0x6e, 0x00, 0x00, 0x00, 0x00,
  0x08, 0x00, 0x00, 0x00, 0xec, 0x01, 0x00, 0x00, 0x84, 0x01, 0x00, 0x00,
  0x34, 0x01, 0x00, 0x00, 0xec, 0x00, 0x00, 0x00, 0xac, 0x00, 0x00, 0x00,
  0x78, 0x00, 0x00, 0x00, 0x40, 0x00, 0x00, 0x00, 0x04, 0x00, 0x00, 0x00,
  0xa6, 0xfe, 0xff, 0xff, 0x1c, 0x00, 0x00, 0x00, 0x00, 0x00, 0x00, 0x09,
  0x1c, 0x00, 0x00, 0x00, 0x20, 0x00, 0x00, 0x00, 0x04, 0x00, 0x00, 0x00,
  0x00, 0x00, 0x06, 0x00, 0x08, 0x00, 0x04, 0x00, 0x06, 0x00, 0x00, 0x00,
  0x00, 0x00, 0x80, 0x3f, 0x01, 0x00, 0x00, 0x00, 0x15, 0x00, 0x00, 0x00,
  0x01, 0x00, 0x00, 0x00, 0x14, 0x00, 0x00, 0x00, 0xde, 0xfe, 0xff, 0xff,
  0x14, 0x00, 0x00, 0x00, 0x00, 0x00, 0x00, 0x08, 0x10, 0x00, 0x00, 0x00,
  0x14, 0x00, 0x00, 0x00, 0x03, 0x00, 0x00, 0x00, 0x18, 0xeb, 0xff, 0xff,
  0x01, 0x00, 0x00, 0x00, 0x14, 0x00, 0x00, 0x00, 0x03, 0x00, 0x00, 0x00,
  0x13, 0x00, 0x00, 0x00, 0x03, 0x00, 0x00, 0x00, 0x02, 0x00, 0x00, 0x00,
  0x12, 0xff, 0xff, 0xff, 0x14, 0x00, 0x00, 0x00, 0x00, 0x00, 0x00, 0x1b,
  0x10, 0x00, 0x00, 0x00, 0x14, 0x00, 0x00, 0x00, 0x02, 0x00, 0x00, 0x00,
  0x4c, 0xeb, 0xff, 0xff, 0x01, 0x00, 0x00, 0x00, 0x13, 0x00, 0x00, 0x00,
  0x02, 0x00, 0x00, 0x00, 0x12, 0x00, 0x00, 0x00, 0x01, 0x00, 0x00, 0x00,
  0xde, 0xfe, 0xff, 0xff, 0x10, 0x00, 0x00, 0x00, 0x00, 0x00, 0x00, 0x01,
  0x18, 0x00, 0x00, 0x00, 0x1c, 0x00, 0x00, 0x00, 0xd0, 0xfe, 0xff, 0xff,
  0x00, 0x00, 0x00, 0x01, 0x01, 0x00, 0x00, 0x00, 0x01, 0x00, 0x00, 0x00,
  0x01, 0x00, 0x00, 0x00, 0x12, 0x00, 0x00, 0x00, 0x03, 0x00, 0x00, 0x00,
  0x11, 0x00, 0x00, 0x00, 0x05, 0x00, 0x00, 0x00, 0x04, 0x00, 0x00, 0x00,
  0x7e, 0xff, 0xff, 0xff, 0x14, 0x00, 0x00, 0x00, 0x00, 0x00, 0x00, 0x02,
  0x20, 0x00, 0x00, 0x00, 0x24, 0x00, 0x00, 0x00, 0x01, 0x00, 0x00, 0x00,
  0x6e, 0xff, 0xff, 0xff, 0x00, 0x00, 0x00, 0x01, 0x01, 0x00, 0x00, 0x00,
  0x02, 0x00, 0x00, 0x00, 0x02, 0x00, 0x00, 0x00, 0x01, 0x00, 0x00, 0x00,
  0x11, 0x00, 0x00, 0x00, 0x03, 0x00, 0x00, 0x00, 0x10, 0x00, 0x00, 0x00,
  0x07, 0x00, 0x00, 0x00, 0x06, 0x00, 0x00, 0x00, 0x5e, 0xff, 0xff, 0xff,
  0x10, 0x00, 0x00, 0x00, 0x00, 0x00, 0x00, 0x01, 0x18, 0x00, 0x00, 0x00,
  0x1c, 0x00, 0x00, 0x00, 0x50, 0xff, 0xff, 0xff, 0x00, 0x00, 0x00, 0x01,
  0x01, 0x00, 0x00, 0x00, 0x01, 0x00, 0x00, 0x00, 0x01, 0x00, 0x00, 0x00,
  0x10, 0x00, 0x00, 0x00, 0x03, 0x00, 0x00, 0x00, 0x0f, 0x00, 0x00, 0x00,
  0x09, 0x00, 0x00, 0x00, 0x08, 0x00, 0x00, 0x00, 0x00, 0x00, 0x0e, 0x00,
  0x1a, 0x00, 0x14, 0x00, 0x10, 0x00, 0x0c, 0x00, 0x0b, 0x00, 0x04, 0x00,
  0x0e, 0x00, 0x00, 0x00, 0x24, 0x00, 0x00, 0x00, 0x00, 0x00, 0x00, 0x02,
  0x30, 0x00, 0x00, 0x00, 0x34, 0x00, 0x00, 0x00, 0x01, 0x00, 0x00, 0x00,
  0x00, 0x00, 0x0e, 0x00, 0x14, 0x00, 0x00, 0x00, 0x10, 0x00, 0x0c, 0x00,
  0x08, 0x00, 0x07, 0x00, 0x0e, 0x00, 0x00, 0x00, 0x00, 0x00, 0x00, 0x01,
  0x01, 0x00, 0x00, 0x00, 0x01, 0x00, 0x00, 0x00, 0x01, 0x00, 0x00, 0x00,
  0x01, 0x00, 0x00, 0x00, 0x0f, 0x00, 0x00, 0x00, 0x03, 0x00, 0x00, 0x00,
  0x0e, 0x00, 0x00, 0x00, 0x0b, 0x00, 0x00, 0x00, 0x0a, 0x00, 0x00, 0x00,
  0x00, 0x00, 0x0e, 0x00, 0x14, 0x00, 0x00, 0x00, 0x10, 0x00, 0x0c, 0x00,
  0x0b, 0x00, 0x04, 0x00, 0x0e, 0x00, 0x00, 0x00, 0x1c, 0x00, 0x00, 0x00,
  0x00, 0x00, 0x00, 0x01, 0x24, 0x00, 0x00, 0x00, 0x28, 0x00, 0x00, 0x00,
  0x0c, 0x00, 0x10, 0x00, 0x00, 0x00, 0x0c, 0x00, 0x08, 0x00, 0x07, 0x00,
  0x0c, 0x00, 0x00, 0x00, 0x00, 0x00, 0x00, 0x01, 0x02, 0x00, 0x00, 0x00,
  0x02, 0x00, 0x00, 0x00, 0x01, 0x00, 0x00, 0x00, 0x0e, 0x00, 0x00, 0x00,
  0x03, 0x00, 0x00, 0x00, 0x00, 0x00, 0x00, 0x00, 0x0d, 0x00, 0x00, 0x00,
  0x0c, 0x00, 0x00, 0x00, 0x01, 0x00, 0x00, 0x00, 0x15, 0x00, 0x00, 0x00,
  0x01, 0x00, 0x00, 0x00, 0x00, 0x00, 0x00, 0x00, 0x16, 0x00, 0x00, 0x00,
  0x4c, 0x13, 0x00, 0x00, 0xf0, 0x12, 0x00, 0x00, 0x08, 0x12, 0x00, 0x00,
  0x34, 0x11, 0x00, 0x00, 0xc0, 0x0f, 0x00, 0x00, 0x3c, 0x0e, 0x00, 0x00,
  0x28, 0x0d, 0x00, 0x00, 0xec, 0x0b, 0x00, 0x00, 0xd8, 0x0a, 0x00, 0x00,
  0xb4, 0x09, 0x00, 0x00, 0xd0, 0x08, 0x00, 0x00, 0xd8, 0x07, 0x00, 0x00,
  0xf0, 0x06, 0x00, 0x00, 0xfc, 0x05, 0x00, 0x00, 0x28, 0x05, 0x00, 0x00,
  0x44, 0x04, 0x00, 0x00, 0x68, 0x03, 0x00, 0x00, 0x84, 0x02, 0x00, 0x00,
  0xa8, 0x01, 0x00, 0x00, 0x1c, 0x01, 0x00, 0x00, 0x80, 0x00, 0x00, 0x00,
  0x04, 0x00, 0x00, 0x00, 0x22, 0xed, 0xff, 0xff, 0x00, 0x00, 0x00, 0x01,
  0x18, 0x00, 0x00, 0x00, 0x20, 0x00, 0x00, 0x00, 0x3c, 0x00, 0x00, 0x00,
  0x16, 0x00, 0x00, 0x00, 0x00, 0x00, 0x00, 0x09, 0x50, 0x00, 0x00, 0x00,
  0x02, 0x00, 0x00, 0x00, 0xff, 0xff, 0xff, 0xff, 0x0a, 0x00, 0x00, 0x00,
  0x04, 0xed, 0xff, 0xff, 0x08, 0x00, 0x00, 0x00, 0x10, 0x00, 0x00, 0x00,
  0x01, 0x00, 0x00, 0x00, 0x80, 0xff, 0xff, 0xff, 0xff, 0xff, 0xff, 0xff,
  0x01, 0x00, 0x00, 0x00, 0x00, 0x00, 0x80, 0x3b, 0x19, 0x00, 0x00, 0x00,
  0x53, 0x74, 0x61, 0x74, 0x65, 0x66, 0x75, 0x6c, 0x50, 0x61, 0x72, 0x74,
  0x69, 0x74, 0x69, 0x6f, 0x6e, 0x65, 0x64, 0x43, 0x61, 0x6c, 0x6c, 0x3a,
  0x30, 0x00, 0x00, 0x00, 0x02, 0x00, 0x00, 0x00, 0x01, 0x00, 0x00, 0x00,
  0x0a, 0x00, 0x00, 0x00, 0x9a, 0xed, 0xff, 0xff, 0x00, 0x00, 0x00, 0x01,
  0x18, 0x00, 0x00, 0x00, 0x20, 0x00, 0x00, 0x00, 0x40, 0x00, 0x00, 0x00,
  0x15, 0x00, 0x00, 0x00, 0x00, 0x00, 0x00, 0x09, 0x70, 0x00, 0x00, 0x00,
  0x02, 0x00, 0x00, 0x00, 0xff, 0xff, 0xff, 0xff, 0x0a, 0x00, 0x00, 0x00,
  0x7c, 0xed, 0xff, 0xff, 0x08, 0x00, 0x00, 0x00, 0x14, 0x00, 0x00, 0x00,
  0x01, 0x00, 0x00, 0x00, 0x21, 0x00, 0x00, 0x00, 0x00, 0x00, 0x00, 0x00,
  0x00, 0x00, 0x00, 0x00, 0x01, 0x00, 0x00, 0x00, 0x9c, 0xe3, 0xce, 0x3d,
  0x34, 0x00, 0x00, 0x00, 0x74, 0x69, 0x6e, 0x79, 0x5f, 0x64, 0x73, 0x63,
  0x6e, 0x6e, 0x2f, 0x64, 0x65, 0x6e, 0x73, 0x65, 0x5f, 0x31, 0x2f, 0x4d,
  0x61, 0x74, 0x4d, 0x75, 0x6c, 0x3b, 0x74, 0x69, 0x6e, 0x79, 0x5f, 0x64,
  0x73, 0x63, 0x6e, 0x6e, 0x2f, 0x64, 0x65, 0x6e, 0x73, 0x65, 0x5f, 0x31,
  0x2f, 0x42, 0x69, 0x61, 0x73, 0x41, 0x64, 0x64, 0x00, 0x00, 0x00, 0x00,
  0x02, 0x00, 0x00, 0x00, 0x01, 0x00, 0x00, 0x00, 0x0a, 0x00, 0x00, 0x00,
  0x32, 0xee, 0xff, 0xff, 0x00, 0x00, 0x00, 0x01, 0x18, 0x00, 0x00, 0x00,
  0x20, 0x00, 0x00, 0x00, 0x3c, 0x00, 0x00, 0x00, 0x14, 0x00, 0x00, 0x00,
  0x00, 0x00, 0x00, 0x09, 0x60, 0x00, 0x00, 0x00, 0x02, 0x00, 0x00, 0x00,
  0xff, 0xff, 0xff, 0xff, 0x18, 0x00, 0x00, 0x00, 0x14, 0xee, 0xff, 0xff,
  0x08, 0x00, 0x00, 0x00, 0x10, 0x00, 0x00, 0x00, 0x01, 0x00, 0x00, 0x00,
  0x80, 0xff, 0xff, 0xff, 0xff, 0xff, 0xff, 0xff, 0x01, 0x00, 0x00, 0x00,
  0xd6, 0xd2, 0x58, 0x3c, 0x28, 0x00, 0x00, 0x00, 0x74, 0x69, 0x6e, 0x79,
  0x5f, 0x64, 0x73, 0x63, 0x6e, 0x6e, 0x2f, 0x67, 0x6c, 0x6f, 0x62, 0x61,
  0x6c, 0x5f, 0x61, 0x76, 0x65, 0x72, 0x61, 0x67, 0x65, 0x5f, 0x70, 0x6f,
  0x6f, 0x6c, 0x69, 0x6e, 0x67, 0x32, 0x64, 0x2f, 0x4d, 0x65, 0x61, 0x6e,
  0x00, 0x00, 0x00, 0x00, 0x02, 0x00, 0x00, 0x00, 0x01, 0x00, 0x00, 0x00,
  0x18, 0x00, 0x00, 0x00, 0xba, 0xee, 0xff, 0xff, 0x00, 0x00, 0x00, 0x01,
  0x18, 0x00, 0x00, 0x00, 0x28, 0x00, 0x00, 0x00, 0x48, 0x00, 0x00, 0x00,
  0x13, 0x00, 0x00, 0x00, 0x00, 0x00, 0x00, 0x09, 0xa8, 0x00, 0x00, 0x00,
  0x04, 0x00, 0x00, 0x00, 0xff, 0xff, 0xff, 0xff, 0x07, 0x00, 0x00, 0x00,
  0x07, 0x00, 0x00, 0x00, 0x18, 0x00, 0x00, 0x00, 0xa4, 0xee, 0xff, 0xff,
  0x08, 0x00, 0x00, 0x00, 0x14, 0x00, 0x00, 0x00, 0x01, 0x00, 0x00, 0x00,
  0x80, 0xff, 0xff, 0xff, 0xff, 0xff, 0xff, 0xff, 0x00, 0x00, 0x00, 0x00,
  0x01, 0x00, 0x00, 0x00, 0x67, 0xcf, 0xd5, 0x3d, 0x64, 0x00, 0x00, 0x00,
  0x74, 0x69, 0x6e, 0x79, 0x5f, 0x64, 0x73, 0x63, 0x6e, 0x6e, 0x2f, 0x72,
  0x65, 0x5f, 0x6c, 0x75, 0x5f, 0x34, 0x2f, 0x52, 0x65, 0x6c, 0x75, 0x3b,
  0x74, 0x69, 0x6e, 0x79, 0x5f, 0x64, 0x73, 0x63, 0x6e, 0x6e, 0x2f, 0x62,
  0x61, 0x74, 0x63, 0x68, 0x5f, 0x6e, 0x6f, 0x72, 0x6d, 0x61, 0x6c, 0x69,
  0x7a, 0x61, 0x74, 0x69, 0x6f, 0x6e, 0x5f, 0x34, 0x2f, 0x46, 0x75, 0x73,
  0x65, 0x64, 0x42, 0x61, 0x74, 0x63, 0x68, 0x4e, 0x6f, 0x72, 0x6d, 0x56,
  0x33, 0x3b, 0x74, 0x69, 0x6e, 0x79, 0x5f, 0x64, 0x73, 0x63, 0x6e, 0x6e,
  0x2f, 0x63, 0x6f, 0x6e, 0x76, 0x32, 0x64, 0x5f, 0x34, 0x2f, 0x43, 0x6f,
  0x6e, 0x76, 0x32, 0x44, 0x00, 0x00, 0x00, 0x00, 0x04, 0x00, 0x00, 0x00,
  0x01, 0x00, 0x00, 0x00, 0x07, 0x00, 0x00, 0x00, 0x07, 0x00, 0x00, 0x00,
  0x18, 0x00, 0x00, 0x00, 0x92, 0xef, 0xff, 0xff, 0x00, 0x00, 0x00, 0x01,
  0x18, 0x00, 0x00, 0x00, 0x28, 0x00, 0x00, 0x00, 0x44, 0x00, 0x00, 0x00,
  0x12, 0x00, 0x00, 0x00, 0x00, 0x00, 0x00, 0x09, 0xb0, 0x00, 0x00, 0x00,
  0x04, 0x00, 0x00, 0x00, 0xff, 0xff, 0xff, 0xff, 0x07, 0x00, 0x00, 0x00,
  0x07, 0x00, 0x00, 0x00, 0x10, 0x00, 0x00, 0x00, 0x7c, 0xef, 0xff, 0xff,
  0x08, 0x00, 0x00, 0x00, 0x10, 0x00, 0x00, 0x00, 0x01, 0x00, 0x00, 0x00,
  0x80, 0xff, 0xff, 0xff, 0xff, 0xff, 0xff, 0xff, 0x01, 0x00, 0x00, 0x00,
  0xed, 0x0e, 0x00, 0x3d, 0x71, 0x00, 0x00, 0x00, 0x74, 0x69, 0x6e, 0x79,
  0x5f, 0x64, 0x73, 0x63, 0x6e, 0x6e, 0x2f, 0x72, 0x65, 0x5f, 0x6c, 0x75,
  0x5f, 0x33, 0x2f, 0x52, 0x65, 0x6c, 0x75, 0x3b, 0x74, 0x69, 0x6e, 0x79,
  0x5f, 0x64, 0x73, 0x63, 0x6e, 0x6e, 0x2f, 0x62, 0x61, 0x74, 0x63, 0x68,
  0x5f, 0x6e, 0x6f, 0x72, 0x6d, 0x61, 0x6c, 0x69, 0x7a, 0x61, 0x74, 0x69,
  0x6f, 0x6e, 0x5f, 0x33, 0x2f, 0x46, 0x75, 0x73, 0x65, 0x64, 0x42, 0x61,
  0x74, 0x63, 0x68, 0x4e, 0x6f, 0x72, 0x6d, 0x56, 0x33, 0x3b, 0x74, 0x69,
  0x6e, 0x79, 0x5f, 0x64, 0x73, 0x63, 0x6e, 0x6e, 0x2f, 0x64, 0x65, 0x70,
  0x74, 0x68, 0x77, 0x69, 0x73, 0x65, 0x5f, 0x63, 0x6f, 0x6e, 0x76, 0x32,
  0x64, 0x5f, 0x31, 0x2f, 0x64, 0x65, 0x70, 0x74, 0x68, 0x77, 0x69, 0x73,
  0x65, 0x00, 0x00, 0x00, 0x04, 0x00, 0x00, 0x00, 0x01, 0x00, 0x00, 0x00,
  0x07, 0x00, 0x00, 0x00, 0x07, 0x00, 0x00, 0x00, 0x10, 0x00, 0x00, 0x00,
  0x72, 0xf0, 0xff, 0xff, 0x00, 0x00, 0x00, 0x01, 0x18, 0x00, 0x00, 0x00,
  0x28, 0x00, 0x00, 0x00, 0x48, 0x00, 0x00, 0x00, 0x11, 0x00, 0x00, 0x00,
  0x00, 0x00, 0x00, 0x09, 0xa8, 0x00, 0x00, 0x00, 0x04, 0x00, 0x00, 0x00,
  0xff, 0xff, 0xff, 0xff, 0x0e, 0x00, 0x00, 0x00, 0x0e, 0x00, 0x00, 0x00,
  0x10, 0x00, 0x00, 0x00, 0x5c, 0xf0, 0xff, 0xff, 0x08, 0x00, 0x00, 0x00,
  0x14, 0x00, 0x00, 0x00, 0x01, 0x00, 0x00, 0x00, 0x80, 0xff, 0xff, 0xff,
  0xff, 0xff, 0xff, 0xff, 0x00, 0x00, 0x00, 0x00, 0x01, 0x00, 0x00, 0x00,
  0xeb, 0x53, 0x8c, 0x3c, 0x64, 0x00, 0x00, 0x00, 0x74, 0x69, 0x6e, 0x79,
  0x5f, 0x64, 0x73, 0x63, 0x6e, 0x6e, 0x2f, 0x72, 0x65, 0x5f, 0x6c, 0x75,
  0x5f, 0x32, 0x2f, 0x52, 0x65, 0x6c, 0x75, 0x3b, 0x74, 0x69, 0x6e, 0x79,
  0x5f, 0x64, 0x73, 0x63, 0x6e, 0x6e, 0x2f, 0x62, 0x61, 0x74, 0x63, 0x68,
  0x5f, 0x6e, 0x6f, 0x72, 0x6d, 0x61, 0x6c, 0x69, 0x7a, 0x61, 0x74, 0x69,
  0x6f, 0x6e, 0x5f, 0x32, 0x2f, 0x46, 0x75, 0x73, 0x65, 0x64, 0x42, 0x61,
  0x74, 0x63, 0x68, 0x4e, 0x6f, 0x72, 0x6d, 0x56, 0x33, 0x3b, 0x74, 0x69,
  0x6e, 0x79, 0x5f, 0x64, 0x73, 0x63, 0x6e, 0x6e, 0x2f, 0x63, 0x6f, 0x6e,
  0x76, 0x32, 0x64, 0x5f, 0x33, 0x2f, 0x43, 0x6f, 0x6e, 0x76, 0x32, 0x44,
  0x00, 0x00, 0x00, 0x00, 0x04, 0x00, 0x00, 0x00, 0x01, 0x00, 0x00, 0x00,
  0x0e, 0x00, 0x00, 0x00, 0x0e, 0x00, 0x00, 0x00, 0x10, 0x00, 0x00, 0x00,
  0x4a, 0xf1, 0xff, 0xff, 0x00, 0x00, 0x00, 0x01, 0x18, 0x00, 0x00, 0x00,
  0x28, 0x00, 0x00, 0x00, 0x48, 0x00, 0x00, 0x00, 0x10, 0x00, 0x00, 0x00,
  0x00, 0x00, 0x00, 0x09, 0xb0, 0x00, 0x00, 0x00, 0x04, 0x00, 0x00, 0x00,
  0xff, 0xff, 0xff, 0xff, 0x0e, 0x00, 0x00, 0x00, 0x0e, 0x00, 0x00, 0x00,
  0x0c, 0x00, 0x00, 0x00, 0x34, 0xf1, 0xff, 0xff, 0x08, 0x00, 0x00, 0x00,
  0x14, 0x00, 0x00, 0x00, 0x01, 0x00, 0x00, 0x00, 0x80, 0xff, 0xff, 0xff,
  0xff, 0xff, 0xff, 0xff, 0x00, 0x00, 0x00, 0x00, 0x01, 0x00, 0x00, 0x00,
  0x22, 0x80, 0xab, 0x3c, 0x6f, 0x00, 0x00, 0x00, 0x74, 0x69, 0x6e, 0x79,
  0x5f, 0x64, 0x73, 0x63, 0x6e, 0x6e, 0x2f, 0x72, 0x65, 0x5f, 0x6c, 0x75,
  0x5f, 0x31, 0x2f, 0x52, 0x65, 0x6c, 0x75, 0x3b, 0x74, 0x69, 0x6e, 0x79,
  0x5f, 0x64, 0x73, 0x63, 0x6e, 0x6e, 0x2f, 0x62, 0x61, 0x74, 0x63, 0x68,
  0x5f, 0x6e, 0x6f, 0x72, 0x6d, 0x61, 0x6c, 0x69, 0x7a, 0x61, 0x74, 0x69,
  0x6f, 0x6e, 0x5f, 0x31, 0x2f, 0x46, 0x75, 0x73, 0x65, 0x64, 0x42, 0x61,
  0x74, 0x63, 0x68, 0x4e, 0x6f, 0x72, 0x6d, 0x56, 0x33, 0x3b, 0x74, 0x69,
  0x6e, 0x79, 0x5f, 0x64, 0x73, 0x63, 0x6e, 0x6e, 0x2f, 0x64, 0x65, 0x70,
  0x74, 0x68, 0x77, 0x69, 0x73, 0x65, 0x5f, 0x63, 0x6f, 0x6e, 0x76, 0x32,
  0x64, 0x2f, 0x64, 0x65, 0x70, 0x74, 0x68, 0x77, 0x69, 0x73, 0x65, 0x00,
  0x04, 0x00, 0x00, 0x00, 0x01, 0x00, 0x00, 0x00, 0x0e, 0x00, 0x00, 0x00,
  0x0e, 0x00, 0x00, 0x00, 0x0c, 0x00, 0x00, 0x00, 0x2a, 0xf2, 0xff, 0xff,
  0x00, 0x00, 0x00, 0x01, 0x18, 0x00, 0x00, 0x00, 0x28, 0x00, 0x00, 0x00,
  0x44, 0x00, 0x00, 0x00, 0x0f, 0x00, 0x00, 0x00, 0x00, 0x00, 0x00, 0x09,
  0xa0, 0x00, 0x00, 0x00, 0x04, 0x00, 0x00, 0x00, 0xff, 0xff, 0xff, 0xff,
  0x0e, 0x00, 0x00, 0x00, 0x0e, 0x00, 0x00, 0x00, 0x0c, 0x00, 0x00, 0x00,
  0x14, 0xf2, 0xff, 0xff, 0x08, 0x00, 0x00, 0x00, 0x10, 0x00, 0x00, 0x00,
  0x01, 0x00, 0x00, 0x00, 0x80, 0xff, 0xff, 0xff, 0xff, 0xff, 0xff, 0xff,
  0x01, 0x00, 0x00, 0x00, 0xf7, 0x32, 0x7f, 0x3c, 0x61, 0x00, 0x00, 0x00,
  0x74, 0x69, 0x6e, 0x79, 0x5f, 0x64, 0x73, 0x63, 0x6e, 0x6e, 0x2f, 0x72,
  0x65, 0x5f, 0x6c, 0x75, 0x2f, 0x52, 0x65, 0x6c, 0x75, 0x3b, 0x74, 0x69,
  0x6e, 0x79, 0x5f, 0x64, 0x73, 0x63, 0x6e, 0x6e, 0x2f, 0x62, 0x61, 0x74,
  0x63, 0x68, 0x5f, 0x6e, 0x6f, 0x72, 0x6d, 0x61, 0x6c, 0x69, 0x7a, 0x61,
  0x74, 0x69, 0x6f, 0x6e, 0x2f, 0x46, 0x75, 0x73, 0x65, 0x64, 0x42, 0x61,
  0x74, 0x63, 0x68, 0x4e, 0x6f, 0x72, 0x6d, 0x56, 0x33, 0x3b, 0x74, 0x69,
  0x6e, 0x79, 0x5f, 0x64, 0x73, 0x63, 0x6e, 0x6e, 0x2f, 0x63, 0x6f, 0x6e,
  0x76, 0x32, 0x64, 0x5f, 0x32, 0x2f, 0x43, 0x6f, 0x6e, 0x76, 0x32, 0x44,
  0x31, 0x00, 0x00, 0x00, 0x04, 0x00, 0x00, 0x00, 0x01, 0x00, 0x00, 0x00,
  0x0e, 0x00, 0x00, 0x00, 0x0e, 0x00, 0x00, 0x00, 0x0c, 0x00, 0x00, 0x00,
  0x52, 0xf3, 0xff, 0xff, 0x00, 0x00, 0x00, 0x01, 0x14, 0x00, 0x00, 0x00,
  0xb8, 0x00, 0x00, 0x00, 0x0e, 0x00, 0x00, 0x00, 0x00, 0x00, 0x00, 0x09,
  0xc4, 0x00, 0x00, 0x00, 0xcc, 0xf2, 0xff, 0xff, 0x08, 0x00, 0x00, 0x00,
  0x6c, 0x00, 0x00, 0x00, 0x0c, 0x00, 0x00, 0x00, 0x00, 0x00, 0x00, 0x00,
  0x00, 0x00, 0x00, 0x00, 0x00, 0x00, 0x00, 0x00, 0x00, 0x00, 0x00, 0x00,
  0x00, 0x00, 0x00, 0x00, 0x00, 0x00, 0x00, 0x00, 0x00, 0x00, 0x00, 0x00,
  0x00, 0x00, 0x00, 0x00, 0x00, 0x00, 0x00, 0x00, 0x00, 0x00, 0x00, 0x00,
  0x00, 0x00, 0x00, 0x00, 0x00, 0x00, 0x00, 0x00, 0x00, 0x00, 0x00, 0x00,
  0x00, 0x00, 0x00, 0x00, 0x00, 0x00, 0x00, 0x00, 0x00, 0x00, 0x00, 0x00,
  0x00, 0x00, 0x00, 0x00, 0x00, 0x00, 0x00, 0x00, 0x00, 0x00, 0x00, 0x00,
  0x00, 0x00, 0x00, 0x00, 0x00, 0x00, 0x00, 0x00, 0x00, 0x00, 0x00, 0x00,
  0x00, 0x00, 0x00, 0x00, 0x00, 0x00, 0x00, 0x00, 0x00, 0x00, 0x00, 0x00,
  0x0c, 0x00, 0x00, 0x00, 0x15, 0x8a, 0x8b, 0x3b, 0x67, 0x38, 0xdd, 0x3b,
  0xde, 0x67, 0xbb, 0x3b, 0x12, 0x92, 0xe4, 0x3b, 0xdb, 0x3b, 0x42, 0x3c,
  0x2f, 0x42, 0xcf, 0x3b, 0x73, 0x5b, 0x50, 0x3c, 0xa5, 0xf7, 0x27, 0x3c,
  0x7a, 0x61, 0xaf, 0x3b, 0x7e, 0xeb, 0x26, 0x3c, 0x15, 0x20, 0x7c, 0x3c,
  0x5c, 0x37, 0x8f, 0x3b, 0x13, 0x00, 0x00, 0x00, 0x74, 0x66, 0x6c, 0x2e,
  0x70, 0x73, 0x65, 0x75, 0x64, 0x6f, 0x5f, 0x71, 0x63, 0x6f, 0x6e, 0x73,
  0x74, 0x31, 0x31, 0x00, 0x04, 0x00, 0x00, 0x00, 0x0c, 0x00, 0x00, 0x00,
  0x03, 0x00, 0x00, 0x00, 0x03, 0x00, 0x00, 0x00, 0x01, 0x00, 0x00, 0x00,
  0x42, 0xf4, 0xff, 0xff, 0x00, 0x00, 0x00, 0x01, 0x14, 0x00, 0x00, 0x00,
  0xb8, 0x00, 0x00, 0x00, 0x0d, 0x00, 0x00, 0x00, 0x00, 0x00, 0x00, 0x02,
  0xc4, 0x00, 0x00, 0x00, 0xbc, 0xf3, 0xff, 0xff, 0x08, 0x00, 0x00, 0x00,
  0x6c, 0x00, 0x00, 0x00, 0x0c, 0x00, 0x00, 0x00, 0x00, 0x00, 0x00, 0x00,
  0x00, 0x00, 0x00, 0x00, 0x00, 0x00, 0x00, 0x00, 0x00, 0x00, 0x00, 0x00,
  0x00, 0x00, 0x00, 0x00, 0x00, 0x00, 0x00, 0x00, 0x00, 0x00, 0x00, 0x00,
  0x00, 0x00, 0x00, 0x00, 0x00, 0x00, 0x00, 0x00, 0x00, 0x00, 0x00, 0x00,
  0x00, 0x00, 0x00, 0x00, 0x00, 0x00, 0x00, 0x00, 0x00, 0x00, 0x00, 0x00,
  0x00, 0x00, 0x00, 0x00, 0x00, 0x00, 0x00, 0x00, 0x00, 0x00, 0x00, 0x00,
  0x00, 0x00, 0x00, 0x00, 0x00, 0x00, 0x00, 0x00, 0x00, 0x00, 0x00, 0x00,
  0x00, 0x00, 0x00, 0x00, 0x00, 0x00, 0x00, 0x00, 0x00, 0x00, 0x00, 0x00,
  0x00, 0x00, 0x00, 0x00, 0x00, 0x00, 0x00, 0x00, 0x00, 0x00, 0x00, 0x00,
  0x0c, 0x00, 0x00, 0x00, 0x2c, 0x16, 0x8c, 0x37, 0x7e, 0x16, 0xde, 0x37,
  0x03, 0x24, 0xbc, 0x37, 0x8a, 0x77, 0xe5, 0x37, 0xdb, 0xfe, 0x42, 0x38,
  0x42, 0x12, 0xd0, 0x37, 0xa0, 0x2c, 0x51, 0x38, 0x46, 0xa0, 0x28, 0x38,
  0x8c, 0x11, 0xb0, 0x37, 0x12, 0x93, 0x27, 0x38, 0x33, 0x1d, 0x7d, 0x38,
  0x24, 0xc7, 0x8f, 0x37, 0x13, 0x00, 0x00, 0x00, 0x74, 0x66, 0x6c, 0x2e,
  0x70, 0x73, 0x65, 0x75, 0x64, 0x6f, 0x5f, 0x71, 0x63, 0x6f, 0x6e, 0x73,
  0x74, 0x31, 0x30, 0x00, 0x01, 0x00, 0x00, 0x00, 0x0c, 0x00, 0x00, 0x00,
  0x26, 0xf5, 0xff, 0xff, 0x00, 0x00, 0x00, 0x01, 0x14, 0x00, 0x00, 0x00,
  0xbc, 0x00, 0x00, 0x00, 0x0c, 0x00, 0x00, 0x00, 0x00, 0x00, 0x00, 0x09,
  0xc8, 0x00, 0x00, 0x00, 0xfa, 0xfb, 0xff, 0xff, 0x03, 0x00, 0x00, 0x00,
  0x08, 0x00, 0x00, 0x00, 0x6c, 0x00, 0x00, 0x00, 0x0c, 0x00, 0x00, 0x00,
  0x00, 0x00, 0x00, 0x00, 0x00, 0x00, 0x00, 0x00, 0x00, 0x00, 0x00, 0x00,
  0x00, 0x00, 0x00, 0x00, 0x00, 0x00, 0x00, 0x00, 0x00, 0x00, 0x00, 0x00,
  0x00, 0x00, 0x00, 0x00, 0x00, 0x00, 0x00, 0x00, 0x00, 0x00, 0x00, 0x00,
  0x00, 0x00, 0x00, 0x00, 0x00, 0x00, 0x00, 0x00, 0x00, 0x00, 0x00, 0x00,
  0x00, 0x00, 0x00, 0x00, 0x00, 0x00, 0x00, 0x00, 0x00, 0x00, 0x00, 0x00,
  0x00, 0x00, 0x00, 0x00, 0x00, 0x00, 0x00, 0x00, 0x00, 0x00, 0x00, 0x00,
  0x00, 0x00, 0x00, 0x00, 0x00, 0x00, 0x00, 0x00, 0x00, 0x00, 0x00, 0x00,
  0x00, 0x00, 0x00, 0x00, 0x00, 0x00, 0x00, 0x00, 0x00, 0x00, 0x00, 0x00,
  0x00, 0x00, 0x00, 0x00, 0x0c, 0x00, 0x00, 0x00, 0xbe, 0xb7, 0x40, 0x3c,
  0x90, 0x0d, 0xae, 0x3b, 0x66, 0xa3, 0x40, 0x3c, 0x73, 0xab, 0x61, 0x3c,
  0x85, 0x60, 0xdb, 0x3c, 0x3f, 0x6e, 0xe3, 0x3b, 0x83, 0xfc, 0x55, 0x3c,
  0x35, 0x05, 0xd9, 0x3b, 0x6d, 0x92, 0x4b, 0x3c, 0x4e, 0x37, 0xa5, 0x3c,
  0x4c, 0x08, 0xcb, 0x3b, 0x9e, 0xf8, 0x2d, 0x3c, 0x12, 0x00, 0x00, 0x00,
  0x74, 0x66, 0x6c, 0x2e, 0x70, 0x73, 0x65, 0x75, 0x64, 0x6f, 0x5f, 0x71,
  0x63, 0x6f, 0x6e, 0x73, 0x74, 0x39, 0x00, 0x00, 0x04, 0x00, 0x00, 0x00,
  0x01, 0x00, 0x00, 0x00, 0x03, 0x00, 0x00, 0x00, 0x03, 0x00, 0x00, 0x00,
  0x0c, 0x00, 0x00, 0x00, 0x1a, 0xf6, 0xff, 0xff, 0x00, 0x00, 0x00, 0x01,
  0x14, 0x00, 0x00, 0x00, 0xb4, 0x00, 0x00, 0x00, 0x0b, 0x00, 0x00, 0x00,
  0x00, 0x00, 0x00, 0x02, 0xc0, 0x00, 0x00, 0x00, 0x94, 0xf5, 0xff, 0xff,
  0x08, 0x00, 0x00, 0x00, 0x68, 0x00, 0x00, 0x00, 0x0c, 0x00, 0x00, 0x00,
  0x00, 0x00, 0x00, 0x00, 0x00, 0x00, 0x00, 0x00, 0x00, 0x00, 0x00, 0x00,
  0x00, 0x00, 0x00, 0x00, 0x00, 0x00, 0x00, 0x00, 0x00, 0x00, 0x00, 0x00,
  0x00, 0x00, 0x00, 0x00, 0x00, 0x00, 0x00, 0x00, 0x00, 0x00, 0x00, 0x00,
  0x00, 0x00, 0x00, 0x00, 0x00, 0x00, 0x00, 0x00, 0x00, 0x00, 0x00, 0x00,
  0x00, 0x00, 0x00, 0x00, 0x00, 0x00, 0x00, 0x00, 0x00, 0x00, 0x00, 0x00,
  0x00, 0x00, 0x00, 0x00, 0x00, 0x00, 0x00, 0x00, 0x00, 0x00, 0x00, 0x00,
  0x00, 0x00, 0x00, 0x00, 0x00, 0x00, 0x00, 0x00, 0x00, 0x00, 0x00, 0x00,
  0x00, 0x00, 0x00, 0x00, 0x00, 0x00, 0x00, 0x00, 0x00, 0x00, 0x00, 0x00,
  0x0c, 0x00, 0x00, 0x00, 0x64, 0x1d, 0x40, 0x39, 0x29, 0x82, 0xad, 0x38,
  0x1c, 0x09, 0x40, 0x39, 0xb5, 0xf6, 0x60, 0x39, 0xd1, 0xb0, 0xda, 0x39,
  0x18, 0xb8, 0xe2, 0x38, 0x20, 0x51, 0x55, 0x39, 0x64, 0x57, 0xd8, 0x38,
  0x62, 0xef, 0x4a, 0x39, 0xfb, 0xb2, 0xa4, 0x39, 0xaf, 0x65, 0xca, 0x38,
  0x48, 0x6d, 0x2d, 0x39, 0x12, 0x00, 0x00, 0x00, 0x74, 0x66, 0x6c, 0x2e,
  0x70, 0x73, 0x65, 0x75, 0x64, 0x6f, 0x5f, 0x71, 0x63, 0x6f, 0x6e, 0x73,
  0x74, 0x38, 0x00, 0x00, 0x01, 0x00, 0x00, 0x00, 0x0c, 0x00, 0x00, 0x00,
  0xfa, 0xf6, 0xff, 0xff, 0x00, 0x00, 0x00, 0x01, 0x14, 0x00, 0x00, 0x00,
  0xe8, 0x00, 0x00, 0x00, 0x0a, 0x00, 0x00, 0x00, 0x00, 0x00, 0x00, 0x09,
  0xf4, 0x00, 0x00, 0x00, 0x74, 0xf6, 0xff, 0xff, 0x08, 0x00, 0x00, 0x00,
  0x8c, 0x00, 0x00, 0x00, 0x10, 0x00, 0x00, 0x00, 0x00, 0x00, 0x00, 0x00,
  0x00, 0x00, 0x00, 0x00, 0x00, 0x00, 0x00, 0x00, 0x00, 0x00, 0x00, 0x00,
  0x00, 0x00, 0x00, 0x00, 0x00, 0x00, 0x00, 0x00, 0x00, 0x00, 0x00, 0x00,
  0x00, 0x00, 0x00, 0x00, 0x00, 0x00, 0x00, 0x00, 0x00, 0x00, 0x00, 0x00,
  0x00, 0x00, 0x00, 0x00, 0x00, 0x00, 0x00, 0x00, 0x00, 0x00, 0x00, 0x00,
  0x00, 0x00, 0x00, 0x00, 0x00, 0x00, 0x00, 0x00, 0x00, 0x00, 0x00, 0x00,
  0x00, 0x00, 0x00, 0x00, 0x00, 0x00, 0x00, 0x00, 0x00, 0x00, 0x00, 0x00,
  0x00, 0x00, 0x00, 0x00, 0x00, 0x00, 0x00, 0x00, 0x00, 0x00, 0x00, 0x00,
  0x00, 0x00, 0x00, 0x00, 0x00, 0x00, 0x00, 0x00, 0x00, 0x00, 0x00, 0x00,
  0x00, 0x00, 0x00, 0x00, 0x00, 0x00, 0x00, 0x00, 0x00, 0x00, 0x00, 0x00,
  0x00, 0x00, 0x00, 0x00, 0x00, 0x00, 0x00, 0x00, 0x00, 0x00, 0x00, 0x00,
  0x00, 0x00, 0x00, 0x00, 0x00, 0x00, 0x00, 0x00, 0x10, 0x00, 0x00, 0x00,
  0x12, 0xad, 0xad, 0x3b, 0xd3, 0x0b, 0xfd, 0x3b, 0xe0, 0xa8, 0x29, 0x3c,
  0x4c, 0xf4, 0xbb, 0x3b, 0x4f, 0x99, 0x1a, 0x3c, 0xd4, 0x35, 0xd0, 0x3b,
  0x26, 0x56, 0x0d, 0x3c, 0x5d, 0x65, 0x17, 0x3c, 0xf0, 0xa8, 0xc6, 0x3b,
  0xa9, 0xe0, 0xd8, 0x3b, 0x48, 0x68, 0xd1, 0x3b, 0x32, 0xbc, 0x96, 0x3b,
  0x4c, 0xf7, 0x99, 0x3b, 0xbc, 0x8a, 0xee, 0x3b, 0x26, 0x25, 0x62, 0x3c,
  0xda, 0x7d, 0x96, 0x3b, 0x12, 0x00, 0x00, 0x00, 0x74, 0x66, 0x6c, 0x2e,
  0x70, 0x73, 0x65, 0x75, 0x64, 0x6f, 0x5f, 0x71, 0x63, 0x6f, 0x6e, 0x73,
  0x74, 0x37, 0x00, 0x00, 0x04, 0x00, 0x00, 0x00, 0x10, 0x00, 0x00, 0x00,
  0x01, 0x00, 0x00, 0x00, 0x01, 0x00, 0x00, 0x00, 0x0c, 0x00, 0x00, 0x00,
  0x1a, 0xf8, 0xff, 0xff, 0x00, 0x00, 0x00, 0x01, 0x14, 0x00, 0x00, 0x00,
  0xe4, 0x00, 0x00, 0x00, 0x09, 0x00, 0x00, 0x00, 0x00, 0x00, 0x00, 0x02,
  0xf0, 0x00, 0x00, 0x00, 0x94, 0xf7, 0xff, 0xff, 0x08, 0x00, 0x00, 0x00,
  0x88, 0x00, 0x00, 0x00, 0x10, 0x00, 0x00, 0x00, 0x00, 0x00, 0x00, 0x00,
  0x00, 0x00, 0x00, 0x00, 0x00, 0x00, 0x00, 0x00, 0x00, 0x00, 0x00, 0x00,
  0x00, 0x00, 0x00, 0x00, 0x00, 0x00, 0x00, 0x00, 0x00, 0x00, 0x00, 0x00,
  0x00, 0x00, 0x00, 0x00, 0x00, 0x00, 0x00, 0x00, 0x00, 0x00, 0x00, 0x00,
  0x00, 0x00, 0x00, 0x00, 0x00, 0x00, 0x00, 0x00, 0x00, 0x00, 0x00, 0x00,
  0x00, 0x00, 0x00, 0x00, 0x00, 0x00, 0x00, 0x00, 0x00, 0x00, 0x00, 0x00,
  0x00, 0x00, 0x00, 0x00, 0x00, 0x00, 0x00, 0x00, 0x00, 0x00, 0x00, 0x00,
  0x00, 0x00, 0x00, 0x00, 0x00, 0x00, 0x00, 0x00, 0x00, 0x00, 0x00, 0x00,
  0x00, 0x00, 0x00, 0x00, 0x00, 0x00, 0x00, 0x00, 0x00, 0x00, 0x00, 0x00,
  0x00, 0x00, 0x00, 0x00, 0x00, 0x00, 0x00, 0x00, 0x00, 0x00, 0x00, 0x00,
  0x00, 0x00, 0x00, 0x00, 0x00, 0x00, 0x00, 0x00, 0x00, 0x00, 0x00, 0x00,
  0x00, 0x00, 0x00, 0x00, 0x10, 0x00, 0x00, 0x00, 0x11, 0xb3, 0xe8, 0x38,
  0x8d, 0x85, 0x29, 0x39, 0x71, 0x51, 0x63, 0x39, 0x84, 0xd4, 0xfb, 0x38,
  0x92, 0x23, 0x4f, 0x39, 0x2b, 0x7c, 0x0b, 0x39, 0x92, 0x5e, 0x3d, 0x39,
  0xf8, 0xd8, 0x4a, 0x39, 0x47, 0x16, 0x05, 0x39, 0x9e, 0x4a, 0x11, 0x39,
  0x78, 0x49, 0x0c, 0x39, 0x4f, 0xf6, 0xc9, 0x38, 0x80, 0x4a, 0xce, 0x38,
  0x11, 0xce, 0x1f, 0x39, 0x01, 0x80, 0x97, 0x39, 0xc7, 0xa2, 0xc9, 0x38,
  0x12, 0x00, 0x00, 0x00, 0x74, 0x66, 0x6c, 0x2e, 0x70, 0x73, 0x65, 0x75,
  0x64, 0x6f, 0x5f, 0x71, 0x63, 0x6f, 0x6e, 0x73, 0x74, 0x36, 0x00, 0x00,
  0x01, 0x00, 0x00, 0x00, 0x10, 0x00, 0x00, 0x00, 0x2a, 0xf9, 0xff, 0xff,
  0x00, 0x00, 0x00, 0x01, 0x28, 0x00, 0x00, 0x00, 0x00, 0x01, 0x00, 0x00,
  0x08, 0x00, 0x00, 0x00, 0x00, 0x00, 0x00, 0x09, 0x0c, 0x01, 0x00, 0x00,
  0x00, 0x00, 0x12, 0x00, 0x10, 0x00, 0x00, 0x00, 0x00, 0x00, 0x0c, 0x00,
  0x08, 0x00, 0x00, 0x00, 0x00, 0x00, 0x04, 0x00, 0x12, 0x00, 0x00, 0x00,
  0x03, 0x00, 0x00, 0x00, 0x08, 0x00, 0x00, 0x00, 0x8c, 0x00, 0x00, 0x00,
  0x10, 0x00, 0x00, 0x00, 0x00, 0x00, 0x00, 0x00, 0x00, 0x00, 0x00, 0x00,
  0x00, 0x00, 0x00, 0x00, 0x00, 0x00, 0x00, 0x00, 0x00, 0x00, 0x00, 0x00,
  0x00, 0x00, 0x00, 0x00, 0x00, 0x00, 0x00, 0x00, 0x00, 0x00, 0x00, 0x00,
  0x00, 0x00, 0x00, 0x00, 0x00, 0x00, 0x00, 0x00, 0x00, 0x00, 0x00, 0x00,
  0x00, 0x00, 0x00, 0x00, 0x00, 0x00, 0x00, 0x00, 0x00, 0x00, 0x00, 0x00,
  0x00, 0x00, 0x00, 0x00, 0x00, 0x00, 0x00, 0x00, 0x00, 0x00, 0x00, 0x00,
  0x00, 0x00, 0x00, 0x00, 0x00, 0x00, 0x00, 0x00, 0x00, 0x00, 0x00, 0x00,
  0x00, 0x00, 0x00, 0x00, 0x00, 0x00, 0x00, 0x00, 0x00, 0x00, 0x00, 0x00,
  0x00, 0x00, 0x00, 0x00, 0x00, 0x00, 0x00, 0x00, 0x00, 0x00, 0x00, 0x00,
  0x00, 0x00, 0x00, 0x00, 0x00, 0x00, 0x00, 0x00, 0x00, 0x00, 0x00, 0x00,
  0x00, 0x00, 0x00, 0x00, 0x00, 0x00, 0x00, 0x00, 0x00, 0x00, 0x00, 0x00,
  0x00, 0x00, 0x00, 0x00, 0x10, 0x00, 0x00, 0x00, 0x07, 0xca, 0xdb, 0x3b,
  0xbc, 0x31, 0xaa, 0x3b, 0x21, 0x8b, 0x0b, 0x3c, 0x7f, 0xa7, 0xa6, 0x3b,
  0x77, 0xe9, 0x8d, 0x3b, 0xed, 0x6a, 0x79, 0x3c, 0xb8, 0x01, 0xb9, 0x3b,
  0x2b, 0xaa, 0x03, 0x3c, 0x79, 0x20, 0x08, 0x3c, 0x06, 0x0f, 0xe5, 0x3b,
  0xe8, 0x58, 0x07, 0x3c, 0x8c, 0xa0, 0xad, 0x3c, 0xcd, 0xbd, 0xe2, 0x3c,
  0xe2, 0x68, 0x29, 0x3c, 0xe9, 0x5b, 0x61, 0x3c, 0x91, 0xf2, 0xf9, 0x3b,
  0x12, 0x00, 0x00, 0x00, 0x74, 0x66, 0x6c, 0x2e, 0x70, 0x73, 0x65, 0x75,
  0x64, 0x6f, 0x5f, 0x71, 0x63, 0x6f, 0x6e, 0x73, 0x74, 0x35, 0x00, 0x00,
  0x04, 0x00, 0x00, 0x00, 0x01, 0x00, 0x00, 0x00, 0x03, 0x00, 0x00, 0x00,
  0x03, 0x00, 0x00, 0x00, 0x10, 0x00, 0x00, 0x00, 0x62, 0xfa, 0xff, 0xff,
  0x00, 0x00, 0x00, 0x01, 0x14, 0x00, 0x00, 0x00, 0xe4, 0x00, 0x00, 0x00,
  0x07, 0x00, 0x00, 0x00, 0x00, 0x00, 0x00, 0x02, 0xf0, 0x00, 0x00, 0x00,
  0xdc, 0xf9, 0xff, 0xff, 0x08, 0x00, 0x00, 0x00, 0x88, 0x00, 0x00, 0x00,
  0x10, 0x00, 0x00, 0x00, 0x00, 0x00, 0x00, 0x00, 0x00, 0x00, 0x00, 0x00,
  0x00, 0x00, 0x00, 0x00, 0x00, 0x00, 0x00, 0x00, 0x00, 0x00, 0x00, 0x00,
  0x00, 0x00, 0x00, 0x00, 0x00, 0x00, 0x00, 0x00, 0x00, 0x00, 0x00, 0x00,
  0x00, 0x00, 0x00, 0x00, 0x00, 0x00, 0x00, 0x00, 0x00, 0x00, 0x00, 0x00,
  0x00, 0x00, 0x00, 0x00, 0x00, 0x00, 0x00, 0x00, 0x00, 0x00, 0x00, 0x00,
  0x00, 0x00, 0x00, 0x00, 0x00, 0x00, 0x00, 0x00, 0x00, 0x00, 0x00, 0x00,
  0x00, 0x00, 0x00, 0x00, 0x00, 0x00, 0x00, 0x00, 0x00, 0x00, 0x00, 0x00,
  0x00, 0x00, 0x00, 0x00, 0x00, 0x00, 0x00, 0x00, 0x00, 0x00, 0x00, 0x00,
  0x00, 0x00, 0x00, 0x00, 0x00, 0x00, 0x00, 0x00, 0x00, 0x00, 0x00, 0x00,
  0x00, 0x00, 0x00, 0x00, 0x00, 0x00, 0x00, 0x00, 0x00, 0x00, 0x00, 0x00,
  0x00, 0x00, 0x00, 0x00, 0x00, 0x00, 0x00, 0x00, 0x00, 0x00, 0x00, 0x00,
  0x10, 0x00, 0x00, 0x00, 0x10, 0xf5, 0xf0, 0x38, 0xfa, 0x95, 0xba, 0x38,
  0xa9, 0xfb, 0x18, 0x39, 0x75, 0xb4, 0xb6, 0x38, 0x64, 0x94, 0x9b, 0x38,
  0x3c, 0xb8, 0x88, 0x39, 0x2c, 0xd3, 0xca, 0x38, 0x71, 0x58, 0x10, 0x39,
  0xc3, 0x3c, 0x15, 0x39, 0x9b, 0x1e, 0xfb, 0x38, 0xfa, 0x61, 0x14, 0x39,
  0x6e, 0x59, 0xbe, 0x39, 0x40, 0x94, 0xf8, 0x39, 0xc8, 0xb9, 0x39, 0x39,
  0x46, 0x10, 0x77, 0x39, 0x96, 0x02, 0x09, 0x39, 0x12, 0x00, 0x00, 0x00,
  0x74, 0x66, 0x6c, 0x2e, 0x70, 0x73, 0x65, 0x75, 0x64, 0x6f, 0x5f, 0x71,
  0x63, 0x6f, 0x6e, 0x73, 0x74, 0x34, 0x00, 0x00, 0x01, 0x00, 0x00, 0x00,
  0x10, 0x00, 0x00, 0x00, 0x72, 0xfb, 0xff, 0xff, 0x00, 0x00, 0x00, 0x01,
  0x14, 0x00, 0x00, 0x00, 0x48, 0x01, 0x00, 0x00, 0x06, 0x00, 0x00, 0x00,
  0x00, 0x00, 0x00, 0x09, 0x54, 0x01, 0x00, 0x00, 0xec, 0xfa, 0xff, 0xff,
  0x08, 0x00, 0x00, 0x00, 0xcc, 0x00, 0x00, 0x00, 0x18, 0x00, 0x00, 0x00,
  0x00, 0x00, 0x00, 0x00, 0x00, 0x00, 0x00, 0x00, 0x00, 0x00, 0x00, 0x00,
  0x00, 0x00, 0x00, 0x00, 0x00, 0x00, 0x00, 0x00, 0x00, 0x00, 0x00, 0x00,
  0x00, 0x00, 0x00, 0x00, 0x00, 0x00, 0x00, 0x00, 0x00, 0x00, 0x00, 0x00,
  0x00, 0x00, 0x00, 0x00, 0x00, 0x00, 0x00, 0x00, 0x00, 0x00, 0x00, 0x00,
  0x00, 0x00, 0x00, 0x00, 0x00, 0x00, 0x00, 0x00, 0x00, 0x00, 0x00, 0x00,
  0x00, 0x00, 0x00, 0x00, 0x00, 0x00, 0x00, 0x00, 0x00, 0x00, 0x00, 0x00,
  0x00, 0x00, 0x00, 0x00, 0x00, 0x00, 0x00, 0x00, 0x00, 0x00, 0x00, 0x00,
  0x00, 0x00, 0x00, 0x00, 0x00, 0x00, 0x00, 0x00, 0x00, 0x00, 0x00, 0x00,
  0x00, 0x00, 0x00, 0x00, 0x00, 0x00, 0x00, 0x00, 0x00, 0x00, 0x00, 0x00,
  0x00, 0x00, 0x00, 0x00, 0x00, 0x00, 0x00, 0x00, 0x00, 0x00, 0x00, 0x00,
  0x00, 0x00, 0x00, 0x00, 0x00, 0x00, 0x00, 0x00, 0x00, 0x00, 0x00, 0x00,
  0x00, 0x00, 0x00, 0x00, 0x00, 0x00, 0x00, 0x00, 0x00, 0x00, 0x00, 0x00,
  0x00, 0x00, 0x00, 0x00, 0x00, 0x00, 0x00, 0x00, 0x00, 0x00, 0x00, 0x00,
  0x00, 0x00, 0x00, 0x00, 0x00, 0x00, 0x00, 0x00, 0x00, 0x00, 0x00, 0x00,
  0x00, 0x00, 0x00, 0x00, 0x00, 0x00, 0x00, 0x00, 0x00, 0x00, 0x00, 0x00,
  0x00, 0x00, 0x00, 0x00, 0x00, 0x00, 0x00, 0x00, 0x00, 0x00, 0x00, 0x00,
  0x00, 0x00, 0x00, 0x00, 0x18, 0x00, 0x00, 0x00, 0x98, 0x9c, 0xc9, 0x3c,
  0x0e, 0xfb, 0xf3, 0x3c, 0x5d, 0xe0, 0x30, 0x3d, 0xa6, 0x3c, 0xd2, 0x3c,
  0xa4, 0xbe, 0x19, 0x3d, 0xb5, 0x87, 0xcf, 0x3c, 0x27, 0x28, 0xb9, 0x3c,
  0x27, 0x3a, 0x06, 0x3d, 0xa2, 0xbf, 0xcb, 0x3c, 0x1d, 0x36, 0xb3, 0x3c,
  0x88, 0x88, 0xfb, 0x3c, 0x33, 0xe4, 0xcf, 0x3c, 0xdf, 0x19, 0xd7, 0x3c,
  0xc9, 0x64, 0x2d, 0x3d, 0x5f, 0x1b, 0x5f, 0x3d, 0xb4, 0xfd, 0xd5, 0x3c,
  0x2a, 0x7d, 0x13, 0x3d, 0x89, 0x01, 0xa5, 0x3c, 0x30, 0xe8, 0xc1, 0x3c,
  0x4e, 0x13, 0xbd, 0x3c, 0x0b, 0xbd, 0x0f, 0x3d, 0xd1, 0x17, 0xd7, 0x3c,
  0x0d, 0x56, 0x0f, 0x3d, 0x48, 0x4a, 0x99, 0x3c, 0x12, 0x00, 0x00, 0x00,
  0x74, 0x66, 0x6c, 0x2e, 0x70, 0x73, 0x65, 0x75, 0x64, 0x6f, 0x5f, 0x71,
  0x63, 0x6f, 0x6e, 0x73, 0x74, 0x33, 0x00, 0x00, 0x04, 0x00, 0x00, 0x00,
  0x18, 0x00, 0x00, 0x00, 0x01, 0x00, 0x00, 0x00, 0x01, 0x00, 0x00, 0x00,
  0x10, 0x00, 0x00, 0x00, 0xf2, 0xfc, 0xff, 0xff, 0x00, 0x00, 0x00, 0x01,
  0x14, 0x00, 0x00, 0x00, 0x44, 0x01, 0x00, 0x00, 0x05, 0x00, 0x00, 0x00,
  0x00, 0x00, 0x00, 0x02, 0x50, 0x01, 0x00, 0x00, 0x6c, 0xfc, 0xff, 0xff,
  0x08, 0x00, 0x00, 0x00, 0xc8, 0x00, 0x00, 0x00, 0x18, 0x00, 0x00, 0x00,
  0x00, 0x00, 0x00, 0x00, 0x00, 0x00, 0x00, 0x00, 0x00, 0x00, 0x00, 0x00,
  0x00, 0x00, 0x00, 0x00, 0x00, 0x00, 0x00, 0x00, 0x00, 0x00, 0x00, 0x00,
  0x00, 0x00, 0x00, 0x00, 0x00, 0x00, 0x00, 0x00, 0x00, 0x00, 0x00, 0x00,
  0x00, 0x00, 0x00, 0x00, 0x00, 0x00, 0x00, 0x00, 0x00, 0x00, 0x00, 0x00,
  0x00, 0x00, 0x00, 0x00, 0x00, 0x00, 0x00, 0x00, 0x00, 0x00, 0x00, 0x00,
  0x00, 0x00, 0x00, 0x00, 0x00, 0x00, 0x00, 0x00, 0x00, 0x00, 0x00, 0x00,
  0x00, 0x00, 0x00, 0x00, 0x00, 0x00, 0x00, 0x00, 0x00, 0x00, 0x00, 0x00,
  0x00, 0x00, 0x00, 0x00, 0x00, 0x00, 0x00, 0x00, 0x00, 0x00, 0x00, 0x00,
  0x00, 0x00, 0x00, 0x00, 0x00, 0x00, 0x00, 0x00, 0x00, 0x00, 0x00, 0x00,
  0x00, 0x00, 0x00, 0x00, 0x00, 0x00, 0x00, 0x00, 0x00, 0x00, 0x00, 0x00,
  0x00, 0x00, 0x00, 0x00, 0x00, 0x00, 0x00, 0x00, 0x00, 0x00, 0x00, 0x00,
  0x00, 0x00, 0x00, 0x00, 0x00, 0x00, 0x00, 0x00, 0x00, 0x00, 0x00, 0x00,
  0x00, 0x00, 0x00, 0x00, 0x00, 0x00, 0x00, 0x00, 0x00, 0x00, 0x00, 0x00,
  0x00, 0x00, 0x00, 0x00, 0x00, 0x00, 0x00, 0x00, 0x00, 0x00, 0x00, 0x00,
  0x00, 0x00, 0x00, 0x00, 0x00, 0x00, 0x00, 0x00, 0x00, 0x00, 0x00, 0x00,
  0x00, 0x00, 0x00, 0x00, 0x00, 0x00, 0x00, 0x00, 0x00, 0x00, 0x00, 0x00,
  0x18, 0x00, 0x00, 0x00, 0x1a, 0xb4, 0x49, 0x3a, 0x81, 0x17, 0x74, 0x3a,
  0xfd, 0xf4, 0xb0, 0x3a, 0x2a, 0x55, 0x52, 0x3a, 0x92, 0xd0, 0x99, 0x3a,
  0xe8, 0x9f, 0x4f, 0x3a, 0xbe, 0x3d, 0x39, 0x3a, 0xce, 0x49, 0x86, 0x3a,
  0x64, 0xd7, 0x4b, 0x3a, 0x03, 0x4b, 0x33, 0x3a, 0xdd, 0xa5, 0x7b, 0x3a,
  0x71, 0xfc, 0x4f, 0x3a, 0xf4, 0x32, 0x57, 0x3a, 0x01, 0x79, 0xad, 0x3a,
  0x63, 0x35, 0xdf, 0x3a, 0xa8, 0x16, 0x56, 0x3a, 0x5d, 0x8e, 0x93, 0x3a,
  0xc7, 0x14, 0x25, 0x3a, 0xcc, 0xfe, 0x41, 0x3a, 0x5a, 0x29, 0x3d, 0x3a,
  0xce, 0xcd, 0x8f, 0x3a, 0xe6, 0x30, 0x57, 0x3a, 0xc4, 0x66, 0x8f, 0x3a,
  0x28, 0x5c, 0x19, 0x3a, 0x12, 0x00, 0x00, 0x00, 0x74, 0x66, 0x6c, 0x2e,
  0x70, 0x73, 0x65, 0x75, 0x64, 0x6f, 0x5f, 0x71, 0x63, 0x6f, 0x6e, 0x73,
  0x74, 0x32, 0x00, 0x00, 0x01, 0x00, 0x00, 0x00, 0x18, 0x00, 0x00, 0x00,
  0x62, 0xfe, 0xff, 0xff, 0x00, 0x00, 0x00, 0x01, 0x14, 0x00, 0x00, 0x00,
  0xa0, 0x00, 0x00, 0x00, 0x04, 0x00, 0x00, 0x00, 0x00, 0x00, 0x00, 0x09,
  0xac, 0x00, 0x00, 0x00, 0xdc, 0xfd, 0xff, 0xff, 0x08, 0x00, 0x00, 0x00,
  0x5c, 0x00, 0x00, 0x00, 0x0a, 0x00, 0x00, 0x00, 0x00, 0x00, 0x00, 0x00,
  0x00, 0x00, 0x00, 0x00, 0x00, 0x00, 0x00, 0x00, 0x00, 0x00, 0x00, 0x00,
  0x00, 0x00, 0x00, 0x00, 0x00, 0x00, 0x00, 0x00, 0x00, 0x00, 0x00, 0x00,
  0x00, 0x00, 0x00, 0x00, 0x00, 0x00, 0x00, 0x00, 0x00, 0x00, 0x00, 0x00,
  0x00, 0x00, 0x00, 0x00, 0x00, 0x00, 0x00, 0x00, 0x00, 0x00, 0x00, 0x00,
  0x00, 0x00, 0x00, 0x00, 0x00, 0x00, 0x00, 0x00, 0x00, 0x00, 0x00, 0x00,
  0x00, 0x00, 0x00, 0x00, 0x00, 0x00, 0x00, 0x00, 0x00, 0x00, 0x00, 0x00,
  0x00, 0x00, 0x00, 0x00, 0x00, 0x00, 0x00, 0x00, 0x0a, 0x00, 0x00, 0x00,
  0x3d, 0xbc, 0x5a, 0x3c, 0x55, 0x46, 0x3e, 0x3c, 0xb3, 0xde, 0x25, 0x3c,
  0xf9, 0xdc, 0x3e, 0x3c, 0xeb, 0xa6, 0x94, 0x3c, 0xbb, 0xd9, 0x62, 0x3c,
  0xe3, 0x94, 0x3c, 0x3c, 0xb1, 0xcd, 0x4b, 0x3c, 0x79, 0x32, 0x43, 0x3c,
  0x97, 0x98, 0x3a, 0x3c, 0x12, 0x00, 0x00, 0x00, 0x74, 0x66, 0x6c, 0x2e,
  0x70, 0x73, 0x65, 0x75, 0x64, 0x6f, 0x5f, 0x71, 0x63, 0x6f, 0x6e, 0x73,
  0x74, 0x31, 0x00, 0x00, 0x02, 0x00, 0x00, 0x00, 0x0a, 0x00, 0x00, 0x00,
  0x18, 0x00, 0x00, 0x00, 0x32, 0xff, 0xff, 0xff, 0x00, 0x00, 0x00, 0x01,
  0x14, 0x00, 0x00, 0x00, 0xa0, 0x00, 0x00, 0x00, 0x03, 0x00, 0x00, 0x00,
  0x00, 0x00, 0x00, 0x02, 0xac, 0x00, 0x00, 0x00, 0xac, 0xfe, 0xff, 0xff,
  0x08, 0x00, 0x00, 0x00, 0x5c, 0x00, 0x00, 0x00, 0x0a, 0x00, 0x00, 0x00,
  0x00, 0x00, 0x00, 0x00, 0x00, 0x00, 0x00, 0x00, 0x00, 0x00, 0x00, 0x00,
  0x00, 0x00, 0x00, 0x00, 0x00, 0x00, 0x00, 0x00, 0x00, 0x00, 0x00, 0x00,
  0x00, 0x00, 0x00, 0x00, 0x00, 0x00, 0x00, 0x00, 0x00, 0x00, 0x00, 0x00,
  0x00, 0x00, 0x00, 0x00, 0x00, 0x00, 0x00, 0x00, 0x00, 0x00, 0x00, 0x00,
  0x00, 0x00, 0x00, 0x00, 0x00, 0x00, 0x00, 0x00, 0x00, 0x00, 0x00, 0x00,
  0x00, 0x00, 0x00, 0x00, 0x00, 0x00, 0x00, 0x00, 0x00, 0x00, 0x00, 0x00,
  0x00, 0x00, 0x00, 0x00, 0x00, 0x00, 0x00, 0x00, 0x00, 0x00, 0x00, 0x00,
  0x0a, 0x00, 0x00, 0x00, 0xf9, 0x42, 0x39, 0x39, 0x0c, 0x28, 0x21, 0x39,
  0x82, 0x7c, 0x0c, 0x39, 0xa3, 0xa7, 0x21, 0x39, 0x87, 0xce, 0x7b, 0x39,
  0x8a, 0x22, 0x40, 0x39, 0xef, 0xb8, 0x1f, 0x39, 0x66, 0x9d, 0x2c, 0x39,
  0x59, 0x53, 0x25, 0x39, 0x6d, 0x0a, 0x1e, 0x39, 0x11, 0x00, 0x00, 0x00,
  0x74, 0x66, 0x6c, 0x2e, 0x70, 0x73, 0x65, 0x75, 0x64, 0x6f, 0x5f, 0x71,
  0x63, 0x6f, 0x6e, 0x73, 0x74, 0x00, 0x00, 0x00, 0x01, 0x00, 0x00, 0x00,
  0x0a, 0x00, 0x00, 0x00, 0x00, 0x00, 0x16, 0x00, 0x1c, 0x00, 0x18, 0x00,
  0x17, 0x00, 0x10, 0x00, 0x0c, 0x00, 0x08, 0x00, 0x00, 0x00, 0x00, 0x00,
  0x00, 0x00, 0x07, 0x00, 0x16, 0x00, 0x00, 0x00, 0x00, 0x00, 0x00, 0x01,
  0x18, 0x00, 0x00, 0x00, 0x18, 0x00, 0x00, 0x00, 0x02, 0x00, 0x00, 0x00,
  0x00, 0x00, 0x00, 0x02, 0x20, 0x00, 0x00, 0x00, 0x04, 0x00, 0x04, 0x00,
  0x04, 0x00, 0x00, 0x00, 0x0e, 0x00, 0x00, 0x00, 0x61, 0x72, 0x69, 0x74,
  0x68, 0x2e, 0x63, 0x6f, 0x6e, 0x73, 0x74, 0x61, 0x6e, 0x74, 0x00, 0x00,
  0x01, 0x00, 0x00, 0x00, 0x02, 0x00, 0x00, 0x00, 0x00, 0x00, 0x16, 0x00,
  0x20, 0x00, 0x1c, 0x00, 0x1b, 0x00, 0x14, 0x00, 0x10, 0x00, 0x0c, 0x00,
  0x00, 0x00, 0x00, 0x00, 0x08, 0x00, 0x07, 0x00, 0x16, 0x00, 0x00, 0x00,
  0x00, 0x00, 0x00, 0x01, 0x18, 0x00, 0x00, 0x00, 0x34, 0x00, 0x00, 0x00,
  0x50, 0x00, 0x00, 0x00, 0x01, 0x00, 0x00, 0x00, 0x00, 0x00, 0x00, 0x09,
  0x64, 0x00, 0x00, 0x00, 0x04, 0x00, 0x00, 0x00, 0xff, 0xff, 0xff, 0xff,
  0x1c, 0x00, 0x00, 0x00, 0x1c, 0x00, 0x00, 0x00, 0x01, 0x00, 0x00, 0x00,
  0x0c, 0x00, 0x0c, 0x00, 0x00, 0x00, 0x00, 0x00, 0x08, 0x00, 0x04, 0x00,
  0x0c, 0x00, 0x00, 0x00, 0x08, 0x00, 0x00, 0x00, 0x10, 0x00, 0x00, 0x00,
  0x01, 0x00, 0x00, 0x00, 0x80, 0xff, 0xff, 0xff, 0xff, 0xff, 0xff, 0xff,
  0x01, 0x00, 0x00, 0x00, 0x81, 0x80, 0x80, 0x3b, 0x19, 0x00, 0x00, 0x00,
  0x73, 0x65, 0x72, 0x76, 0x69, 0x6e, 0x67, 0x5f, 0x64, 0x65, 0x66, 0x61,
  0x75, 0x6c, 0x74, 0x5f, 0x69, 0x6e, 0x70, 0x75, 0x74, 0x5f, 0x32, 0x3a,
  0x30, 0x00, 0x00, 0x00, 0x04, 0x00, 0x00, 0x00, 0x01, 0x00, 0x00, 0x00,
  0x1c, 0x00, 0x00, 0x00, 0x1c, 0x00, 0x00, 0x00, 0x01, 0x00, 0x00, 0x00,
  0x05, 0x00, 0x00, 0x00, 0x60, 0x00, 0x00, 0x00, 0x40, 0x00, 0x00, 0x00,
  0x2c, 0x00, 0x00, 0x00, 0x18, 0x00, 0x00, 0x00, 0x04, 0x00, 0x00, 0x00,
  0xc0, 0xff, 0xff, 0xff, 0x19, 0x00, 0x00, 0x00, 0x02, 0x00, 0x00, 0x00,
  0x00, 0x00, 0x00, 0x19, 0xd0, 0xff, 0xff, 0xff, 0x09, 0x00, 0x00, 0x00,
  0x04, 0x00, 0x00, 0x00, 0x00, 0x00, 0x00, 0x09, 0xe0, 0xff, 0xff, 0xff,
  0x28, 0x00, 0x00, 0x00, 0x02, 0x00, 0x00, 0x00, 0x00, 0x00, 0x00, 0x28,
  0xf0, 0xff, 0xff, 0xff, 0x04, 0x00, 0x00, 0x00, 0x03, 0x00, 0x00, 0x00,
  0x00, 0x00, 0x00, 0x04, 0x0c, 0x00, 0x10, 0x00, 0x0f, 0x00, 0x00, 0x00,
  0x08, 0x00, 0x04, 0x00, 0x0c, 0x00, 0x00, 0x00, 0x03, 0x00, 0x00, 0x00,
  0x03, 0x00, 0x00, 0x00, 0x00, 0x00, 0x00, 0x03
};
const unsigned int mnist_model_tflite_len = 8120;
