#include "model_data.h"

#ifdef __has_attribute
#define HAVE_ATTRIBUTE(x) __has_attribute(x)
#else
#define HAVE_ATTRIBUTE(x) 0
#endif
#if HAVE_ATTRIBUTE(aligned) || (defined(__GNUC__) && !defined(__clang__))
#define DATA_ALIGN_ATTRIBUTE __attribute__((aligned(4)))
#else
#define DATA_ALIGN_ATTRIBUTE
#endif

const unsigned char mnist_model_tflite[] DATA_ALIGN_ATTRIBUTE = {
  0x1c, 0x00, 0x00, 0x00, 0x54, 0x46, 0x4c, 0x33, 0x14, 0x00, 0x20, 0x00,
  0x1c, 0x00, 0x18, 0x00, 0x14, 0x00, 0x10, 0x00, 0x0c, 0x00, 0x00, 0x00,
  0x08, 0x00, 0x04, 0x00, 0x14, 0x00, 0x00, 0x00, 0x1c, 0x00, 0x00, 0x00,
  0x80, 0x00, 0x00, 0x00, 0xd8, 0x00, 0x00, 0x00, 0x70, 0x8b, 0x00, 0x00,
  0x80, 0x8b, 0x00, 0x00, 0x60, 0x9f, 0x00, 0x00, 0x03, 0x00, 0x00, 0x00,
  0x01, 0x00, 0x00, 0x00, 0x04, 0x00, 0x00, 0x00, 0xca, 0x73, 0xff, 0xff,
  0x0c, 0x00, 0x00, 0x00, 0x1c, 0x00, 0x00, 0x00, 0x38, 0x00, 0x00, 0x00,
  0x0f, 0x00, 0x00, 0x00, 0x73, 0x65, 0x72, 0x76, 0x69, 0x6e, 0x67, 0x5f,
  0x64, 0x65, 0x66, 0x61, 0x75, 0x6c, 0x74, 0x00, 0x01, 0x00, 0x00, 0x00,
  0x04, 0x00, 0x00, 0x00, 0x9c, 0xff, 0xff, 0xff, 0x0e, 0x00, 0x00, 0x00,
  0x04, 0x00, 0x00, 0x00, 0x07, 0x00, 0x00, 0x00, 0x64, 0x65, 0x6e, 0x73,
  0x65, 0x5f, 0x32, 0x00, 0x01, 0x00, 0x00, 0x00, 0x04, 0x00, 0x00, 0x00,
  0x6a, 0x74, 0xff, 0xff, 0x04, 0x00, 0x00, 0x00, 0x07, 0x00, 0x00, 0x00,
  0x69, 0x6e, 0x70, 0x75, 0x74, 0x5f, 0x33, 0x00, 0x02, 0x00, 0x00, 0x00,
  0x34, 0x00, 0x00, 0x00, 0x04, 0x00, 0x00, 0x00, 0xdc, 0xff, 0xff, 0xff,
  0x11, 0x00, 0x00, 0x00, 0x04, 0x00, 0x00, 0x00, 0x13, 0x00, 0x00, 0x00,
  0x43, 0x4f, 0x4e, 0x56, 0x45, 0x52, 0x53, 0x49, 0x4f, 0x4e, 0x5f, 0x4d,
  0x45, 0x54, 0x41, 0x44, 0x41, 0x54, 0x41, 0x00, 0x08, 0x00, 0x0c, 0x00,
  0x08, 0x00, 0x04, 0x00, 0x08, 0x00, 0x00, 0x00, 0x10, 0x00, 0x00, 0x00,
  0x04, 0x00, 0x00, 0x00, 0x13, 0x00, 0x00, 0x00, 0x6d, 0x69, 0x6e, 0x5f,
  0x72, 0x75, 0x6e, 0x74, 0x69, 0x6d, 0x65, 0x5f, 0x76, 0x65, 0x72, 0x73,
  0x69, 0x6f, 0x6e, 0x00, 0x12, 0x00, 0x00, 0x00, 0x94, 0x8a, 0x00, 0x00,
  0x8c, 0x8a, 0x00, 0x00, 0x74, 0x8a, 0x00, 0x00, 0x3c, 0x8a, 0x00, 0x00,
  0xac, 0x4b, 0x00, 0x00, 0x9c, 0x4a, 0x00, 0x00, 0x8c, 0x02, 0x00, 0x00,
  0xfc, 0x01, 0x00, 0x00, 0xcc, 0x00, 0x00, 0x00, 0xc4, 0x00, 0x00, 0x00,
  0xbc, 0x00, 0x00, 0x00, 0xb4, 0x00, 0x00, 0x00, 0xac, 0x00, 0x00, 0x00,
  0xa4, 0x00, 0x00, 0x00, 0x9c, 0x00, 0x00, 0x00, 0x94, 0x00, 0x00, 0x00,
  0x74, 0x00, 0x00, 0x00, 0x04, 0x00, 0x00, 0x00, 0x26, 0x75, 0xff, 0xff,
  0x04, 0x00, 0x00, 0x00, 0x60, 0x00, 0x00, 0x00, 0x0c, 0x00, 0x00, 0x00,
  0x08, 0x00, 0x0e, 0x00, 0x08, 0x00, 0x04, 0x00, 0x08, 0x00, 0x00, 0x00,
  0x10, 0x00, 0x00, 0x00, 0x28, 0x00, 0x00, 0x00, 0x00, 0x00, 0x06, 0x00,
  0x08, 0x00, 0x04, 0x00, 0x06, 0x00, 0x00, 0x00, 0x04, 0x00, 0x00, 0x00,
  0x01, 0x00, 0x00, 0x00, 0xeb, 0x03, 0x00, 0x00, 0x0c, 0x00, 0x18, 0x00,
  0x14, 0x00, 0x10, 0x00, 0x0c, 0x00, 0x04, 0x00, 0x0c, 0x00, 0x00, 0x00,
  0x1f, 0x9e, 0xa8, 0xad, 0x27, 0x90, 0x8e, 0x9a, 0x02, 0x00, 0x00, 0x00,
  0x02, 0x00, 0x00, 0x00, 0x04, 0x00, 0x00, 0x00, 0x06, 0x00, 0x00, 0x00,
  0x32, 0x2e, 0x32, 0x30, 0x2e, 0x30, 0x00, 0x00, 0x92, 0x75, 0xff, 0xff,
  0x04, 0x00, 0x00, 0x00, 0x10, 0x00, 0x00, 0x00, 0x31, 0x2e, 0x31, 0x34,
  0x2e, 0x30, 0x00, 0x00, 0x00, 0x00, 0x00, 0x00, 0x00, 0x00, 0x00, 0x00,
  0x10, 0x63, 0xff, 0xff, 0x14, 0x63, 0xff, 0xff, 0x18, 0x63, 0xff, 0xff,
  0x1c, 0x63, 0xff, 0xff, 0x20, 0x63, 0xff, 0xff, 0x24, 0x63, 0xff, 0xff,
  0x28, 0x63, 0xff, 0xff, 0xca, 0x75, 0xff, 0xff, 0x04, 0x00, 0x00, 0x00,
  0x20, 0x01, 0x00, 0x00, 0x00, 0xa6, 0x81, 0x00, 0x00, 0x00, 0x46, 0x52,
  0x4d, 0x98, 0x00, 0x92, 0x00, 0x00, 0x00, 0x7f, 0x00, 0x73, 0x00, 0x00,
  0x5d, 0x6f, 0x67, 0x00, 0x00, 0x8d, 0x81, 0x81, 0x00, 0x00, 0x00, 0x00,
  0x00, 0xaf, 0x00, 0x55, 0x00, 0x00, 0x00, 0x00, 0x00, 0x70, 0x00, 0x00,
  0x7f, 0x00, 0x6a, 0x7c, 0x00, 0x00, 0x7f, 0x00, 0x00, 0x00, 0x00, 0x5d,
  0x51, 0x00, 0x00, 0x00, 0x81, 0xa3, 0x88, 0x00, 0x7f, 0x7f, 0x00, 0x00,
  0x00, 0x00, 0x00, 0x00, 0x00, 0x5d, 0x00, 0x7f, 0x00, 0x98, 0x00, 0x00,
  0x00, 0x00, 0x00, 0x00, 0x00, 0x00, 0x00, 0x7f, 0x00, 0x00, 0x79, 0x00,
  0x00, 0x00, 0x00, 0x00, 0x00, 0x7f, 0x00, 0x00, 0x00, 0x00, 0x00, 0x7f,
  0x00, 0x00, 0x00, 0x00, 0x00, 0x00, 0x81, 0x00, 0x00, 0x00, 0x00, 0x7c,
  0x00, 0x00, 0x00, 0x00, 0x00, 0x95, 0x00, 0x7f, 0x00, 0x00, 0x00, 0x74,
  0x69, 0x00, 0x00, 0x00, 0x9f, 0x81, 0x00, 0x00, 0x7f, 0x00, 0x00, 0x00,
  0x00, 0x00, 0x8f, 0x00, 0x4b, 0x00, 0x00, 0x4a, 0x00, 0xa7, 0x00, 0xb4,
  0x81, 0x7f, 0x00, 0x00, 0x00, 0x00, 0x00, 0x00, 0x00, 0x00, 0x00, 0x00,
  0x00, 0x00, 0x00, 0x00, 0x00, 0x00, 0x00, 0x00, 0x00, 0x00, 0x7f, 0x00,
  0x00, 0x00, 0x71, 0x00, 0x67, 0x00, 0x89, 0x00, 0x00, 0x8c, 0x7f, 0x00,
  0x00, 0x00, 0x7f, 0x00, 0x00, 0x00, 0x00, 0x00, 0x00, 0x00, 0x51, 0x00,
  0x81, 0x00, 0x00, 0x00, 0x4d, 0x00, 0x00, 0x7e, 0x00, 0x00, 0x7a, 0x7f,
  0x00, 0x00, 0x00, 0x00, 0x00, 0x00, 0x58, 0x00, 0x4a, 0x00, 0x81, 0x00,
  0x00, 0x7f, 0x00, 0x73, 0x00, 0x00, 0x00, 0xa5, 0x98, 0x98, 0x00, 0x00,
  0x81, 0x58, 0x00, 0x00, 0x5a, 0x00, 0x00, 0x00, 0x50, 0x00, 0x81, 0x00,
  0x62, 0x89, 0x00, 0x56, 0x00, 0x00, 0x00, 0x00, 0x00, 0x7e, 0x00, 0x7f,
  0x00, 0x6a, 0x6a, 0x00, 0x00, 0x00, 0x00, 0x00, 0x81, 0x00, 0x00, 0x7f,
  0x00, 0x00, 0x00, 0x00, 0x00, 0x00, 0x00, 0x00, 0x00, 0x00, 0x00, 0x00,
  0x7f, 0x00, 0x00, 0x00, 0xf6, 0x76, 0xff, 0xff, 0x04, 0x00, 0x00, 0x00,
  0x80, 0x00, 0x00, 0x00, 0xc5, 0xfe, 0xff, 0xff, 0x7c, 0x10, 0x00, 0x00,
  0x78, 0xff, 0xff, 0xff, 0x9e, 0x1f, 0x00, 0x00, 0xbc, 0xff, 0xff, 0xff,
  0x1d, 0xff, 0xff, 0xff, 0x12, 0x27, 0x00, 0x00, 0xad, 0x00, 0x00, 0x00,
  0xc0, 0xfe, 0xff, 0xff, 0x57, 0x00, 0x00, 0x00, 0xe8, 0xff, 0xff, 0xff,
  0x49, 0xfe, 0xff, 0xff, 0x76, 0x04, 0x00, 0x00, 0x04, 0xfd, 0xff, 0xff,
  0x00, 0x01, 0x00, 0x00, 0x03, 0x00, 0x00, 0x00, 0xd9, 0x17, 0x00, 0x00,
  0xc6, 0x05, 0x00, 0x00, 0x30, 0x6b, 0xe8, 0xf1, 0xa9, 0x00, 0x00, 0x00,
  0x35, 0x05, 0x00, 0x00, 0x1b, 0xff, 0xff, 0xff, 0x75, 0xfe, 0xff, 0xff,
  0xa5, 0xff, 0xff, 0xff, 0xa1, 0x01, 0x00, 0x00, 0xdf, 0x1f, 0x00, 0x00,
  0xd6, 0x07, 0x00, 0x00, 0x8f, 0xfe, 0xff, 0xff, 0xd7, 0xfc, 0xff, 0xff,
  0x62, 0x09, 0x00, 0x00, 0x24, 0x00, 0x00, 0x00, 0x80, 0xff, 0xff, 0xff,
  0x82, 0x77, 0xff, 0xff, 0x04, 0x00, 0x00, 0x00, 0x00, 0x48, 0x00, 0x00,
  0xca, 0xc5, 0x00, 0x00, 0x00, 0x00, 0x46, 0x00, 0x00, 0x00, 0x00, 0x00,
  0xb4, 0x00, 0x00, 0x45, 0x00, 0x38, 0x00, 0x00, 0x00, 0x00, 0x00, 0x00,
  0x00, 0x00, 0xc4, 0x00, 0x00, 0x41, 0x00, 0x00, 0x00, 0xd8, 0x00, 0x00,
  0x25, 0x00, 0x3f, 0x00, 0x00, 0x00, 0x2b, 0x2b, 0x00, 0xd9, 0x54, 0x00,
  0xb6, 0x00, 0x00, 0x00, 0x00, 0x39, 0x00, 0x00, 0x43, 0x2b, 0x00, 0x3d,
  0x00, 0x44, 0x00, 0x00, 0x00, 0x2e, 0x00, 0x00, 0x00, 0x00, 0x00, 0x00,
  0x00, 0x00, 0x00, 0x00, 0x00, 0x00, 0x00, 0x00, 0x00, 0x00, 0x00, 0x00,
  0x00, 0x00, 0x37, 0x00, 0x00, 0x00, 0x00, 0x00, 0x00, 0x00, 0x00, 0x00,
  0x00, 0x00, 0x00, 0xcf, 0x00, 0x00, 0x00, 0x00, 0xe1, 0x00, 0x00, 0xb7,
  0x00, 0x5f, 0xcd, 0x00, 0xcf, 0x00, 0xd2, 0x00, 0x27, 0xcf, 0x00, 0xbb,
  0x00, 0x00, 0x40, 0x00, 0xcb, 0xda, 0xdb, 0xcb, 0xcc, 0x00, 0x00, 0x00,
  0x00, 0x00, 0x2f, 0x00, 0x00, 0x00, 0xda, 0x00, 0x00, 0x00, 0x00, 0x00,
  0x00, 0x00, 0x00, 0x00, 0x00, 0x00, 0x00, 0x00, 0x00, 0x00, 0xd3, 0x00,
  0x00, 0x00, 0x00, 0x00, 0x00, 0xd4, 0x00, 0x00, 0x00, 0x00, 0x00, 0x00,
  0x00, 0x00, 0x00, 0x00, 0x00, 0x00, 0x00, 0x2b, 0xd6, 0x00, 0x00, 0x27,
  0x2b, 0x00, 0x00, 0x00, 0x00, 0x00, 0x39, 0x00, 0x00, 0x00, 0x00, 0x00,
  0x41, 0x00, 0x00, 0x00, 0x00, 0x00, 0x00, 0x00, 0x00, 0x00, 0x00, 0x00,
  0x00, 0x7f, 0xd3, 0x00, 0x00, 0x00, 0x00, 0x29, 0x00, 0x00, 0x40, 0x00,
  0x00, 0xda, 0x50, 0x00, 0x00, 0x00, 0x00, 0x00, 0xcb, 0xd0, 0x00, 0x00,
  0x00, 0x00, 0x00, 0xdf, 0x00, 0x00, 0x00, 0xc5, 0x00, 0x00, 0x00, 0x00,
  0x00, 0xd1, 0xd6, 0x00, 0x00, 0xdb, 0x00, 0x00, 0x00, 0x00, 0x00, 0x00,
  0x00, 0xdf, 0x00, 0xd8, 0x00, 0xbd, 0x00, 0x00, 0x00, 0x00, 0x00, 0x00,
  0x00, 0xcc, 0x00, 0x00, 0xd8, 0x00, 0x31, 0x27, 0x00, 0x00, 0x00, 0xcf,
  0x00, 0x00, 0x00, 0x00, 0x00, 0x00, 0x00, 0x3b, 0x00, 0x00, 0x00, 0x00,
  0x00, 0x00, 0x00, 0xb0, 0x00, 0x00, 0x00, 0x00, 0x00, 0x00, 0x3c, 0x00,
  0x3a, 0x37, 0x00, 0x2f, 0x97, 0x00, 0x31, 0x3f, 0x99, 0x00, 0x00, 0x00,
  0x00, 0x00, 0x00, 0xd1, 0x00, 0x00, 0x34, 0x2f, 0x00, 0x00, 0x00, 0xbc,
  0x00, 0x00, 0x00, 0x3d, 0x00, 0x00, 0x4c, 0x38, 0x00, 0x00, 0x00, 0x3c,
  0x87, 0x00, 0x00, 0x00, 0xbc, 0x3d, 0x00, 0x45, 0x3b, 0x00, 0x00, 0x00,
  0x00, 0x00, 0x00, 0x35, 0x00, 0x00, 0xc5, 0xa6, 0x00, 0x00, 0x81, 0x4a,
  0x00, 0x00, 0x51, 0x37, 0x00, 0x00, 0x00, 0x00, 0x88, 0x00, 0x32, 0x31,
  0x39, 0x00, 0x00, 0x00, 0x00, 0xa3, 0x00, 0x00, 0x3e, 0x00, 0x00, 0x36,
  0x00, 0x9f, 0x00, 0xae, 0x00, 0x00, 0x00, 0x00, 0x32, 0x00, 0x35, 0x00,
  0x00, 0x00, 0x00, 0x00, 0x00, 0x00, 0x00, 0x00, 0x00, 0x00, 0x00, 0x00,
  0x00, 0x00, 0x00, 0x00, 0x00, 0x00, 0x4e, 0x00, 0x00, 0x00, 0x00, 0x00,
  0x00, 0x2d, 0xc7, 0x00, 0x00, 0x00, 0x00, 0x00, 0xcb, 0xc1, 0x00, 0x00,
  0x00, 0x00, 0x00, 0x00, 0xcf, 0x00, 0x00, 0x00, 0x00, 0x00, 0x00, 0x00,
  0x00, 0x00, 0x30, 0x00, 0x00, 0x00, 0x00, 0x00, 0x2f, 0x00, 0x00, 0x30,
  0x00, 0x00, 0x00, 0x00, 0x00, 0x00, 0x00, 0x00, 0x00, 0x00, 0x00, 0x00,
  0x00, 0x2e, 0x00, 0x00, 0x42, 0xb2, 0x00, 0x00, 0x00, 0x00, 0x38, 0x36,
  0xd3, 0xc8, 0x00, 0xbc, 0x00, 0x00, 0x2f, 0x00, 0x00, 0x00, 0x00, 0x00,
  0x00, 0xcf, 0x37, 0x00, 0x00, 0x00, 0x00, 0x00, 0xa8, 0x00, 0x00, 0x00,
  0x00, 0x00, 0x90, 0x00, 0x00, 0x00, 0x00, 0x00, 0xa9, 0xc2, 0x00, 0x00,
  0x00, 0x00, 0x00, 0x00, 0x00, 0x00, 0x00, 0x00, 0xbc, 0x00, 0x38, 0x00,
  0x00, 0x00, 0x00, 0x00, 0x00, 0x00, 0x00, 0x00, 0x00, 0x00, 0xa7, 0x00,
  0x00, 0x00, 0x00, 0x00, 0x00, 0xa4, 0x00, 0xd1, 0x00, 0x00, 0x3a, 0x00,
  0x00, 0x00, 0x00, 0x00, 0x00, 0x00, 0x00, 0x3f, 0xd4, 0x00, 0x00, 0x00,
  0x00, 0x00, 0x00, 0x00, 0x31, 0x00, 0xa2, 0x00, 0x36, 0x00, 0x00, 0x2e,
  0x00, 0x00, 0x2c, 0x00, 0x00, 0x00, 0x00, 0x00, 0x25, 0x00, 0x00, 0x00,
  0x00, 0x00, 0x00, 0x00, 0x00, 0x00, 0x00, 0x00, 0x00, 0x26, 0x00, 0x2a,
  0xd6, 0x00, 0x00, 0xc9, 0x00, 0x31, 0x24, 0x00, 0x00, 0xcc, 0xc2, 0x00,
  0x00, 0xce, 0xa7, 0x00, 0x00, 0x00, 0x00, 0xd0, 0x00, 0x00, 0xbf, 0x00,
  0x00, 0xcf, 0x00, 0x00, 0x30, 0x00, 0x32, 0x00, 0x00, 0x00, 0x00, 0x00,
  0x00, 0xb7, 0x00, 0x00, 0x00, 0x00, 0xcf, 0x00, 0x33, 0x29, 0x81, 0x00,
  0x00, 0x00, 0x00, 0x00, 0xcd, 0xd2, 0x00, 0xc5, 0xcc, 0x00, 0x00, 0x00,
  0xc8, 0x00, 0xc9, 0x00, 0x00, 0x00, 0xca, 0x00, 0x00, 0x95, 0x00, 0x00,
  0xdd, 0x00, 0x00, 0x00, 0x00, 0xdb, 0x00, 0xd8, 0x00, 0x00, 0xd9, 0x00,
  0x00, 0x00, 0x00, 0x00, 0x00, 0x00, 0x00, 0x00, 0x00, 0xdc, 0x00, 0xd2,
  0xd7, 0x00, 0x00, 0xc2, 0xd4, 0x00, 0x00, 0xde, 0x00, 0x00, 0xca, 0x00,
  0x00, 0x00, 0xc4, 0x00, 0xd0, 0x00, 0x00, 0x00, 0x00, 0x00, 0x00, 0x00,
  0x00, 0x00, 0x00, 0xd9, 0x00, 0x00, 0x00, 0x00, 0x00, 0x00, 0x00, 0x00,
  0x00, 0xb1, 0x00, 0x00, 0xbd, 0xcf, 0xbe, 0x00, 0x29, 0x00, 0xb9, 0x00,
  0x00, 0x00, 0x00, 0x00, 0xd9, 0xda, 0x00, 0x00, 0x00, 0xd4, 0x00, 0x00,
  0x00, 0x00, 0x00, 0x00, 0x00, 0x00, 0xd2, 0x00, 0x00, 0xb2, 0x00, 0x00,
  0x4b, 0x7a, 0x00, 0x00, 0x00, 0x00, 0x00, 0x00, 0x00, 0x4b, 0x00, 0x00,
  0x48, 0x54, 0x42, 0x00, 0xbc, 0x00, 0x00, 0x24, 0x00, 0x00, 0x00, 0x36,
  0x00, 0x00, 0x4f, 0x00, 0x00, 0x2b, 0x00, 0x00, 0x50, 0x40, 0x00, 0x00,
  0x00, 0x00, 0x00, 0x00, 0x00, 0x45, 0x00, 0x25, 0x31, 0x00, 0x00, 0x00,
  0x99, 0x00, 0x00, 0x00, 0x29, 0x00, 0x00, 0x00, 0x00, 0x00, 0x3b, 0x00,
  0x00, 0x00, 0x00, 0x00, 0x00, 0x44, 0x00, 0xce, 0x00, 0x00, 0xca, 0x00,
  0x00, 0x00, 0x23, 0x22, 0x39, 0x00, 0x00, 0x00, 0x00, 0x00, 0x00, 0x26,
  0x00, 0x00, 0x00, 0x00, 0x00, 0xd0, 0x27, 0x00, 0x00, 0x00, 0x26, 0x2b,
  0x45, 0x58, 0x00, 0x2c, 0x00, 0x00, 0xd3, 0x00, 0xb0, 0x00, 0x00, 0xd8,
  0x00, 0x00, 0x00, 0x00, 0x00, 0x00, 0x00, 0x00, 0x00, 0xd7, 0x00, 0xcf,
  0x00, 0xd9, 0x00, 0x3f, 0x00, 0xb7, 0x00, 0x00, 0x00, 0x00, 0x00, 0x00,
  0x00, 0x00, 0x00, 0x00, 0x00, 0x00, 0x3d, 0x00, 0x4f, 0x3d, 0x00, 0x00,
  0xb3, 0x00, 0x2f, 0x00, 0x00, 0x00, 0x00, 0x35, 0x30, 0xcc, 0x00, 0x52,
  0x00, 0x00, 0x39, 0x00, 0x00, 0x31, 0x00, 0xb9, 0x2f, 0x00, 0xba, 0x00,
  0x00, 0x00, 0x00, 0x00, 0x2e, 0x00, 0x00, 0x00, 0x00, 0x00, 0x00, 0x00,
  0x00, 0x00, 0x00, 0x00, 0x00, 0xcd, 0x3e, 0x00, 0x00, 0x00, 0x00, 0x00,
  0x00, 0x36, 0x00, 0xc0, 0x00, 0x00, 0x00, 0x00, 0x00, 0x36, 0x00, 0x00,
  0x2f, 0x00, 0x00, 0x00, 0x00, 0xbd, 0x00, 0x00, 0x00, 0x00, 0x00, 0x00,
  0xc0, 0xbd, 0x2e, 0x00, 0x00, 0x00, 0x00, 0x00, 0x00, 0xc8, 0x00, 0xba,
  0x00, 0x00, 0xc7, 0x3c, 0x00, 0x00, 0x37, 0x00, 0xd1, 0x00, 0x00, 0x00,
  0x00, 0x00, 0x00, 0x00, 0x00, 0x00, 0x00, 0x00, 0xcc, 0xdb, 0xdb, 0xbc,
  0x00, 0x00, 0x00, 0x00, 0x00, 0xc0, 0x00, 0x00, 0x2a, 0x00, 0x41, 0x27,
  0x00, 0x00, 0x00, 0x00, 0x00, 0x2d, 0x00, 0x2f, 0xe0, 0x00, 0x00, 0x00,
  0x00, 0x00, 0x00, 0x00, 0x34, 0x00, 0x00, 0x00, 0x00, 0x00, 0x00, 0x00,
  0xaf, 0xc8, 0x44, 0xc8, 0x28, 0x00, 0x00, 0x00, 0x42, 0x00, 0x3b, 0x00,
  0x00, 0x00, 0x00, 0x00, 0x00, 0x00, 0x00, 0x00, 0xd0, 0x00, 0x00, 0x00,
  0x00, 0x30, 0x00, 0x00, 0x2d, 0x00, 0x00, 0x00, 0x00, 0x81, 0x00, 0xaa,
  0x00, 0x00, 0x00, 0x00, 0x00, 0x00, 0x00, 0x00, 0x00, 0x00, 0x00, 0x00,
  0x00, 0x00, 0x00, 0x00, 0xd5, 0x00, 0xcf, 0x00, 0x00, 0x00, 0x00, 0xa8,
  0x00, 0x00, 0x00, 0x00, 0xbd, 0xaa, 0x00, 0x00, 0x00, 0x00, 0x00, 0x00,
  0x00, 0xce, 0x00, 0x00, 0x00, 0x00, 0x28, 0x00, 0x00, 0x30, 0x00, 0x00,
  0x00, 0x00, 0x00, 0xd9, 0x00, 0x00, 0x00, 0xb7, 0xce, 0x00, 0x00, 0x00,
  0x00, 0x00, 0x00, 0x00, 0x00, 0x00, 0x00, 0xce, 0x00, 0x00, 0x00, 0xc9,
  0x00, 0xbd, 0x00, 0x2b, 0x00, 0x00, 0x00, 0xd2, 0x00, 0x00, 0x00, 0xcf,
  0x00, 0x00, 0xc3, 0x00, 0x00, 0x00, 0x00, 0xdb, 0x00, 0x00, 0x00, 0x00,
  0x00, 0x00, 0xc0, 0x00, 0x00, 0x00, 0x00, 0x00, 0x00, 0x35, 0x00, 0x00,
  0x00, 0xe0, 0x00, 0x00, 0x00, 0x00, 0xdd, 0x00, 0x00, 0xcc, 0xc6, 0x00,
  0x3c, 0xc7, 0x00, 0x00, 0xdf, 0xd6, 0x49, 0x00, 0x00, 0x00, 0x00, 0x27,
  0x00, 0x24, 0x00, 0x00, 0x00, 0x00, 0x00, 0x00, 0x37, 0x00, 0x28, 0x00,
  0x00, 0x24, 0x00, 0x00, 0x00, 0x00, 0x00, 0x00, 0x00, 0x00, 0x00, 0x22,
  0x00, 0x00, 0x00, 0x00, 0x00, 0x00, 0xae, 0x00, 0x00, 0x00, 0x00, 0x00,
  0x00, 0x00, 0x00, 0xdf, 0x00, 0xb6, 0x00, 0x00, 0x00, 0x00, 0xc4, 0x00,
  0xd9, 0x00, 0x00, 0x00, 0x00, 0xd0, 0x00, 0x00, 0xdd, 0x00, 0x00, 0x00,
  0x00, 0x00, 0xd4, 0x00, 0x52, 0x00, 0x00, 0x00, 0x00, 0x24, 0x00, 0x41,
  0x7f, 0x00, 0x00, 0x00, 0x00, 0x00, 0xe3, 0x00, 0x00, 0x00, 0x00, 0x00,
  0x00, 0x28, 0x00, 0x00, 0xca, 0xb8, 0x31, 0x00, 0x00, 0x00, 0x00, 0x00,
  0x40, 0x00, 0x00, 0x00, 0x00, 0xce, 0x00, 0x00, 0x73, 0x24, 0x00, 0x00,
  0x2e, 0x23, 0x00, 0x00, 0x00, 0x00, 0xd5, 0x00, 0x00, 0x00, 0x00, 0x00,
  0xd9, 0x00, 0x3b, 0x29, 0x00, 0x00, 0x00, 0x00, 0x47, 0x00, 0x00, 0x00,
  0x00, 0x00, 0x00, 0x31, 0x3d, 0x00, 0x00, 0x00, 0x00, 0x00, 0x00, 0x00,
  0x00, 0x00, 0x00, 0x00, 0x00, 0x00, 0x00, 0x00, 0xcc, 0x00, 0x00, 0x00,
  0x00, 0x00, 0x00, 0x23, 0x00, 0x00, 0x00, 0x00, 0xdf, 0x00, 0x00, 0x00,
  0x00, 0x00, 0x00, 0x00, 0x38, 0x00, 0x00, 0x00, 0x00, 0x00, 0xd6, 0x00,
  0x00, 0x00, 0x00, 0x00, 0x00, 0x00, 0x00, 0x00, 0x00, 0x00, 0xd2, 0x00,
  0x00, 0x00, 0x00, 0x00, 0x00, 0x00, 0x00, 0x00, 0x00, 0x00, 0x00, 0x00,
  0x00, 0xe3, 0x00, 0x00, 0xcb, 0x00, 0xdc, 0x00, 0x00, 0x00, 0x00, 0x00,
  0x00, 0x39, 0x00, 0xa3, 0x00, 0x00, 0xb7, 0x00, 0x00, 0x00, 0x00, 0x00,
  0x00, 0x00, 0x00, 0x00, 0x00, 0x00, 0x00, 0x00, 0x00, 0x00, 0x00, 0x00,
  0x00, 0x00, 0x00, 0x00, 0x00, 0x00, 0x35, 0x00, 0x5f, 0x00, 0xbb, 0x00,
  0x00, 0x00, 0xc6, 0x00, 0x00, 0x00, 0x00, 0x00, 0x39, 0x51, 0x00, 0x00,
  0xae, 0x00, 0x00, 0x3d, 0x00, 0x00, 0x54, 0x00, 0x36, 0x00, 0x4f, 0xc0,
  0x00, 0xd0, 0x00, 0x00, 0x00, 0x59, 0xc4, 0xc1, 0x00, 0x00, 0x00, 0xcc,
  0x00, 0x00, 0x00, 0x00, 0x00, 0x00, 0x00, 0x00, 0x00, 0x00, 0x00, 0x00,
  0x00, 0x00, 0x00, 0x00, 0x00, 0x00, 0x00, 0xb9, 0x00, 0x00, 0x00, 0x00,
  0xba, 0xb2, 0x00, 0x98, 0x00, 0x00, 0x4b, 0x45, 0x00, 0x00, 0x00, 0x00,
  0x00, 0x00, 0x00, 0x00, 0x00, 0x00, 0x00, 0x00, 0xae, 0x3d, 0x00, 0x00,
  0x45, 0x4b, 0xbc, 0x00, 0x00, 0x3e, 0x00, 0x00, 0x00, 0x00, 0x00, 0x00,
  0x00, 0x35, 0x41, 0x3d, 0x00, 0x00, 0x00, 0x40, 0x00, 0x00, 0x00, 0x00,
  0x81, 0x3b, 0x00, 0x00, 0x00, 0x51, 0x00, 0x00, 0x4a, 0x45, 0x00, 0x44,
  0x00, 0x00, 0x31, 0x00, 0x51, 0x00, 0x00, 0x00, 0x00, 0x00, 0x36, 0x00,
  0x00, 0x00, 0x00, 0x00, 0x00, 0x00, 0x00, 0x00, 0x8a, 0x00, 0x00, 0x00,
  0x00, 0x00, 0x00, 0x00, 0x00, 0x00, 0x00, 0x00, 0x36, 0x51, 0x00, 0x3d,
  0x00, 0x93, 0x00, 0xcc, 0xc9, 0x00, 0x00, 0x00, 0x00, 0x00, 0x00, 0xc4,
  0x00, 0x00, 0x00, 0xc2, 0x00, 0x00, 0xc8, 0x00, 0x00, 0x00, 0xc9, 0xb9,
  0x00, 0x00, 0x00, 0x00, 0x00, 0x00, 0xb8, 0x00, 0x00, 0xb4, 0x00, 0xcd,
  0xbe, 0x00, 0x46, 0x00, 0xc2, 0xbf, 0x00, 0x00, 0x00, 0x00, 0x00, 0x00,
  0x92, 0x00, 0x00, 0x00, 0x00, 0x00, 0xcb, 0x00, 0x00, 0x00, 0xc6, 0x00,
  0x00, 0x00, 0x00, 0x00, 0x00, 0x00, 0x00, 0x00, 0x00, 0x00, 0x48, 0x00,
  0xc2, 0xb0, 0x00, 0x00, 0xb5, 0x00, 0x00, 0x3b, 0x00, 0x00, 0x00, 0x00,
  0xa6, 0x00, 0xa7, 0xc4, 0x43, 0x71, 0x00, 0x00, 0x00, 0x55, 0x00, 0x00,
  0x00, 0x47, 0x00, 0xcf, 0x00, 0x00, 0x00, 0x00, 0x00, 0x00, 0x00, 0x00,
  0x00, 0x38, 0x00, 0x00, 0x00, 0x00, 0x00, 0x00, 0x00, 0x00, 0x00, 0xd7,
  0x00, 0x00, 0x00, 0xa7, 0x00, 0x00, 0x00, 0x00, 0x00, 0x00, 0x34, 0x00,
  0xd3, 0x00, 0x37, 0x00, 0x00, 0x00, 0x00, 0x00, 0xd0, 0x38, 0x58, 0x00,
  0x00, 0x2f, 0xdd, 0x00, 0x00, 0x23, 0x00, 0x00, 0x00, 0x34, 0x00, 0x00,
  0x00, 0x00, 0x00, 0x00, 0x00, 0x00, 0x3a, 0x00, 0x00, 0x25, 0x56, 0x00,
  0x00, 0x00, 0x00, 0x00, 0x00, 0x00, 0x64, 0x00, 0x00, 0x39, 0x00, 0x00,
  0x00, 0x00, 0x00, 0x00, 0x53, 0x4c, 0x00, 0x00, 0x00, 0x00, 0x00, 0x00,
  0x33, 0x30, 0x00, 0xb3, 0x00, 0x00, 0xca, 0x00, 0x00, 0x32, 0x2c, 0x00,
  0x00, 0x32, 0x00, 0x00, 0xa4, 0x00, 0x00, 0x00, 0x00, 0x00, 0x00, 0x00,
  0x2e, 0x00, 0x2b, 0x00, 0x00, 0x00, 0x00, 0x00, 0x5b, 0x4f, 0xd1, 0xc5,
  0x00, 0x00, 0x00, 0x00, 0x00, 0x37, 0x00, 0xd4, 0x00, 0x00, 0x00, 0x00,
  0x8d, 0xbd, 0x00, 0x00, 0x00, 0x00, 0x2d, 0x00, 0x00, 0xaf, 0x27, 0xb2,
  0x00, 0xae, 0x00, 0x00, 0x29, 0x00, 0x00, 0xc7, 0xd9, 0xc2, 0x00, 0x00,
  0x00, 0x00, 0xc9, 0xd4, 0x3e, 0x00, 0x00, 0x00, 0xb5, 0x00, 0x00, 0x00,
  0x1d, 0x00, 0x00, 0xd8, 0x00, 0xd9, 0x36, 0xcc, 0x00, 0xd6, 0x00, 0x00,
  0x23, 0x00, 0x00, 0x00, 0x00, 0x00, 0x37, 0x00, 0x00, 0x00, 0x00, 0x00,
  0x00, 0x50, 0x3b, 0x2b, 0x81, 0x00, 0x00, 0x27, 0x00, 0x00, 0xd1, 0x27,
  0x00, 0x00, 0x00, 0x00, 0x00, 0x00, 0x00, 0x00, 0x00, 0x24, 0x00, 0xc0,
  0x00, 0x00, 0x00, 0x00, 0x00, 0x00, 0x00, 0x00, 0x00, 0x24, 0x2f, 0x00,
  0x9d, 0x39, 0x00, 0x00, 0x00, 0x00, 0x00, 0x00, 0x35, 0x00, 0x00, 0x00,
  0x00, 0x00, 0x00, 0x00, 0x38, 0x45, 0x00, 0xd5, 0x26, 0x00, 0x00, 0x00,
  0x00, 0x00, 0x00, 0x00, 0x00, 0x2b, 0x00, 0x00, 0xd4, 0x00, 0x00, 0x00,
  0x24, 0x00, 0x00, 0x24, 0x00, 0xc4, 0x00, 0x00, 0x00, 0xce, 0x00, 0x00,
  0x00, 0x00, 0x00, 0x00, 0xdc, 0xc8, 0x00, 0x00, 0x00, 0x00, 0x00, 0x00,
  0x00, 0xd3, 0x00, 0x00, 0x00, 0x00, 0xcd, 0xd9, 0x3a, 0x00, 0x00, 0xdf,
  0xdc, 0x00, 0x00, 0x00, 0x00, 0x00, 0x00, 0x00, 0x00, 0x1e, 0xbe, 0x38,
  0x00, 0xe4, 0xdc, 0x00, 0xd2, 0x00, 0x00, 0x00, 0x00, 0xb4, 0xd3, 0xcf,
  0x00, 0xc4, 0x00, 0xd7, 0xd5, 0x00, 0xd0, 0xd2, 0x00, 0xc6, 0xd2, 0x00,
  0x27, 0xd1, 0x00, 0x00, 0xdf, 0x00, 0x00, 0x24, 0x00, 0x30, 0xc9, 0x00,
  0x2a, 0x1d, 0x00, 0x00, 0x00, 0x27, 0xcb, 0x00, 0x00, 0x00, 0x00, 0x00,
  0x00, 0x00, 0x00, 0x00, 0x00, 0x00, 0x00, 0x28, 0x21, 0x00, 0x00, 0x00,
  0x00, 0x00, 0x00, 0x00, 0x00, 0xdc, 0x00, 0xcc, 0x00, 0x00, 0xcc, 0xbd,
  0x00, 0x00, 0x00, 0x00, 0x39, 0xda, 0xda, 0xcc, 0x00, 0x00, 0x00, 0x00,
  0x00, 0x00, 0x00, 0x25, 0x00, 0x00, 0x00, 0x00, 0x00, 0x00, 0xde, 0x25,
  0x00, 0x00, 0xa3, 0x00, 0x00, 0x00, 0x00, 0x00, 0x00, 0xd1, 0xc6, 0x00,
  0x00, 0xbb, 0x00, 0x00, 0x00, 0x00, 0xda, 0x00, 0x00, 0xa5, 0xde, 0x00,
  0x00, 0xcf, 0x00, 0x22, 0xca, 0xd9, 0x00, 0x00, 0x1e, 0x24, 0xb3, 0x24,
  0x2f, 0x00, 0x00, 0x23, 0x00, 0x00, 0x00, 0x1f, 0x7f, 0x00, 0x23, 0x00,
  0x00, 0x00, 0x00, 0x1d, 0x00, 0x00, 0x00, 0x00, 0x00, 0xd8, 0x00, 0x1b,
  0x00, 0x00, 0x00, 0x00, 0x00, 0x00, 0xd7, 0x00, 0x00, 0x00, 0x00, 0x00,
  0x00, 0x00, 0x00, 0x00, 0x00, 0xd5, 0x00, 0xe3, 0x00, 0x00, 0x00, 0xda,
  0x00, 0x00, 0x00, 0x20, 0x00, 0xdf, 0xe4, 0x00, 0xbf, 0xd6, 0x00, 0x43,
  0x00, 0x00, 0xbc, 0x00, 0x00, 0x1e, 0x1e, 0x00, 0x00, 0x00, 0xd7, 0x00,
  0x00, 0x00, 0x2a, 0x00, 0x00, 0x00, 0x00, 0x00, 0x00, 0xbf, 0x00, 0x00,
  0x00, 0xe4, 0x1c, 0x00, 0x00, 0xd2, 0x00, 0x00, 0x00, 0x00, 0xb4, 0x1d,
  0x00, 0x00, 0x00, 0x00, 0x00, 0x00, 0xcc, 0x00, 0x54, 0xdd, 0x00, 0x00,
  0x50, 0x21, 0x3a, 0x00, 0x00, 0x00, 0x37, 0x00, 0x00, 0x00, 0x23, 0x00,
  0x00, 0x00, 0x00, 0x00, 0x00, 0x00, 0xd1, 0x00, 0x00, 0x00, 0x00, 0x00,
  0x00, 0x00, 0x00, 0x00, 0x00, 0x00, 0x00, 0x00, 0x00, 0x00, 0x1b, 0x00,
  0x00, 0x00, 0x00, 0xd2, 0x00, 0xd8, 0x00, 0x00, 0xc7, 0xdb, 0x00, 0xe0,
  0x00, 0x00, 0x00, 0x00, 0x00, 0x00, 0x00, 0x00, 0xc3, 0x00, 0x00, 0x00,
  0xd1, 0x2e, 0x00, 0x00, 0x00, 0x00, 0x00, 0x00, 0x00, 0x22, 0x00, 0x00,
  0x00, 0x24, 0x00, 0x00, 0xd4, 0x00, 0x00, 0x00, 0x00, 0x00, 0x00, 0x29,
  0x00, 0x00, 0x2a, 0x00, 0x00, 0x00, 0x00, 0x00, 0x00, 0x00, 0x1f, 0x00,
  0x00, 0x00, 0x00, 0x00, 0x22, 0x00, 0x00, 0x1e, 0x00, 0x00, 0x00, 0x00,
  0x2a, 0x00, 0x00, 0xad, 0x00, 0xcf, 0xaa, 0x00, 0x00, 0x25, 0x00, 0x00,
  0x32, 0x00, 0xd4, 0x00, 0xbb, 0xd7, 0x00, 0x00, 0x32, 0x00, 0x00, 0x00,
  0x00, 0xc3, 0x39, 0x00, 0x00, 0x00, 0x00, 0x00, 0x00, 0x00, 0x00, 0xb3,
  0xdf, 0x00, 0x00, 0xda, 0x00, 0x00, 0xc8, 0x00, 0x00, 0x31, 0x00, 0x00,
  0x00, 0x00, 0x00, 0x00, 0x00, 0x00, 0x00, 0xc3, 0x00, 0x00, 0x00, 0x00,
  0x00, 0x00, 0x00, 0x00, 0xbd, 0xd3, 0xe1, 0x00, 0xe0, 0x00, 0x34, 0x00,
  0x00, 0xd5, 0x00, 0x00, 0xd4, 0x31, 0x00, 0x00, 0xce, 0x00, 0x00, 0x00,
  0x00, 0x00, 0x00, 0xd2, 0x53, 0x00, 0x00, 0x00, 0x00, 0x00, 0x00, 0x00,
  0x21, 0x00, 0x00, 0xcc, 0x00, 0x00, 0x00, 0x00, 0x00, 0x00, 0x00, 0x2b,
  0x00, 0x00, 0x55, 0x00, 0x81, 0x3b, 0x00, 0x00, 0x00, 0x28, 0x00, 0x1d,
  0x33, 0x00, 0x00, 0x35, 0x00, 0x2d, 0x00, 0x00, 0x43, 0x29, 0xd7, 0xda,
  0x00, 0x00, 0x00, 0x00, 0x00, 0x00, 0x00, 0x00, 0x2f, 0x33, 0x2a, 0x00,
  0x88, 0x00, 0x00, 0x20, 0x42, 0x00, 0x33, 0x27, 0x42, 0xdd, 0x37, 0x00,
  0x00, 0x00, 0x00, 0x1e, 0x2a, 0x35, 0x00, 0x00, 0x00, 0xdc, 0x00, 0x00,
  0x00, 0x00, 0x00, 0xde, 0x34, 0x00, 0x00, 0xdd, 0x00, 0x00, 0x00, 0x00,
  0x43, 0x00, 0x2b, 0x00, 0x00, 0xd3, 0x2c, 0x00, 0x00, 0xd7, 0x00, 0x00,
  0xb0, 0x00, 0xbc, 0x00, 0x00, 0x00, 0xd3, 0x00, 0xc9, 0xd9, 0x00, 0x00,
  0xd2, 0x00, 0x35, 0xd6, 0xaf, 0x00, 0x00, 0x00, 0x00, 0x2d, 0x00, 0x00,
  0x00, 0x00, 0xb4, 0x49, 0x36, 0x00, 0x00, 0x27, 0x00, 0xc2, 0x00, 0x00,
  0x00, 0x00, 0x81, 0x27, 0x00, 0x00, 0x00, 0x35, 0x25, 0x00, 0x00, 0x00,
  0xcb, 0xd9, 0x00, 0x00, 0x00, 0x00, 0x33, 0x31, 0x00, 0x8b, 0x35, 0x00,
  0x00, 0x00, 0x00, 0x00, 0x2f, 0x00, 0x00, 0xd2, 0x00, 0x00, 0xd5, 0x00,
  0x38, 0x00, 0x00, 0x00, 0x33, 0x4f, 0xd4, 0x00, 0x00, 0xd1, 0x00, 0x00,
  0x75, 0x00, 0x38, 0x00, 0x00, 0xd8, 0x47, 0x00, 0xd2, 0x00, 0x00, 0x00,
  0xc9, 0x00, 0xb2, 0x00, 0x00, 0x2a, 0xc0, 0x00, 0xbf, 0x00, 0x00, 0x00,
  0xcd, 0x00, 0x00, 0x00, 0xa2, 0xc5, 0x00, 0xcd, 0xa5, 0x00, 0x00, 0x00,
  0x25, 0x00, 0x00, 0x30, 0x00, 0xc5, 0x00, 0x00, 0x00, 0xbe, 0xca, 0xdc,
  0x00, 0x31, 0xb6, 0x00, 0x00, 0x00, 0x00, 0x21, 0x00, 0x1d, 0x2c, 0xd9,
  0x00, 0x00, 0x00, 0x00, 0x00, 0x00, 0x00, 0x00, 0x31, 0x00, 0x00, 0x41,
  0x00, 0xd4, 0x00, 0x00, 0x55, 0x00, 0x00, 0xc6, 0x00, 0x00, 0xd7, 0x00,
  0x00, 0x00, 0x22, 0x00, 0x3d, 0x00, 0xd3, 0xe0, 0xb2, 0x00, 0xdd, 0x00,
  0x4d, 0x00, 0x5f, 0x00, 0x27, 0xa8, 0x5c, 0x00, 0x00, 0xdb, 0x00, 0x00,
  0xd6, 0xd6, 0xd1, 0x00, 0x00, 0x00, 0x00, 0x00, 0x00, 0x00, 0xda, 0x00,
  0x00, 0x00, 0x00, 0x00, 0x00, 0xdd, 0x00, 0x00, 0x94, 0x00, 0xb7, 0x00,
  0x00, 0xd0, 0xd1, 0x00, 0x00, 0xd2, 0x00, 0x00, 0x00, 0x00, 0x00, 0xda,
  0x00, 0x00, 0x00, 0x00, 0x00, 0x00, 0x00, 0x00, 0x00, 0xcd, 0x00, 0x00,
  0x9b, 0x00, 0x00, 0x00, 0x00, 0x00, 0x00, 0x00, 0x00, 0xc3, 0x00, 0x00,
  0x00, 0x00, 0x00, 0x00, 0x00, 0x27, 0x00, 0xd9, 0x1f, 0x00, 0x00, 0x00,
  0x00, 0x00, 0x00, 0x00, 0x00, 0x00, 0x00, 0x00, 0xb1, 0x00, 0x00, 0x00,
  0x00, 0x00, 0x00, 0x00, 0x23, 0xd5, 0x42, 0x38, 0x32, 0x00, 0x00, 0x00,
  0x35, 0x29, 0x00, 0xd5, 0x00, 0x00, 0x00, 0x00, 0x27, 0x00, 0x00, 0x00,
  0x35, 0x2b, 0x00, 0x24, 0xdb, 0x00, 0x00, 0x00, 0x00, 0x00, 0x00, 0x00,
  0x00, 0x00, 0x00, 0x00, 0x00, 0x00, 0x00, 0x00, 0x00, 0x00, 0xda, 0xc2,
  0x00, 0x00, 0x00, 0x00, 0x00, 0x00, 0x00, 0x00, 0x00, 0x00, 0x00, 0x00,
  0xc4, 0x00, 0x00, 0x00, 0x00, 0x00, 0x00, 0x00, 0x00, 0x00, 0x33, 0xd0,
  0x00, 0x00, 0x00, 0x00, 0x00, 0x00, 0x00, 0x00, 0x00, 0xd2, 0xbb, 0x00,
  0x00, 0x00, 0x00, 0xd5, 0x00, 0x00, 0xc5, 0x00, 0x00, 0x00, 0x00, 0x00,
  0x00, 0x00, 0x00, 0x00, 0x00, 0x00, 0x00, 0xcc, 0x00, 0x00, 0x00, 0xd9,
  0x2b, 0x00, 0x00, 0xc9, 0x00, 0x24, 0x00, 0x00, 0x00, 0x29, 0x2e, 0x00,
  0x00, 0x00, 0x3e, 0x21, 0x81, 0x2f, 0x00, 0x00, 0x00, 0x00, 0x00, 0x00,
  0x36, 0x00, 0x00, 0x00, 0x00, 0x00, 0x00, 0x00, 0x30, 0x00, 0x00, 0xc1,
  0x00, 0x00, 0xd4, 0x1f, 0x00, 0x1e, 0x2a, 0x2c, 0x00, 0x00, 0x00, 0x00,
  0x00, 0x00, 0x00, 0x00, 0x00, 0x00, 0x00, 0x00, 0x38, 0x00, 0x00, 0x00,
  0x00, 0x00, 0x00, 0x00, 0x1f, 0x00, 0x00, 0xa9, 0x00, 0x00, 0xb5, 0x00,
  0x00, 0x00, 0x00, 0x00, 0x31, 0x00, 0x00, 0x00, 0xd0, 0xc8, 0x00, 0x00,
  0x00, 0x00, 0x35, 0x00, 0xcd, 0xa0, 0x42, 0xca, 0x00, 0xd4, 0x00, 0x00,
  0x00, 0xab, 0x00, 0xd2, 0x00, 0x00, 0x00, 0x00, 0x00, 0xc7, 0x00, 0x00,
  0x00, 0xd1, 0x24, 0x23, 0xbf, 0x00, 0x00, 0xc5, 0xc4, 0x00, 0xd4, 0x00,
  0x2e, 0x00, 0xc5, 0x00, 0x00, 0x00, 0x00, 0x00, 0xd9, 0x00, 0x00, 0x00,
  0x2a, 0x00, 0xde, 0x00, 0xcf, 0x00, 0x00, 0x00, 0x00, 0x00, 0x00, 0x00,
  0xa7, 0x00, 0x00, 0x00, 0xcc, 0x25, 0x00, 0x00, 0x00, 0x00, 0x00, 0x38,
  0x00, 0x00, 0x21, 0x00, 0x00, 0x00, 0x00, 0x00, 0x00, 0x00, 0x00, 0x00,
  0x00, 0x00, 0x00, 0x2c, 0x35, 0x00, 0x00, 0x00, 0xd7, 0x00, 0x00, 0x31,
  0x00, 0x00, 0x00, 0x2b, 0x00, 0xd0, 0x00, 0x46, 0x00, 0x00, 0x28, 0x00,
  0xc3, 0x00, 0x00, 0x00, 0x00, 0x00, 0x00, 0x00, 0x00, 0xdd, 0x00, 0x00,
  0xd8, 0xcd, 0x00, 0x00, 0x00, 0x00, 0x00, 0x00, 0x00, 0x00, 0x00, 0x00,
  0x00, 0x00, 0xc4, 0x28, 0x00, 0x00, 0x00, 0x00, 0x00, 0x00, 0xdb, 0x46,
  0x00, 0x00, 0x00, 0x00, 0x00, 0x00, 0x00, 0x2d, 0x00, 0x00, 0x00, 0x00,
  0x00, 0x00, 0x00, 0x00, 0x00, 0x00, 0x00, 0x31, 0x00, 0x00, 0x00, 0x00,
  0x00, 0x00, 0x00, 0x2d, 0x2f, 0x34, 0x00, 0x21, 0x2c, 0x00, 0x00, 0x00,
  0x00, 0x00, 0x00, 0x00, 0x00, 0x00, 0x00, 0x00, 0x00, 0x25, 0x33, 0x23,
  0x00, 0x00, 0x00, 0x00, 0x00, 0x00, 0x26, 0x00, 0x00, 0x00, 0x31, 0x00,
  0x00, 0xb4, 0xc8, 0x00, 0xd9, 0xdf, 0x00, 0x00, 0xc6, 0xbd, 0xc2, 0xc3,
  0xb7, 0x00, 0x00, 0xe0, 0x00, 0xde, 0xc8, 0xb6, 0x00, 0x00, 0x00, 0x00,
  0x00, 0x00, 0x00, 0x00, 0x00, 0x00, 0xda, 0xc2, 0x00, 0xc0, 0x24, 0x00,
  0x00, 0x00, 0x40, 0x00, 0x00, 0xd3, 0x00, 0x00, 0x00, 0x00, 0x34, 0x00,
  0x00, 0x26, 0x00, 0x00, 0x00, 0x00, 0x00, 0x00, 0x00, 0x00, 0x00, 0x30,
  0x00, 0x00, 0x00, 0x00, 0x00, 0x00, 0x5a, 0x00, 0x00, 0x3b, 0x5a, 0x00,
  0x00, 0x00, 0x35, 0x00, 0x00, 0x00, 0x4f, 0x29, 0xe0, 0x4e, 0x00, 0x00,
  0xda, 0x00, 0x00, 0x34, 0x00, 0x56, 0x00, 0x00, 0x00, 0x49, 0x00, 0x00,
  0x00, 0x00, 0xb1, 0x00, 0xd6, 0xac, 0x00, 0xc3, 0xcf, 0xc3, 0xcf, 0xa0,
  0x00, 0xd9, 0x00, 0xcc, 0x00, 0x00, 0xcd, 0xb7, 0xd0, 0xca, 0xdd, 0xb6,
  0xd8, 0x00, 0x00, 0x00, 0xbf, 0xcc, 0x00, 0xd7, 0x00, 0x00, 0x00, 0x00,
  0xd0, 0x00, 0x4f, 0xd9, 0xb1, 0x00, 0xcd, 0xcc, 0x00, 0x00, 0x00, 0xd8,
  0xca, 0x00, 0xd9, 0xc5, 0x00, 0xde, 0x00, 0x00, 0x00, 0x00, 0x00, 0x00,
  0xd0, 0x00, 0xc2, 0xdb, 0x00, 0x00, 0x39, 0x00, 0xc1, 0x00, 0x7f, 0x00,
  0x00, 0xcc, 0xc9, 0xc7, 0xcc, 0x00, 0x47, 0x00, 0x00, 0x00, 0xdb, 0xba,
  0xd4, 0x00, 0xaf, 0xd4, 0x00, 0x6d, 0xbd, 0xcd, 0xd3, 0x00, 0x00, 0xbc,
  0xb9, 0xe0, 0x00, 0x00, 0x00, 0x00, 0xc7, 0x00, 0x00, 0x00, 0x00, 0x00,
  0x00, 0x99, 0x00, 0x00, 0x00, 0x00, 0x00, 0x00, 0xd2, 0x00, 0xd3, 0x00,
  0x00, 0x00, 0xbd, 0x23, 0x1f, 0x00, 0x00, 0x00, 0x00, 0xd3, 0x00, 0x2e,
  0x00, 0x00, 0x94, 0x1f, 0x2c, 0x00, 0x00, 0x27, 0x00, 0x00, 0xc9, 0x00,
  0x00, 0xd7, 0x24, 0x00, 0x2b, 0x00, 0x00, 0x00, 0x00, 0x00, 0x00, 0x00,
  0x28, 0xe6, 0x00, 0x00, 0xde, 0xe3, 0x28, 0x00, 0x00, 0x00, 0x00, 0x00,
  0x00, 0x00, 0x00, 0x00, 0x00, 0x1c, 0x00, 0x00, 0x00, 0x00, 0x00, 0x24,
  0x23, 0x00, 0x00, 0x00, 0xbe, 0x00, 0x00, 0x00, 0x00, 0x00, 0x00, 0x00,
  0x00, 0xc9, 0xb9, 0x27, 0x00, 0x20, 0xbe, 0x00, 0xde, 0xe2, 0x00, 0x00,
  0xbe, 0xb6, 0xdf, 0x00, 0x00, 0xe0, 0x00, 0xd8, 0xc8, 0x00, 0xbc, 0xe0,
  0x2a, 0xb2, 0xa7, 0x36, 0x00, 0xbf, 0x00, 0x00, 0x00, 0xda, 0x00, 0x30,
  0x21, 0x2b, 0x81, 0x00, 0x00, 0x00, 0x2b, 0x33, 0x00, 0x00, 0x00, 0x00,
  0x39, 0x00, 0x00, 0x1c, 0x2b, 0x2e, 0x32, 0x00, 0x00, 0xbf, 0x00, 0x29,
  0x24, 0x00, 0x28, 0x20, 0x00, 0x00, 0x00, 0xc7, 0xd9, 0xdd, 0xcc, 0x00,
  0x25, 0xe4, 0x00, 0x00, 0x00, 0x00, 0xba, 0x00, 0x00, 0x00, 0x00, 0x00,
  0x2b, 0x00, 0x00, 0x00, 0xde, 0x00, 0x31, 0xc1, 0x00, 0x00, 0x00, 0xd6,
  0xb1, 0xca, 0x00, 0x32, 0x00, 0x00, 0xa4, 0x00, 0xcb, 0x00, 0x00, 0x00,
  0x00, 0xb7, 0x00, 0xbf, 0xcc, 0xd0, 0x00, 0x00, 0x00, 0x00, 0xba, 0x00,
  0x00, 0x00, 0xab, 0x25, 0x21, 0xaf, 0x00, 0x00, 0x00, 0xcd, 0x00, 0x3e,
  0x00, 0x2b, 0xc8, 0x00, 0x00, 0x00, 0x2c, 0x00, 0x00, 0x00, 0xd5, 0x00,
  0x00, 0xda, 0x00, 0x00, 0x00, 0x00, 0x00, 0x00, 0x00, 0xd8, 0x00, 0x38,
  0x00, 0xd9, 0x00, 0x00, 0x30, 0x00, 0x20, 0xdd, 0xe4, 0xdb, 0x00, 0x00,
  0x1f, 0x1b, 0x00, 0xe0, 0x00, 0x38, 0xde, 0xda, 0x00, 0x00, 0x00, 0x00,
  0x32, 0x00, 0x00, 0x00, 0xda, 0x00, 0x42, 0x00, 0x00, 0x00, 0x00, 0xe2,
  0x00, 0x00, 0x00, 0x00, 0x00, 0x00, 0x00, 0x00, 0x00, 0x00, 0x00, 0x00,
  0x00, 0x00, 0x00, 0x00, 0x00, 0x33, 0x00, 0x00, 0x00, 0x00, 0x00, 0x00,
  0x00, 0x00, 0x00, 0x00, 0xcf, 0x00, 0x00, 0xc8, 0x00, 0x00, 0x00, 0x00,
  0xc9, 0xb6, 0x00, 0xbe, 0x00, 0xcf, 0xb5, 0xca, 0x00, 0xa4, 0xc5, 0x00,
  0x71, 0x00, 0x00, 0xb3, 0x00, 0x00, 0x00, 0x00, 0x00, 0x00, 0x00, 0x00,
  0x00, 0x00, 0x00, 0x00, 0x00, 0x47, 0x00, 0x31, 0x00, 0x00, 0x00, 0xc1,
  0xd3, 0x00, 0xd6, 0x00, 0x00, 0x93, 0x8c, 0xd4, 0x00, 0xc0, 0x00, 0xd7,
  0x81, 0xbe, 0x94, 0xc9, 0x00, 0xc7, 0xa8, 0x00, 0x00, 0xbd, 0x00, 0x00,
  0x00, 0x00, 0x00, 0xca, 0x00, 0x00, 0x00, 0x00, 0x00, 0x00, 0x00, 0x00,
  0x00, 0x00, 0x00, 0x00, 0x46, 0x00, 0x00, 0x00, 0x00, 0xd1, 0x00, 0x00,
  0xb6, 0x00, 0x31, 0x00, 0x00, 0x00, 0xd3, 0x00, 0x00, 0x00, 0xc7, 0x43,
  0x00, 0x00, 0xa0, 0x00, 0xb5, 0x00, 0x00, 0x00, 0x00, 0x9d, 0x90, 0xc5,
  0x53, 0xbf, 0x00, 0x00, 0x00, 0x00, 0x00, 0x00, 0x00, 0xcb, 0x00, 0x45,
  0x40, 0x8d, 0x00, 0x35, 0x00, 0x00, 0x42, 0x00, 0x3a, 0x00, 0xac, 0x00,
  0x00, 0x00, 0x00, 0x3f, 0x00, 0x00, 0x83, 0x00, 0x00, 0x00, 0x33, 0x52,
  0x00, 0x00, 0xc1, 0x3c, 0x00, 0x89, 0x00, 0x43, 0x72, 0xc2, 0x00, 0x3a,
  0x00, 0x00, 0xb5, 0xd4, 0x00, 0x00, 0x00, 0x00, 0x00, 0x00, 0x00, 0x00,
  0x00, 0x00, 0x00, 0x00, 0x00, 0x00, 0x00, 0x00, 0x47, 0x00, 0x00, 0x00,
  0x00, 0x00, 0x00, 0x00, 0x00, 0xd2, 0x00, 0x00, 0x00, 0x38, 0x00, 0x4b,
  0x00, 0x00, 0xca, 0x30, 0x00, 0x00, 0x00, 0x00, 0x00, 0xa8, 0x00, 0x00,
  0x00, 0x00, 0x00, 0x2e, 0x00, 0x00, 0xaf, 0x00, 0x00, 0xb1, 0x00, 0x00,
  0x61, 0xcd, 0x31, 0x00, 0x00, 0xc8, 0x64, 0x00, 0x32, 0x4c, 0xc9, 0x00,
  0x45, 0x00, 0x00, 0x3d, 0x00, 0xbd, 0x00, 0x00, 0x52, 0x00, 0x4b, 0x53,
  0x00, 0x00, 0x00, 0x32, 0xcb, 0x00, 0x00, 0xb7, 0x00, 0x00, 0x45, 0x00,
  0xd9, 0x00, 0x00, 0x00, 0xdf, 0xcf, 0x00, 0x00, 0x00, 0xd6, 0x00, 0x00,
  0x00, 0x00, 0x00, 0x00, 0x4c, 0x00, 0x00, 0x00, 0x00, 0x00, 0x2a, 0x00,
  0x00, 0x00, 0x00, 0xd7, 0xda, 0x00, 0xcc, 0x00, 0x00, 0x00, 0xc0, 0x00,
  0x00, 0xbc, 0x00, 0xc3, 0xc2, 0xdc, 0xc6, 0xbc, 0x00, 0xb4, 0x9d, 0x00,
  0x00, 0xae, 0x00, 0xbb, 0x00, 0xd0, 0xd1, 0xbb, 0x00, 0xd0, 0xbf, 0x00,
  0xde, 0xa7, 0xd1, 0x00, 0x00, 0x00, 0x00, 0x39, 0x00, 0x00, 0x98, 0x00,
  0x00, 0x26, 0x00, 0x00, 0xdd, 0xcb, 0x81, 0xbb, 0x00, 0xbd, 0x28, 0x00,
  0xa4, 0xd1, 0x00, 0x00, 0xcc, 0xb3, 0x00, 0x2e, 0x00, 0xd6, 0x00, 0x00,
  0x00, 0x00, 0x00, 0x00, 0xd5, 0xbf, 0x00, 0x00, 0x00, 0x00, 0x00, 0xd8,
  0xc2, 0xbe, 0xc3, 0x00, 0x00, 0x00, 0xc9, 0x00, 0x00, 0x00, 0x00, 0xbd,
  0x00, 0x00, 0xbb, 0x00, 0x00, 0x00, 0xcc, 0x00, 0x00, 0x00, 0x98, 0x00,
  0x00, 0x00, 0xdb, 0x00, 0x00, 0x00, 0x00, 0xda, 0x00, 0xbe, 0xc7, 0xb7,
  0x00, 0xc5, 0x00, 0x00, 0xbf, 0x00, 0x00, 0x00, 0x00, 0xb8, 0xd5, 0x00,
  0x24, 0xc9, 0x00, 0x00, 0xde, 0x00, 0x00, 0x00, 0x00, 0x24, 0xc2, 0x00,
  0x00, 0x2c, 0x00, 0x31, 0x00, 0x00, 0x00, 0x00, 0x34, 0xd3, 0x00, 0x00,
  0xdd, 0x00, 0x00, 0x00, 0xc4, 0x00, 0xdc, 0x00, 0x3d, 0x00, 0x00, 0x2b,
  0x3e, 0x00, 0xb3, 0x00, 0x00, 0x00, 0xcd, 0xc9, 0xd6, 0x29, 0x00, 0xd8,
  0x23, 0xd7, 0x00, 0x00, 0x39, 0xcc, 0x2f, 0x00, 0x00, 0x00, 0x00, 0x00,
  0x00, 0x00, 0x00, 0x36, 0x00, 0xc0, 0x00, 0x00, 0x00, 0x34, 0x00, 0x26,
  0x00, 0x00, 0xa3, 0x00, 0x00, 0x00, 0x00, 0x00, 0x35, 0x32, 0x00, 0xdf,
  0x00, 0x00, 0x00, 0x3e, 0x2e, 0x00, 0x00, 0x00, 0xcf, 0x00, 0x00, 0x2b,
  0x3c, 0x9f, 0x00, 0x39, 0x00, 0x00, 0x00, 0x00, 0x00, 0x00, 0xc0, 0x00,
  0x37, 0x00, 0x00, 0x00, 0x00, 0x33, 0x00, 0x33, 0x52, 0x00, 0x00, 0x00,
  0x57, 0x00, 0x3f, 0x26, 0xc7, 0x00, 0x00, 0x00, 0x00, 0x00, 0x27, 0x00,
  0x24, 0x00, 0x00, 0x00, 0x31, 0x00, 0x00, 0x00, 0x00, 0x00, 0x2f, 0x00,
  0x00, 0xdd, 0x00, 0x00, 0xd3, 0x00, 0x00, 0x00, 0x00, 0x00, 0x37, 0x00,
  0x00, 0x00, 0x00, 0x00, 0x00, 0x00, 0x00, 0x26, 0x2a, 0x46, 0x00, 0x24,
  0x2c, 0x00, 0x00, 0x00, 0x00, 0x00, 0x00, 0x00, 0x00, 0x00, 0x00, 0x00,
  0x00, 0x00, 0x00, 0x00, 0x26, 0x00, 0x39, 0x00, 0x00, 0x00, 0x3c, 0x00,
  0x00, 0x00, 0x00, 0x00, 0x25, 0x2d, 0x42, 0x00, 0x00, 0x29, 0x2b, 0x2e,
  0x2a, 0x2e, 0x00, 0x00, 0x00, 0x33, 0x00, 0x00, 0x00, 0x2c, 0x00, 0x00,
  0xa3, 0x00, 0x00, 0x00, 0x00, 0x00, 0x00, 0x00, 0x00, 0x2c, 0x00, 0x00,
  0x00, 0x81, 0x00, 0x00, 0xdd, 0x00, 0x42, 0x00, 0x00, 0xb0, 0x00, 0x00,
  0xaf, 0xcc, 0x29, 0x00, 0xac, 0x00, 0xd5, 0xb0, 0xcd, 0x00, 0x00, 0x00,
  0x2e, 0x39, 0xb8, 0x56, 0x00, 0x2d, 0x00, 0xda, 0x00, 0xd3, 0x3d, 0x00,
  0x23, 0x00, 0x5a, 0x00, 0x00, 0xd1, 0x00, 0x22, 0x00, 0x00, 0x00, 0x00,
  0xdc, 0x31, 0x00, 0x00, 0x00, 0x00, 0x00, 0x25, 0x38, 0x3e, 0x00, 0x36,
  0x00, 0x2d, 0x00, 0x00, 0x00, 0x00, 0x45, 0xc7, 0x00, 0x00, 0x53, 0x00,
  0x00, 0x00, 0x00, 0x00, 0xcb, 0x00, 0x33, 0x2e, 0x00, 0x00, 0xde, 0x00,
  0x00, 0x00, 0x00, 0x00, 0x00, 0x33, 0xb4, 0xae, 0x00, 0x3b, 0x00, 0x00,
  0x00, 0x39, 0xa5, 0x00, 0xae, 0xa3, 0x00, 0x00, 0xb6, 0x00, 0xb4, 0x00,
  0x00, 0x00, 0x00, 0xc3, 0x8f, 0xaf, 0xba, 0x00, 0x00, 0xd1, 0xcf, 0xb5,
  0x00, 0x00, 0x00, 0x00, 0xd2, 0x00, 0x00, 0xd1, 0x00, 0x00, 0xc2, 0x00,
  0xc2, 0x00, 0x2c, 0x00, 0x00, 0x00, 0xba, 0xce, 0xd3, 0x00, 0x00, 0x00,
  0xd0, 0x00, 0xc8, 0xc8, 0x00, 0x00, 0xc6, 0xc0, 0x00, 0x00, 0x00, 0xda,
  0xd1, 0x00, 0xd9, 0x00, 0x33, 0x46, 0x00, 0xd0, 0xb6, 0xb6, 0x00, 0xaa,
  0xac, 0xda, 0xbb, 0x00, 0x00, 0x00, 0xb4, 0x00, 0x00, 0xcc, 0xb3, 0xba,
  0x00, 0xda, 0x00, 0xba, 0xbc, 0xd9, 0xd3, 0xaa, 0x00, 0xdb, 0xb9, 0xb5,
  0x00, 0x00, 0x00, 0xb6, 0x00, 0x00, 0x00, 0x4c, 0x00, 0x4f, 0x00, 0x00,
  0x00, 0x00, 0x00, 0x00, 0xbd, 0x00, 0x00, 0x00, 0x00, 0x00, 0x00, 0x00,
  0x00, 0x00, 0x4d, 0xb6, 0x00, 0x00, 0x34, 0x00, 0x00, 0x56, 0xc7, 0x96,
  0x00, 0xbc, 0xc7, 0x00, 0x00, 0x3b, 0x00, 0x00, 0x00, 0x00, 0x00, 0xd1,
  0xa5, 0xb6, 0x00, 0x00, 0x00, 0x00, 0x00, 0x00, 0xc6, 0x00, 0x5c, 0xc0,
  0x00, 0x00, 0x00, 0x00, 0x62, 0x59, 0x00, 0xbb, 0x00, 0x00, 0x00, 0x00,
  0x00, 0x00, 0xd0, 0xbc, 0x3e, 0x4e, 0xc5, 0x00, 0xca, 0xa9, 0x00, 0x00,
  0x00, 0x00, 0x3d, 0x00, 0xbe, 0xca, 0x51, 0xaf, 0xc3, 0x00, 0x00, 0x00,
  0x00, 0xcb, 0x00, 0x81, 0x00, 0x00, 0x76, 0x00, 0x00, 0x00, 0x00, 0x00,
  0x00, 0xa5, 0x48, 0x00, 0x86, 0x5a, 0x00, 0x00, 0x00, 0x63, 0x00, 0x00,
  0x58, 0x4c, 0x00, 0x00, 0x00, 0x61, 0x00, 0x00, 0x00, 0x00, 0x44, 0x86,
  0x00, 0x00, 0x00, 0x38, 0x00, 0x00, 0x00, 0x3b, 0x00, 0xd5, 0x00, 0x3c,
  0xbe, 0x00, 0x00, 0x00, 0xa7, 0x00, 0x00, 0x00, 0x00, 0x00, 0x00, 0x00,
  0x00, 0x42, 0x41, 0x00, 0x00, 0x00, 0x00, 0x00, 0x41, 0x00, 0x00, 0x33,
  0x00, 0x00, 0x47, 0x00, 0x00, 0x3a, 0x39, 0x00, 0x9d, 0x00, 0x00, 0x00,
  0x00, 0x00, 0x00, 0x00, 0x43, 0x00, 0x40, 0x00, 0x00, 0x00, 0x37, 0x00,
  0x00, 0x00, 0x00, 0xcc, 0x00, 0x00, 0x4b, 0x00, 0x00, 0xba, 0xcc, 0x00,
  0x00, 0x00, 0x00, 0x00, 0x00, 0x3a, 0xc4, 0x00, 0x00, 0x00, 0x00, 0x00,
  0x00, 0x52, 0x00, 0x00, 0x00, 0x00, 0x00, 0xcf, 0x00, 0x00, 0x00, 0xb5,
  0x00, 0x00, 0x00, 0x00, 0x00, 0xce, 0x00, 0x00, 0x00, 0x00, 0x00, 0x00,
  0x00, 0x00, 0xc8, 0x00, 0x9d, 0x00, 0xcb, 0x00, 0x3e, 0x00, 0x00, 0x00,
  0x00, 0x00, 0x00, 0x00, 0xce, 0x00, 0x00, 0x00, 0x00, 0x00, 0x55, 0x00,
  0xca, 0x00, 0x00, 0x00, 0x00, 0x00, 0x00, 0x00, 0xbd, 0x4c, 0x00, 0x00,
  0x00, 0x00, 0x00, 0x00, 0x4e, 0x00, 0x00, 0x4d, 0x00, 0x4c, 0x00, 0x00,
  0x3f, 0x00, 0x00, 0xb6, 0x00, 0x00, 0xdf, 0x00, 0x00, 0x00, 0x00, 0x00,
  0x00, 0x00, 0x00, 0x00, 0xdb, 0x00, 0x00, 0x00, 0x00, 0x00, 0x00, 0x00,
  0xc0, 0xde, 0x00, 0x00, 0x00, 0x00, 0x00, 0x00, 0x00, 0x00, 0x00, 0x00,
  0x00, 0x00, 0x00, 0x00, 0x26, 0x00, 0x00, 0x00, 0x00, 0x26, 0x3a, 0x2f,
  0x00, 0x00, 0x00, 0x00, 0x00, 0x00, 0x00, 0x00, 0x00, 0x00, 0x00, 0xb8,
  0x00, 0x00, 0x00, 0x00, 0x00, 0x00, 0x00, 0xcc, 0x00, 0x00, 0x51, 0x00,
  0x00, 0x00, 0x00, 0x00, 0xd3, 0x3e, 0x70, 0x00, 0x00, 0x00, 0x00, 0xdb,
  0x00, 0x33, 0x00, 0x00, 0x45, 0x4e, 0x00, 0x00, 0x00, 0x57, 0x00, 0x00,
  0x2b, 0x00, 0x00, 0xaa, 0x00, 0x00, 0x2a, 0x00, 0x00, 0x00, 0x00, 0x00,
  0x33, 0x00, 0x2d, 0x00, 0x94, 0x2f, 0x00, 0x2a, 0x00, 0x00, 0x00, 0x00,
  0x23, 0x00, 0x00, 0x00, 0x00, 0x45, 0x00, 0x00, 0x49, 0x00, 0x00, 0xb3,
  0x00, 0x00, 0x00, 0x00, 0x00, 0x30, 0x00, 0x00, 0x47, 0x00, 0x00, 0x00,
  0x81, 0x00, 0x00, 0x00, 0x00, 0x00, 0x00, 0x00, 0x00, 0xaf, 0x3f, 0x00,
  0x00, 0xd2, 0x00, 0x00, 0x3b, 0x4e, 0x00, 0xd1, 0x00, 0xd9, 0x00, 0xd5,
  0x00, 0x00, 0xd8, 0x00, 0x00, 0x42, 0x00, 0x00, 0xa8, 0xcb, 0xdc, 0x00,
  0x24, 0xdd, 0x00, 0x00, 0x00, 0x00, 0x00, 0xda, 0x00, 0xcc, 0x00, 0x00,
  0x00, 0x00, 0x00, 0xb7, 0x00, 0x00, 0x00, 0x00, 0x00, 0x00, 0x00, 0x00,
  0x00, 0x00, 0x48, 0x00, 0xb8, 0x31, 0x00, 0x00, 0x00, 0x00, 0x00, 0x00,
  0x23, 0x00, 0x00, 0x35, 0x00, 0x40, 0x00, 0x22, 0x00, 0x00, 0xca, 0x00,
  0x23, 0x00, 0x00, 0x00, 0x00, 0x00, 0x00, 0x27, 0x00, 0x00, 0x00, 0x00,
  0x8f, 0x00, 0x00, 0x00, 0x00, 0x39, 0x00, 0x00, 0x4b, 0xc9, 0x00, 0x53,
  0x00, 0x00, 0x25, 0x00, 0x38, 0x30, 0xbe, 0xc9, 0x00, 0xdb, 0x9e, 0x00,
  0x00, 0x00, 0x00, 0x00, 0x00, 0x31, 0x00, 0xd2, 0xcb, 0xd1, 0x00, 0x00,
  0x00, 0x00, 0x00, 0x00, 0xdd, 0x00, 0x32, 0x00, 0x00, 0xc3, 0x00, 0x00,
  0xda, 0x00, 0x00, 0x1d, 0x00, 0x00, 0x00, 0x00, 0x00, 0x00, 0x1e, 0x21,
  0x00, 0x00, 0x00, 0x00, 0xcf, 0x00, 0x00, 0x00, 0x00, 0x00, 0x00, 0x00,
  0x26, 0xb7, 0xd9, 0x31, 0x00, 0xdf, 0x00, 0x00, 0x00, 0x00, 0x00, 0x25,
  0x00, 0x00, 0x92, 0x00, 0x24, 0x00, 0x00, 0x25, 0x2b, 0x39, 0xb7, 0x00,
  0x00, 0x00, 0x00, 0x00, 0x00, 0x00, 0x00, 0x00, 0xcf, 0xd6, 0x00, 0x25,
  0x00, 0xda, 0x00, 0x00, 0x00, 0x00, 0x33, 0x00, 0x00, 0x00, 0x00, 0x00,
  0x00, 0x26, 0xe2, 0x00, 0x00, 0x31, 0x00, 0x00, 0x00, 0x00, 0x00, 0x00,
  0x00, 0x00, 0x00, 0x00, 0x00, 0x1f, 0x00, 0x00, 0x00, 0x00, 0x00, 0x00,
  0xd5, 0xd4, 0xc7, 0x00, 0x00, 0x00, 0x81, 0x00, 0xe5, 0x00, 0x00, 0x00,
  0xe5, 0x00, 0x00, 0xd4, 0xdc, 0xb9, 0x00, 0x00, 0xc9, 0x00, 0x00, 0x00,
  0x00, 0xa7, 0xc0, 0x00, 0x00, 0xcb, 0x00, 0x00, 0x00, 0x00, 0x00, 0x1f,
  0x00, 0x00, 0x84, 0x00, 0x23, 0x1f, 0x24, 0x00, 0x00, 0x2d, 0x00, 0x00,
  0x00, 0xc1, 0x1c, 0x00, 0x2f, 0x1f, 0x00, 0x00, 0x00, 0xd0, 0x25, 0x23,
  0x25, 0x00, 0x00, 0x00, 0x00, 0x00, 0x00, 0x00, 0x00, 0x00, 0xc8, 0x00,
  0x00, 0x00, 0x00, 0x00, 0x00, 0x1f, 0x00, 0x2a, 0x00, 0x00, 0x00, 0x00,
  0x24, 0x00, 0x32, 0x00, 0x00, 0x00, 0x00, 0x29, 0x00, 0x00, 0x00, 0x00,
  0xab, 0xa1, 0x00, 0x00, 0x00, 0x27, 0xbc, 0x00, 0x00, 0x00, 0x00, 0x00,
  0xde, 0x00, 0x00, 0xda, 0xcc, 0xdb, 0x00, 0x00, 0x00, 0x00, 0x00, 0x00,
  0x00, 0xd2, 0xd6, 0x29, 0x00, 0x00, 0x00, 0x00, 0x33, 0xbe, 0xd0, 0x00,
  0x00, 0x00, 0xba, 0x00, 0x00, 0x00, 0x23, 0x00, 0x23, 0x00, 0x00, 0x00,
  0xc0, 0x00, 0x00, 0x00, 0x3e, 0x00, 0x2c, 0x00, 0x27, 0x00, 0x29, 0x29,
  0x00, 0x00, 0x00, 0x00, 0x00, 0x3d, 0x00, 0xdc, 0x00, 0x00, 0x00, 0x00,
  0x00, 0x00, 0x22, 0x00, 0x37, 0x50, 0x00, 0x00, 0xac, 0x00, 0x00, 0x00,
  0x3a, 0x00, 0x37, 0x00, 0x00, 0xce, 0x2c, 0x00, 0x00, 0x00, 0x00, 0x1c,
  0x00, 0xb5, 0x00, 0x00, 0x00, 0x00, 0x00, 0x00, 0x00, 0x00, 0x00, 0x00,
  0xd6, 0x00, 0x00, 0x00, 0x00, 0x00, 0x00, 0x00, 0x00, 0x00, 0x00, 0x00,
  0x00, 0x00, 0x00, 0x00, 0x00, 0x29, 0x00, 0x00, 0x00, 0xd0, 0x00, 0x2f,
  0x37, 0x00, 0x00, 0x00, 0x00, 0x00, 0x00, 0x00, 0x00, 0x32, 0x2d, 0x00,
  0x00, 0x00, 0x00, 0x00, 0x00, 0x00, 0x00, 0x00, 0x2d, 0x00, 0x00, 0x4b,
  0x00, 0x00, 0x32, 0x2f, 0x6f, 0x5d, 0x00, 0x2a, 0x31, 0x00, 0x00, 0x00,
  0x00, 0x00, 0x00, 0x39, 0x4b, 0x00, 0x3d, 0x00, 0x89, 0x00, 0x00, 0x31,
  0x00, 0x00, 0x00, 0x35, 0x2b, 0x00, 0x00, 0x00, 0x48, 0xd3, 0x35, 0x3c,
  0x81, 0x9a, 0x00, 0x00, 0x00, 0x00, 0x00, 0x00, 0x00, 0xbd, 0x00, 0x00,
  0xb9, 0x96, 0x00, 0x00, 0x00, 0x00, 0x00, 0xb3, 0x00, 0x00, 0x00, 0x00,
  0x00, 0x00, 0x96, 0x00, 0x00, 0x00, 0x00, 0x00, 0x00, 0xc9, 0x00, 0x00,
  0x00, 0x00, 0x00, 0x00, 0xbe, 0x00, 0x00, 0x00, 0x00, 0x34, 0x2d, 0x00,
  0x00, 0x00, 0x00, 0x00, 0x00, 0x00, 0x00, 0x00, 0x30, 0x34, 0x00, 0x00,
  0x00, 0x00, 0x00, 0x00, 0x00, 0x00, 0x00, 0x00, 0x45, 0x62, 0x00, 0x00,
  0x00, 0x00, 0x00, 0x2e, 0x00, 0x00, 0x69, 0x00, 0xd4, 0x60, 0x00, 0x00,
  0xbf, 0x00, 0x00, 0x00, 0x38, 0x67, 0x00, 0x00, 0x00, 0x4e, 0x00, 0x00,
  0x00, 0x00, 0x9f, 0x00, 0xa5, 0xa7, 0x00, 0x00, 0xbd, 0xc8, 0x00, 0x00,
  0xb2, 0x00, 0x00, 0x00, 0xbe, 0x00, 0xbb, 0x94, 0xc5, 0xcf, 0x00, 0x9e,
  0xc4, 0x00, 0xaf, 0x00, 0xc4, 0xd0, 0xc8, 0x00, 0x00, 0x00, 0x00, 0xc3,
  0xa7, 0xc3, 0x00, 0xc1, 0xc0, 0xd1, 0xca, 0x00, 0x00, 0xc8, 0x00, 0xcb,
  0xcc, 0x00, 0xb8, 0xac, 0xcc, 0x00, 0x00, 0xc6, 0x00, 0x00, 0x00, 0xc6,
  0xbc, 0x00, 0x00, 0xd3, 0x00, 0x00, 0x00, 0x00, 0x00, 0x00, 0x78, 0x00,
  0x00, 0xc3, 0xbb, 0x00, 0x00, 0x00, 0x36, 0x00, 0x00, 0x00, 0xcd, 0xac,
  0xab, 0x00, 0x00, 0xa6, 0x00, 0x00, 0xb2, 0x00, 0x00, 0x00, 0xcf, 0x00,
  0xa7, 0x81, 0x00, 0x00, 0x00, 0x00, 0x46, 0x00, 0x00, 0xb3, 0x00, 0x00,
  0x00, 0x00, 0x3e, 0x00, 0x00, 0x2d, 0x00, 0x00, 0x00, 0x27, 0x00, 0x00,
  0x00, 0x00, 0x00, 0x00, 0x00, 0x45, 0x00, 0x00, 0xcb, 0x00, 0x00, 0x00,
  0x00, 0x00, 0x00, 0x2d, 0x00, 0x00, 0x00, 0x2c, 0xc4, 0x00, 0x28, 0x00,
  0x00, 0x00, 0x00, 0x00, 0x00, 0x3f, 0x00, 0x00, 0x2b, 0x00, 0x00, 0x29,
  0x3f, 0x00, 0x00, 0x00, 0x00, 0x00, 0x50, 0x28, 0x2a, 0x43, 0x00, 0x3b,
  0x00, 0x00, 0x00, 0x00, 0x00, 0x00, 0x00, 0x41, 0x00, 0x00, 0x00, 0x29,
  0xc0, 0x00, 0x00, 0x00, 0x48, 0x3c, 0xc7, 0x2b, 0x27, 0x00, 0x3d, 0x42,
  0x00, 0x3c, 0xa5, 0x00, 0xd6, 0xbc, 0xd0, 0xd5, 0x00, 0xd7, 0x00, 0xca,
  0x00, 0x00, 0x00, 0xce, 0x00, 0xc2, 0x00, 0x00, 0x00, 0x00, 0x00, 0xc4,
  0xc6, 0xd4, 0x00, 0x00, 0x00, 0xb3, 0x00, 0xc2, 0x00, 0x00, 0xd2, 0x00,
  0xc1, 0x00, 0x00, 0x00, 0xb0, 0xb7, 0xc7, 0x00, 0x00, 0x53, 0x00, 0x00,
  0xca, 0x00, 0xd9, 0xaf, 0x00, 0x00, 0x00, 0xbf, 0x00, 0x00, 0x00, 0x00,
  0x00, 0x00, 0x00, 0xc3, 0x00, 0x00, 0x3c, 0x00, 0x00, 0x2f, 0x79, 0x00,
  0x00, 0xca, 0x00, 0x00, 0xd1, 0x00, 0x5b, 0x00, 0x00, 0x4b, 0x00, 0x00,
  0xcf, 0x00, 0x00, 0x00, 0x00, 0x44, 0xac, 0x00, 0x00, 0x45, 0x00, 0x00,
  0x00, 0x00, 0x00, 0x00, 0x00, 0xdc, 0xb6, 0x00, 0x00, 0x00, 0x00, 0x00,
  0x2e, 0x35, 0x00, 0x00, 0x00, 0x00, 0x00, 0x00, 0x42, 0x00, 0x44, 0x39,
  0xcb, 0x00, 0x4c, 0x00, 0x00, 0xd2, 0x00, 0x00, 0x00, 0x00, 0x00, 0x2a,
  0x00, 0xd8, 0xd2, 0x00, 0xd4, 0x00, 0x00, 0x00, 0x00, 0x00, 0x89, 0xa9,
  0x00, 0x00, 0x00, 0x00, 0x00, 0xbc, 0x00, 0x00, 0x00, 0x00, 0x48, 0x00,
  0x00, 0xb8, 0xc0, 0x00, 0x2f, 0x00, 0xa6, 0x00, 0xd2, 0xab, 0x00, 0xb4,
  0x00, 0x00, 0x00, 0xca, 0x00, 0x00, 0x9a, 0xa5, 0xc3, 0x00, 0xca, 0x00,
  0x00, 0x00, 0x00, 0x00, 0xc5, 0x00, 0x00, 0x00, 0xc9, 0xbb, 0x00, 0xc3,
  0x00, 0x00, 0x00, 0x00, 0x00, 0x00, 0xa4, 0x00, 0x4c, 0xd1, 0x00, 0x00,
  0x00, 0x00, 0x00, 0x00, 0x00, 0x00, 0x00, 0x00, 0x00, 0x00, 0xd0, 0x00,
  0x00, 0x00, 0x00, 0x00, 0x00, 0x00, 0x00, 0x00, 0xc6, 0x00, 0x5c, 0x00,
  0x00, 0x00, 0x00, 0x37, 0x00, 0xc7, 0x00, 0x00, 0x00, 0x00, 0x00, 0x57,
  0x00, 0x36, 0xd0, 0x00, 0x00, 0x00, 0x00, 0x00, 0x00, 0x00, 0x00, 0x00,
  0x00, 0x00, 0x00, 0x00, 0x00, 0x00, 0x00, 0xcf, 0xb3, 0x00, 0x36, 0xcb,
  0x00, 0x00, 0x00, 0x00, 0x00, 0xc3, 0x00, 0x00, 0xc1, 0x00, 0xc2, 0xc3,
  0x00, 0x00, 0x00, 0xb4, 0x00, 0x00, 0x00, 0x00, 0x00, 0x40, 0xcf, 0x00,
  0x00, 0x00, 0x00, 0x00, 0x00, 0x00, 0xba, 0x00, 0x00, 0x00, 0x00, 0x00,
  0x00, 0x00, 0x00, 0x00, 0x00, 0x00, 0x00, 0xcd, 0x00, 0x00, 0x00, 0x00,
  0x00, 0x00, 0x00, 0x00, 0x00, 0x00, 0x00, 0x00, 0x5e, 0x00, 0x00, 0x00,
  0x00, 0x00, 0x00, 0x00, 0x00, 0x00, 0x00, 0x00, 0x00, 0x00, 0x00, 0x00,
  0x8b, 0x00, 0x00, 0x00, 0x00, 0x00, 0x00, 0x00, 0x00, 0x00, 0x39, 0x00,
  0x00, 0x00, 0x00, 0x00, 0x3b, 0x55, 0x00, 0x00, 0x00, 0x00, 0xd9, 0x00,
  0xcd, 0x00, 0x00, 0x00, 0x43, 0x00, 0x00, 0x00, 0xad, 0x00, 0x00, 0x00,
  0x00, 0xbe, 0x00, 0x00, 0x00, 0x00, 0x00, 0x00, 0x00, 0x00, 0xc7, 0x00,
  0x46, 0x37, 0x00, 0x00, 0x00, 0x00, 0x46, 0x00, 0x00, 0x00, 0x00, 0x00,
  0x00, 0x42, 0x3a, 0x00, 0x81, 0x3d, 0x00, 0x00, 0x00, 0x00, 0x00, 0x00,
  0x00, 0x00, 0x2d, 0x00, 0x00, 0x00, 0x00, 0x00, 0x38, 0x00, 0x5f, 0xbd,
  0xcc, 0x00, 0x56, 0x00, 0x39, 0x00, 0x00, 0x00, 0x00, 0x48, 0x7c, 0x34,
  0x00, 0x4f, 0x00, 0x00, 0x00, 0x00, 0x00, 0x00, 0x44, 0x00, 0x00, 0x00,
  0x00, 0x49, 0x00, 0x00, 0x00, 0x00, 0x62, 0xbc, 0x00, 0x36, 0x62, 0x00,
  0x00, 0x00, 0x00, 0x00, 0x00, 0x00, 0x66, 0x2e, 0x00, 0x6e, 0x00, 0x00,
  0xb5, 0x00, 0x00, 0x00, 0x53, 0x64, 0xb8, 0x00, 0x00, 0x4a, 0x00, 0xd3,
  0x00, 0x00, 0x00, 0x2b, 0x00, 0x00, 0x8d, 0x00, 0x00, 0x00, 0x00, 0x1e,
  0x00, 0x2e, 0x00, 0x00, 0x00, 0x00, 0x00, 0x00, 0x00, 0x00, 0x00, 0x00,
  0x1a, 0xaa, 0x00, 0x35, 0x2a, 0xb9, 0x00, 0x00, 0x00, 0x00, 0x00, 0x00,
  0x00, 0x00, 0xac, 0x00, 0x37, 0x00, 0x00, 0x00, 0x00, 0x20, 0x00, 0x00,
  0x00, 0xce, 0x00, 0x21, 0x00, 0x00, 0x00, 0x00, 0x00, 0x00, 0x00, 0x00,
  0x28, 0xcf, 0x00, 0x00, 0x00, 0xd2, 0x00, 0x00, 0x00, 0x00, 0xdd, 0x27,
  0x24, 0x00, 0x00, 0x00, 0x00, 0x00, 0x00, 0x00, 0x1f, 0x00, 0x00, 0x00,
  0x00, 0x00, 0x00, 0x00, 0xde, 0x00, 0x00, 0x00, 0x00, 0x00, 0x00, 0x00,
  0xd0, 0xcb, 0xd7, 0x31, 0x00, 0x20, 0x9d, 0x00, 0x00, 0x00, 0x00, 0x22,
  0x00, 0x00, 0x00, 0xda, 0x26, 0xc6, 0x20, 0x00, 0x00, 0x00, 0x00, 0x00,
  0x00, 0xb8, 0x00, 0x39, 0x00, 0xbe, 0x00, 0x00, 0x00, 0xd1, 0x00, 0x26,
  0x00, 0x00, 0x81, 0x00, 0x2d, 0x00, 0x00, 0x21, 0x00, 0x00, 0xdc, 0x00,
  0x00, 0xc6, 0x00, 0x28, 0x3c, 0x00, 0x00, 0x00, 0x00, 0xc4, 0x29, 0x2c,
  0x2c, 0xd4, 0x00, 0x00, 0x00, 0x00, 0x00, 0x00, 0x00, 0x00, 0xbf, 0x00,
  0x00, 0x00, 0x00, 0x00, 0x00, 0x2a, 0x00, 0x00, 0x00, 0x00, 0x00, 0x00,
  0x30, 0x00, 0x00, 0x00, 0xd2, 0x00, 0x00, 0x00, 0x00, 0x00, 0x00, 0x00,
  0x00, 0x00, 0xc8, 0x00, 0x00, 0x00, 0xdb, 0x00, 0xda, 0xd9, 0x00, 0x00,
  0x00, 0x00, 0x00, 0x00, 0x00, 0xd8, 0x00, 0xe0, 0x00, 0x00, 0x00, 0x00,
  0x00, 0x00, 0x00, 0x00, 0x00, 0xdb, 0x00, 0x00, 0x00, 0x00, 0x00, 0x00,
  0x00, 0x00, 0x00, 0x00, 0xd8, 0x00, 0x00, 0x00, 0x00, 0x00, 0x00, 0x00,
  0xab, 0x00, 0x00, 0x00, 0x00, 0x00, 0x22, 0x00, 0x00, 0xce, 0x00, 0x3e,
  0x00, 0x00, 0x00, 0x00, 0x3c, 0x2c, 0x00, 0x00, 0x00, 0x00, 0x00, 0x00,
  0x00, 0x22, 0x00, 0x00, 0x24, 0x00, 0x00, 0x00, 0xc4, 0x00, 0x00, 0x00,
  0x2e, 0x00, 0x00, 0x00, 0x00, 0x00, 0x30, 0x00, 0x00, 0x00, 0x00, 0x00,
  0xba, 0x00, 0x00, 0x00, 0x00, 0x34, 0x2d, 0x00, 0x00, 0x00, 0x00, 0x00,
  0xb8, 0x00, 0x00, 0x00, 0xcb, 0x44, 0x00, 0xcd, 0x00, 0x00, 0x00, 0xc7,
  0xd7, 0x53, 0x00, 0x99, 0xd2, 0x00, 0x00, 0x00, 0xc3, 0xa6, 0x44, 0xce,
  0x00, 0x00, 0x7f, 0x00, 0x00, 0xc1, 0x27, 0x00, 0xcb, 0x00, 0x5a, 0x52,
  0x00, 0x56, 0x00, 0x00, 0x00, 0x00, 0xc6, 0x00, 0x5c, 0x61, 0xd0, 0x00,
  0x00, 0x59, 0x00, 0x00, 0xab, 0xaf, 0x00, 0xd2, 0x00, 0x00, 0x65, 0x2a,
  0x00, 0xcc, 0x00, 0x00, 0x00, 0x00, 0x37, 0x00, 0x2e, 0x28, 0xd5, 0x00,
  0x00, 0x32, 0x00, 0x00, 0x00, 0x60, 0x00, 0x00, 0x00, 0x39, 0x00, 0x00,
  0x64, 0x68, 0xd2, 0x8a, 0x00, 0xab, 0x00, 0x00, 0x00, 0x31, 0x00, 0xd7,
  0x4b, 0x00, 0xc6, 0x00, 0x85, 0x00, 0x00, 0x00, 0x00, 0x00, 0x26, 0x00,
  0x00, 0xb5, 0x60, 0xc5, 0x00, 0xcc, 0x00, 0x00, 0x53, 0x60, 0xba, 0xc3,
  0xc4, 0xc2, 0x50, 0xbc, 0xc1, 0x00, 0xc2, 0xb6, 0x2c, 0x65, 0x00, 0xbf,
  0x99, 0x00, 0x00, 0x00, 0x00, 0xd3, 0x00, 0xc8, 0x00, 0x00, 0x3e, 0xc9,
  0xcf, 0x00, 0xca, 0x00, 0x00, 0x00, 0x00, 0x00, 0xb6, 0xb8, 0x00, 0xb6,
  0xc1, 0x00, 0x00, 0x00, 0x00, 0x31, 0x00, 0x00, 0xd7, 0x00, 0xb8, 0xc6,
  0x00, 0x00, 0x00, 0xc2, 0x00, 0xd0, 0x29, 0x00, 0xb8, 0x00, 0xb5, 0x00,
  0x00, 0x00, 0x00, 0x00, 0x00, 0x00, 0x3e, 0x00, 0x00, 0x00, 0x00, 0x00,
  0x00, 0x2f, 0x29, 0x00, 0xb5, 0x43, 0x00, 0x2c, 0x00, 0x39, 0x24, 0x00,
  0x65, 0x00, 0x00, 0x2e, 0x00, 0x00, 0x00, 0x2e, 0x2e, 0x43, 0x00, 0x00,
  0x00, 0x00, 0xc4, 0x00, 0x00, 0x2e, 0x32, 0x00, 0x35, 0x51, 0x00, 0x00,
  0xc5, 0x00, 0x00, 0x00, 0x00, 0x00, 0x00, 0x00, 0x00, 0xda, 0x00, 0x00,
  0x00, 0x00, 0x00, 0x00, 0x3b, 0x35, 0xc1, 0x00, 0x00, 0xb0, 0xb9, 0x00,
  0x00, 0x00, 0x00, 0xd8, 0x44, 0x49, 0xb2, 0xb1, 0xd9, 0xbf, 0x00, 0x00,
  0x30, 0x00, 0x39, 0x00, 0xc3, 0xca, 0x44, 0x00, 0x00, 0x00, 0x00, 0x00,
  0x00, 0x00, 0x00, 0xc9, 0x00, 0x00, 0x00, 0x00, 0x00, 0x00, 0x00, 0x25,
  0x40, 0x00, 0x00, 0xd9, 0x3f, 0x00, 0x00, 0x00, 0x00, 0x00, 0x43, 0x00,
  0x00, 0x00, 0x00, 0x00, 0x00, 0x00, 0x00, 0x00, 0x00, 0xca, 0x00, 0x00,
  0x00, 0x00, 0xda, 0xdc, 0xca, 0xcd, 0xb8, 0xab, 0xd9, 0x00, 0x00, 0x00,
  0x31, 0xc6, 0xce, 0x00, 0x00, 0xbe, 0x00, 0xc1, 0xd8, 0x00, 0x00, 0x00,
  0x00, 0xd9, 0xca, 0xdb, 0xba, 0x00, 0xc3, 0x64, 0x2c, 0x4c, 0x97, 0x00,
  0x00, 0x00, 0x00, 0x00, 0x00, 0x00, 0x00, 0xb8, 0xc0, 0xb1, 0x2f, 0x00,
  0xce, 0x00, 0xa3, 0x00, 0x2a, 0x92, 0xa3, 0x42, 0x58, 0x96, 0x2e, 0x30,
  0x00, 0x00, 0x48, 0xd2, 0x00, 0x00, 0x00, 0x00, 0x00, 0x00, 0x00, 0x00,
  0x00, 0x00, 0x00, 0x28, 0x4a, 0x00, 0xd9, 0x00, 0x00, 0x2e, 0x37, 0x00,
  0x00, 0x00, 0x00, 0x00, 0x00, 0x00, 0x00, 0x00, 0x00, 0x00, 0xb4, 0x00,
  0xdb, 0x00, 0x00, 0xcf, 0x00, 0x00, 0x00, 0x00, 0x00, 0x00, 0xbf, 0xb3,
  0x00, 0x00, 0x00, 0xbc, 0x00, 0xd6, 0x00, 0x00, 0x00, 0x00, 0x00, 0x2c,
  0x00, 0xac, 0x00, 0x00, 0x00, 0xcd, 0x00, 0x54, 0x39, 0x00, 0x81, 0x00,
  0x00, 0x00, 0x2b, 0x00, 0x00, 0x00, 0x00, 0x00, 0x00, 0xc5, 0x3c, 0x00,
  0x00, 0x00, 0xc7, 0x00, 0x00, 0xb5, 0xbd, 0x65, 0x57, 0xa7, 0x00, 0x36,
  0x00, 0x00, 0x45, 0x00, 0xca, 0x00, 0x3a, 0x00, 0x00, 0x00, 0xd1, 0x00,
  0x00, 0x00, 0x00, 0x35, 0x6f, 0x00, 0x00, 0x00, 0x2c, 0x00, 0x29, 0x00,
  0xca, 0x00, 0x00, 0x00, 0xc3, 0x47, 0x00, 0xce, 0xbf, 0x00, 0xc4, 0x00,
  0x00, 0x00, 0xb7, 0x00, 0xc8, 0xd8, 0xd4, 0x00, 0x00, 0x00, 0x00, 0xbd,
  0x00, 0x00, 0x00, 0xca, 0x00, 0x00, 0x00, 0xd0, 0x00, 0x00, 0x00, 0x00,
  0x00, 0xbb, 0x00, 0x00, 0xc1, 0x00, 0xd1, 0x67, 0x00, 0x45, 0xb7, 0x2f,
  0x00, 0x00, 0x00, 0x00, 0x00, 0x3e, 0x00, 0x00, 0x00, 0xdd, 0x00, 0x00,
  0x3f, 0x00, 0x00, 0x00, 0x00, 0x00, 0x00, 0x5b, 0x00, 0xcd, 0x00, 0x00,
  0x00, 0x00, 0x00, 0x00, 0x00, 0x00, 0xac, 0x00, 0x00, 0x00, 0x00, 0x00,
  0x00, 0x37, 0xb4, 0x00, 0x00, 0xca, 0x00, 0x00, 0xdc, 0xde, 0x00, 0x00,
  0x00, 0xce, 0xdb, 0x00, 0x00, 0x00, 0x00, 0x00, 0x00, 0x00, 0x00, 0x00,
  0x00, 0x00, 0x00, 0x00, 0x2d, 0x00, 0x00, 0x00, 0x00, 0x00, 0x27, 0x40,
  0x00, 0x00, 0x00, 0x00, 0xd4, 0x00, 0xd2, 0x00, 0x00, 0x00, 0x00, 0x00,
  0x00, 0x00, 0x00, 0x00, 0x2c, 0x00, 0x00, 0x00, 0x00, 0x00, 0x00, 0x00,
  0x00, 0x00, 0x00, 0x00, 0x20, 0x00, 0x00, 0x36, 0xc4, 0x25, 0x00, 0x00,
  0x00, 0x00, 0x00, 0x00, 0x3e, 0x00, 0x00, 0x00, 0x00, 0x2b, 0x00, 0x24,
  0x00, 0xdd, 0x00, 0x00, 0x00, 0x00, 0xb8, 0x00, 0x35, 0x00, 0x00, 0x00,
  0x00, 0x55, 0x00, 0x24, 0x00, 0x00, 0x00, 0x00, 0x00, 0x00, 0x00, 0x00,
  0x00, 0xda, 0x00, 0x00, 0x00, 0x00, 0x00, 0x00, 0x27, 0x00, 0x00, 0x00,
  0xc9, 0x00, 0xcc, 0x00, 0x40, 0xe1, 0x00, 0x00, 0x00, 0x5e, 0x00, 0x00,
  0x00, 0x00, 0x00, 0x00, 0x48, 0x00, 0x3b, 0x00, 0x00, 0x1d, 0x35, 0x00,
  0x00, 0x00, 0x00, 0x00, 0x00, 0x00, 0x00, 0x00, 0x00, 0x00, 0x26, 0x00,
  0x00, 0x00, 0x00, 0x00, 0x00, 0x4a, 0x00, 0x00, 0xad, 0x00, 0x00, 0xd4,
  0x00, 0x21, 0x00, 0x00, 0x4f, 0x00, 0x00, 0x00, 0x00, 0x00, 0x00, 0x00,
  0xcb, 0x81, 0xd6, 0x00, 0x00, 0x00, 0x00, 0x00, 0x00, 0xbf, 0x00, 0x00,
  0x00, 0x5e, 0x5b, 0x00, 0xd4, 0x29, 0x00, 0x00, 0x00, 0x00, 0x00, 0x00,
  0x00, 0x29, 0x00, 0x68, 0x20, 0x00, 0x00, 0x00, 0x4d, 0x1f, 0x00, 0x00,
  0x00, 0x00, 0xde, 0x00, 0x00, 0x00, 0x00, 0x00, 0x00, 0x3c, 0x00, 0x00,
  0xa6, 0x00, 0x00, 0x00, 0x42, 0x00, 0x3e, 0x00, 0x00, 0x00, 0x4a, 0x54,
  0x00, 0x00, 0xde, 0x00, 0x00, 0x00, 0x00, 0xcf, 0x00, 0x24, 0x00, 0x00,
  0x00, 0x00, 0xd7, 0xd1, 0x00, 0x5e, 0x00, 0x00, 0x00, 0x00, 0x00, 0x00,
  0x00, 0x00, 0x00, 0xd2, 0x00, 0x00, 0x00, 0x00, 0x00, 0x00, 0x00, 0x00,
  0x00, 0x00, 0x00, 0x00, 0x00, 0x00, 0x00, 0x00, 0x00, 0x00, 0x00, 0x00,
  0x00, 0x00, 0x00, 0x00, 0x00, 0x00, 0x00, 0x00, 0x00, 0x00, 0x00, 0x00,
  0x00, 0x00, 0x00, 0x00, 0x00, 0x00, 0x00, 0x00, 0x00, 0x00, 0x00, 0x00,
  0x00, 0x00, 0x00, 0x00, 0x00, 0x00, 0x00, 0x00, 0x00, 0x00, 0x00, 0x00,
  0x00, 0x00, 0x00, 0x00, 0x00, 0x00, 0x00, 0x00, 0x00, 0x00, 0x00, 0x00,
  0x00, 0x00, 0x00, 0x00, 0x00, 0x00, 0x00, 0x00, 0x00, 0x00, 0x00, 0x00,
  0x00, 0x00, 0x00, 0x00, 0x00, 0x00, 0x00, 0x00, 0x00, 0x00, 0x00, 0x00,
  0x00, 0x00, 0x00, 0x00, 0x00, 0x00, 0x00, 0x00, 0x00, 0x00, 0x00, 0x00,
  0x00, 0x00, 0x00, 0x00, 0x00, 0x00, 0x00, 0x00, 0x00, 0x00, 0x00, 0x00,
  0x00, 0x00, 0x00, 0x00, 0x00, 0x00, 0x00, 0x00, 0x00, 0x00, 0x00, 0x00,
  0x00, 0x00, 0x00, 0x00, 0x00, 0x00, 0x00, 0x00, 0x00, 0x00, 0x00, 0x00,
  0x00, 0x00, 0x00, 0x00, 0x00, 0x00, 0x00, 0x00, 0x00, 0x00, 0x00, 0x00,
  0x00, 0x00, 0x00, 0x00, 0x00, 0x00, 0x00, 0x00, 0x00, 0x00, 0x00, 0x00,
  0x00, 0x00, 0x00, 0x00, 0x00, 0x00, 0x00, 0x00, 0x00, 0x00, 0x00, 0x00,
  0x00, 0x00, 0x00, 0x00, 0x00, 0x00, 0x00, 0x00, 0x00, 0x00, 0x00, 0x00,
  0x00, 0x00, 0x00, 0x00, 0x00, 0x00, 0x00, 0x00, 0x00, 0x00, 0x00, 0x00,
  0x00, 0x00, 0x00, 0x00, 0x00, 0x00, 0x00, 0x00, 0x00, 0x00, 0x00, 0x00,
  0x00, 0x00, 0x00, 0x00, 0x00, 0x00, 0x00, 0x00, 0x00, 0x00, 0x00, 0x00,
  0x00, 0x00, 0x00, 0x00, 0x00, 0x00, 0x00, 0x00, 0x00, 0x00, 0x00, 0x00,
  0x00, 0x00, 0x00, 0x00, 0x00, 0x00, 0x00, 0x00, 0x00, 0x00, 0x00, 0x00,
  0x00, 0x00, 0x00, 0x00, 0x00, 0x00, 0x00, 0x00, 0x00, 0x00, 0x00, 0x00,
  0x00, 0x00, 0x00, 0x00, 0x00, 0x00, 0x00, 0x00, 0x00, 0x00, 0x00, 0x00,
  0x00, 0x00, 0x00, 0x00, 0x00, 0x00, 0x00, 0x00, 0x00, 0x00, 0x00, 0x00,
  0x00, 0x00, 0x00, 0x00, 0x00, 0x00, 0x00, 0x00, 0x00, 0x00, 0x00, 0x00,
  0xd8, 0xbe, 0x00, 0x00, 0x2d, 0x28, 0x33, 0x31, 0x00, 0x00, 0x00, 0x00,
  0xd6, 0x00, 0x31, 0x00, 0x00, 0x46, 0x00, 0x00, 0x00, 0x00, 0x00, 0x00,
  0x29, 0x00, 0x00, 0x00, 0x00, 0x38, 0x00, 0x00, 0x00, 0xcd, 0x23, 0x00,
  0x00, 0x41, 0x46, 0x37, 0x00, 0x00, 0x20, 0x00, 0x00, 0x00, 0x2e, 0x00,
  0x2b, 0x2b, 0x24, 0x00, 0x00, 0x3c, 0x00, 0x40, 0x27, 0x3c, 0x00, 0x29,
  0x32, 0x2d, 0x00, 0x23, 0x8f, 0x9b, 0x4f, 0xca, 0x00, 0x00, 0x2b, 0x00,
  0x00, 0x00, 0x00, 0x00, 0x00, 0x00, 0x32, 0x23, 0x7f, 0x00, 0x00, 0x00,
  0x00, 0x00, 0x00, 0x00, 0x00, 0x00, 0xbb, 0x00, 0x00, 0x34, 0x00, 0x00,
  0x00, 0x00, 0x00, 0xb9, 0x00, 0x00, 0x00, 0x00, 0x00, 0x00, 0x00, 0x00,
  0x00, 0x00, 0x00, 0x00, 0x00, 0x00, 0x00, 0x00, 0x00, 0x00, 0x00, 0x00,
  0x00, 0x00, 0x00, 0x00, 0x00, 0x00, 0x00, 0x00, 0x00, 0x00, 0x00, 0x00,
  0xd8, 0x00, 0x45, 0x00, 0x00, 0x00, 0x00, 0x00, 0x00, 0x00, 0x00, 0x00,
  0x00, 0x34, 0xd4, 0xc0, 0x00, 0x00, 0x00, 0x00, 0x00, 0x00, 0x00, 0x00,
  0x00, 0x00, 0x00, 0xdb, 0x00, 0x00, 0xbc, 0x00, 0xc5, 0xa1, 0x00, 0xcb,
  0x00, 0x00, 0xc5, 0xd3, 0x00, 0x00, 0xb6, 0x00, 0x00, 0xcb, 0xdb, 0xd1,
  0x00, 0x00, 0xd7, 0x00, 0xba, 0x00, 0x00, 0xd4, 0xab, 0x00, 0xd2, 0xd9,
  0x00, 0x00, 0x00, 0xc9, 0x00, 0xb3, 0x00, 0x00, 0x00, 0x00, 0xcf, 0x00,
  0x00, 0xd6, 0xa7, 0x00, 0x00, 0xd5, 0x00, 0x00, 0x00, 0xce, 0x00, 0x00,
  0x00, 0x00, 0x00, 0x00, 0xb9, 0xc8, 0x00, 0x00, 0x00, 0x00, 0x00, 0x2e,
  0xd4, 0x00, 0xb6, 0x00, 0xcb, 0xd6, 0xc9, 0x00, 0x00, 0xb1, 0x97, 0xbf,
  0x00, 0x00, 0x00, 0xc2, 0xba, 0xc7, 0xb3, 0xd1, 0x00, 0xc9, 0x00, 0x00,
  0x00, 0x00, 0xd6, 0x00, 0x32, 0x3c, 0x00, 0x4f, 0x00, 0x00, 0xc1, 0x00,
  0x00, 0x00, 0x39, 0x00, 0x3e, 0x00, 0xd5, 0x00, 0xcd, 0x00, 0x2a, 0x00,
  0x00, 0x00, 0xd5, 0x00, 0x00, 0xa9, 0x00, 0x00, 0x00, 0xdf, 0x2f, 0x44,
  0x00, 0x00, 0x00, 0x00, 0x00, 0x00, 0x97, 0x00, 0x00, 0x34, 0x00, 0x42,
  0x00, 0x00, 0x00, 0x00, 0x00, 0xd0, 0x00, 0x00, 0xcf, 0x00, 0x00, 0x00,
  0x00, 0xa8, 0x00, 0x4a, 0x38, 0xc7, 0x00, 0x3a, 0x00, 0x00, 0x00, 0x00,
  0x00, 0x00, 0x00, 0x00, 0x00, 0x00, 0x00, 0x45, 0x00, 0x00, 0x00, 0x00,
  0x00, 0x00, 0x00, 0x41, 0x38, 0x00, 0x00, 0x3b, 0xa2, 0x00, 0x00, 0x00,
  0x00, 0x00, 0x00, 0x00, 0x00, 0xd3, 0x57, 0xc7, 0x00, 0x00, 0x00, 0x32,
  0x00, 0x00, 0x00, 0x00, 0x00, 0x00, 0x00, 0x00, 0x00, 0x41, 0x00, 0x00,
  0x00, 0x00, 0x00, 0x00, 0x00, 0x00, 0x00, 0x00, 0x00, 0x00, 0x00, 0x00,
  0x95, 0xbd, 0xc1, 0x00, 0x30, 0x00, 0x00, 0x00, 0x00, 0x00, 0x00, 0x00,
  0x00, 0x00, 0x00, 0x00, 0x41, 0x00, 0x34, 0x00, 0x00, 0x3f, 0x00, 0x00,
  0x00, 0x93, 0x00, 0x00, 0x00, 0xb5, 0x00, 0x32, 0x00, 0x00, 0x00, 0x00,
  0x00, 0x00, 0xb1, 0x00, 0x00, 0x00, 0x00, 0x2e, 0x00, 0x00, 0xc5, 0x00,
  0x00, 0x00, 0x00, 0x3d, 0x00, 0x00, 0x00, 0x32, 0x00, 0xd0, 0x00, 0xc6,
  0x00, 0x00, 0x00, 0x00, 0xc9, 0xbd, 0x00, 0xbf, 0x00, 0xc7, 0xc4, 0xcd,
  0x00, 0x00, 0x00, 0xd4, 0x00, 0x00, 0xc0, 0x00, 0x00, 0x00, 0x00, 0x00,
  0x00, 0x00, 0x00, 0x00, 0x00, 0x00, 0x00, 0xc9, 0x00, 0x00, 0x00, 0x00,
  0x00, 0x87, 0x00, 0x00, 0x00, 0x00, 0x84, 0x00, 0x00, 0x00, 0x00, 0x00,
  0x00, 0x00, 0x00, 0xd4, 0xce, 0x00, 0x00, 0x00, 0x00, 0x00, 0x00, 0x30,
  0x00, 0x00, 0x00, 0x4d, 0x00, 0x00, 0x00, 0x00, 0x4c, 0x00, 0x00, 0xc8,
  0x00, 0x00, 0x81, 0x00, 0x47, 0x00, 0x00, 0x00, 0x3f, 0x00, 0xca, 0x00,
  0xc9, 0x00, 0x00, 0x41, 0x00, 0x00, 0x00, 0x00, 0x00, 0xcb, 0x53, 0x00,
  0x00, 0x00, 0x00, 0x00, 0x56, 0x00, 0x00, 0x00, 0xc0, 0x88, 0x00, 0xd4,
  0x00, 0x00, 0x00, 0x00, 0x00, 0x68, 0x00, 0xd0, 0x00, 0x00, 0x00, 0x00,
  0x00, 0xc1, 0x00, 0x00, 0x00, 0xbe, 0x36, 0xc7, 0x00, 0x00, 0x00, 0x00,
  0x3e, 0x63, 0x9a, 0x00, 0xcb, 0x81, 0x00, 0xc2, 0xb8, 0x00, 0xa9, 0xc0,
  0x24, 0xdb, 0xa8, 0xb2, 0x9c, 0x00, 0xd3, 0x00, 0xcc, 0x9b, 0x00, 0xd5,
  0xbd, 0xc6, 0x00, 0xa2, 0xb5, 0x00, 0x00, 0xbc, 0x00, 0x3a, 0x98, 0xd2,
  0x00, 0xb1, 0x00, 0xc3, 0x00, 0x00, 0xd3, 0xa7, 0x32, 0x00, 0x00, 0xcf,
  0xbb, 0xc7, 0x00, 0xdf, 0x00, 0xb0, 0x00, 0xc4, 0x00, 0x00, 0x00, 0xb7,
  0xbf, 0xc6, 0xc3, 0xcc, 0xd8, 0x00, 0xc4, 0xde, 0xc8, 0x00, 0x64, 0x00,
  0xb8, 0xb4, 0xbc, 0x00, 0x00, 0x42, 0x65, 0x00, 0x00, 0x00, 0xc7, 0xba,
  0x00, 0x00, 0x00, 0xbc, 0x00, 0x4f, 0x00, 0x00, 0xbd, 0x00, 0x00, 0x00,
  0x00, 0x00, 0x00, 0x00, 0x00, 0x00, 0x00, 0x00, 0x00, 0x32, 0x00, 0x00,
  0x23, 0x2e, 0x00, 0x00, 0x00, 0x00, 0x00, 0x27, 0xd9, 0x00, 0x00, 0x00,
  0x00, 0x00, 0x00, 0x00, 0x00, 0x00, 0x00, 0x00, 0x00, 0x43, 0xd9, 0x00,
  0x00, 0x00, 0x00, 0x00, 0x00, 0x00, 0x26, 0x00, 0x00, 0x29, 0x00, 0x00,
  0xd3, 0x00, 0x00, 0x00, 0x00, 0x00, 0x00, 0x28, 0x00, 0x00, 0x27, 0x00,
  0x00, 0x00, 0x00, 0x00, 0x38, 0x30, 0xb0, 0x00, 0xd3, 0x9f, 0xd4, 0xbb,
  0x00, 0x00, 0x00, 0x00, 0x38, 0x36, 0x96, 0x00, 0x00, 0x00, 0x00, 0x00,
  0x55, 0xcd, 0x37, 0x00, 0xc7, 0xc6, 0x41, 0x9d, 0x00, 0xa8, 0xd6, 0x00,
  0x00, 0x21, 0x00, 0x00, 0x2e, 0x26, 0x00, 0x00, 0x32, 0x00, 0x00, 0x32,
  0x00, 0x53, 0x00, 0x00, 0x00, 0x00, 0x00, 0x2f, 0x00, 0x00, 0x2e, 0x00,
  0x00, 0x00, 0x29, 0x00, 0x28, 0x00, 0x00, 0x00, 0x00, 0x00, 0x00, 0x2d,
  0x00, 0x2c, 0x00, 0x29, 0x00, 0x27, 0x28, 0x00, 0x00, 0x64, 0x00, 0x00,
  0x00, 0x00, 0x00, 0x00, 0x38, 0x00, 0x00, 0x00, 0x38, 0x00, 0x2e, 0x00,
  0x00, 0x00, 0x36, 0x00, 0x7c, 0x4b, 0x00, 0x28, 0x00, 0x00, 0x00, 0x00,
  0x00, 0x00, 0x00, 0x00, 0x63, 0x2c, 0x00, 0xdb, 0x9f, 0x00, 0x00, 0x00,
  0x00, 0x00, 0x00, 0x40, 0x00, 0x00, 0x00, 0x00, 0x00, 0x00, 0x00, 0x34,
  0xd6, 0x00, 0x00, 0x00, 0x00, 0x00, 0x5e, 0x00, 0x00, 0xd3, 0x00, 0x00,
  0x00, 0x00, 0x64, 0x2f, 0xc0, 0x50, 0x00, 0x00, 0x00, 0x00, 0x00, 0x00,
  0x59, 0x39, 0x00, 0x29, 0x32, 0x53, 0x00, 0x00, 0x00, 0x2b, 0x00, 0x00,
  0x00, 0x3c, 0x37, 0x35, 0x00, 0x00, 0x00, 0x00, 0x00, 0x00, 0x2c, 0x00,
  0x00, 0x00, 0x00, 0x00, 0x00, 0x27, 0x00, 0x2d, 0x29, 0x56, 0x33, 0x00,
  0x00, 0x48, 0x28, 0x00, 0x00, 0x00, 0x64, 0xb6, 0x00, 0x00, 0x4c, 0x00,
  0x4c, 0x00, 0x00, 0x2e, 0xb8, 0xd1, 0x2f, 0x30, 0x54, 0x4f, 0x00, 0x00,
  0x00, 0x00, 0x00, 0x00, 0x28, 0x36, 0x00, 0x00, 0x00, 0x4f, 0x00, 0x00,
  0x4f, 0x24, 0xc6, 0xc2, 0xda, 0x00, 0x00, 0x00, 0xdc, 0x00, 0x00, 0x00,
  0x00, 0x00, 0x00, 0xc2, 0xb5, 0x00, 0xd5, 0xd5, 0x00, 0xca, 0x00, 0xc8,
  0x00, 0x00, 0x00, 0x00, 0xd3, 0x00, 0x00, 0x00, 0x00, 0x00, 0x00, 0x00,
  0xce, 0x00, 0x45, 0xda, 0xd4, 0x00, 0x00, 0xca, 0xc5, 0x00, 0x00, 0x00,
  0xb9, 0x25, 0x00, 0x00, 0xd6, 0x00, 0x00, 0xd1, 0x47, 0x00, 0xcf, 0x00,
  0xd0, 0x00, 0x00, 0x00, 0x00, 0x00, 0xcc, 0x00, 0xad, 0xa8, 0x00, 0x00,
  0x00, 0xba, 0x00, 0x00, 0x00, 0x81, 0x00, 0x00, 0x00, 0x00, 0xc2, 0xca,
  0x00, 0x00, 0x00, 0xad, 0xc4, 0x00, 0xc0, 0x92, 0xaf, 0x00, 0x00, 0xcf,
  0x2a, 0x48, 0xc9, 0x00, 0x00, 0x00, 0xb2, 0x00, 0x00, 0x2e, 0x00, 0x00,
  0x3f, 0x62, 0x95, 0x00, 0x00, 0xcc, 0x00, 0x00, 0x00, 0xc4, 0x00, 0x00,
  0x00, 0x00, 0x41, 0x00, 0x00, 0x00, 0x00, 0x00, 0x42, 0x00, 0xb2, 0x00,
  0x00, 0x00, 0x00, 0x00, 0xd5, 0x2a, 0x00, 0x00, 0x00, 0x54, 0xa3, 0x00,
  0xc6, 0xba, 0x00, 0x00, 0x00, 0xc2, 0x00, 0x00, 0x00, 0xa7, 0x2f, 0x00,
  0x00, 0x00, 0x00, 0x00, 0x00, 0x00, 0x9c, 0x00, 0x00, 0xc1, 0xd5, 0xc6,
  0x00, 0x00, 0x00, 0x00, 0x00, 0x00, 0xb4, 0x00, 0xb8, 0x00, 0x00, 0x00,
  0x00, 0xc5, 0x00, 0x00, 0xb9, 0xc3, 0x00, 0xc6, 0x00, 0x00, 0x00, 0x00,
  0x4b, 0x49, 0x8e, 0x00, 0xc9, 0x00, 0x47, 0xb2, 0xbf, 0x00, 0x00, 0x94,
  0x00, 0x4c, 0x00, 0xc7, 0x00, 0x00, 0x00, 0x00, 0x00, 0xb6, 0x00, 0xc4,
  0x00, 0xda, 0x26, 0xbb, 0xab, 0xba, 0x00, 0xce, 0x00, 0x26, 0xa1, 0x00,
  0x00, 0x00, 0x49, 0xbb, 0xaa, 0x00, 0xa8, 0xcc, 0x00, 0x00, 0x00, 0xbf,
  0x92, 0xd4, 0x00, 0xa7, 0x00, 0xd8, 0x00, 0xb7, 0x00, 0x00, 0x00, 0x00,
  0xb3, 0x00, 0x00, 0xc7, 0xa9, 0x00, 0x00, 0x48, 0x00, 0x00, 0x4c, 0x3a,
  0x00, 0xb9, 0x30, 0x00, 0x00, 0x00, 0x63, 0x00, 0xb7, 0x40, 0x00, 0xc8,
  0xbb, 0x00, 0xbf, 0x00, 0x6a, 0x00, 0x00, 0x00, 0x00, 0x00, 0x00, 0x00,
  0x44, 0x36, 0x00, 0x00, 0x22, 0x00, 0xd3, 0x22, 0x00, 0x41, 0x00, 0x00,
  0x3a, 0x00, 0x00, 0x00, 0xc7, 0xcc, 0x00, 0x00, 0x00, 0x00, 0x2d, 0x00,
  0x00, 0x00, 0x50, 0x00, 0x00, 0x00, 0x00, 0x00, 0x40, 0x00, 0x9b, 0x00,
  0x00, 0xbf, 0x00, 0x00, 0x00, 0x00, 0x00, 0x00, 0x30, 0x23, 0xb3, 0x00,
  0x00, 0x00, 0xc9, 0x00, 0x26, 0x00, 0x30, 0x00, 0x00, 0xa9, 0x43, 0xae,
  0x00, 0x9b, 0xc8, 0x00, 0x00, 0xd5, 0x81, 0x00, 0xaf, 0xc1, 0x00, 0x00,
  0xca, 0x00, 0xa1, 0x91, 0x00, 0x57, 0x00, 0xac, 0x00, 0xc5, 0xbe, 0xda,
  0x35, 0x00, 0x00, 0xbb, 0x00, 0x00, 0x00, 0x00, 0x00, 0xc2, 0xd3, 0xab,
  0x00, 0x00, 0x00, 0x48, 0x00, 0x00, 0x00, 0x00, 0x00, 0x2b, 0x00, 0x00,
  0x2b, 0x56, 0x00, 0x00, 0x00, 0x00, 0x39, 0x39, 0x00, 0x00, 0x41, 0x3a,
  0x00, 0xd4, 0x00, 0x32, 0x00, 0x00, 0x00, 0x00, 0x00, 0x00, 0x00, 0x00,
  0x00, 0x00, 0xc4, 0x00, 0x00, 0x00, 0x00, 0x29, 0x43, 0x47, 0x00, 0x00,
  0x45, 0x00, 0x00, 0x27, 0x57, 0x29, 0x55, 0x00, 0x2d, 0x00, 0x00, 0x5d,
  0x00, 0x00, 0x00, 0x00, 0x00, 0x42, 0x00, 0x35, 0x00, 0x00, 0xb0, 0xb7,
  0x00, 0x00, 0x00, 0x00, 0x00, 0x00, 0x00, 0x00, 0x00, 0xae, 0x00, 0x00,
  0x6d, 0x00, 0x64, 0x00, 0x00, 0xb2, 0x51, 0x00, 0x00, 0xa5, 0x00, 0x00,
  0x00, 0x00, 0x00, 0x00, 0x2e, 0x32, 0x98, 0x2b, 0x49, 0x28, 0x38, 0x31,
  0x27, 0x00, 0xb6, 0x00, 0x40, 0xd0, 0x00, 0x38, 0x43, 0x00, 0x2e, 0x34,
  0xb7, 0xd6, 0x00, 0x00, 0x00, 0xd7, 0x2a, 0x00, 0x00, 0x00, 0x2b, 0xd3,
  0x00, 0x00, 0x00, 0x00, 0x33, 0x00, 0x00, 0x00, 0x00, 0xd6, 0x00, 0x00,
  0x00, 0x00, 0x00, 0x28, 0x2a, 0x00, 0x00, 0x00, 0xc4, 0x34, 0x00, 0x00,
  0x00, 0x28, 0x00, 0x00, 0xb1, 0x00, 0x2c, 0x00, 0x00, 0xd2, 0x00, 0x00,
  0x00, 0xd8, 0x00, 0x00, 0x00, 0x00, 0x00, 0x00, 0x26, 0x00, 0xd7, 0xce,
  0x00, 0x00, 0x00, 0x00, 0x00, 0x00, 0xc8, 0x00, 0x00, 0x00, 0x00, 0x00,
  0x00, 0xab, 0x00, 0x00, 0x00, 0x00, 0xc6, 0x00, 0x44, 0x00, 0x00, 0x00,
  0x00, 0x00, 0x9a, 0x26, 0x4a, 0x00, 0x00, 0x46, 0x28, 0x29, 0x00, 0x2a,
  0x00, 0x00, 0x00, 0x00, 0x00, 0x00, 0x2b, 0x00, 0x00, 0xb2, 0x00, 0xbe,
  0x00, 0x00, 0xcd, 0x00, 0x00, 0x00, 0x00, 0x00, 0x00, 0x00, 0xcf, 0x00,
  0x00, 0x00, 0xd4, 0x00, 0x00, 0x00, 0x00, 0x00, 0xc5, 0x00, 0x00, 0x81,
  0x00, 0x00, 0x00, 0x00, 0x00, 0xd7, 0xc3, 0x00, 0xc5, 0xdb, 0x00, 0x00,
  0x00, 0xc8, 0x00, 0xca, 0xbc, 0x00, 0x00, 0x00, 0xcf, 0x00, 0x00, 0x00,
  0x00, 0x00, 0x00, 0x00, 0x00, 0x00, 0x00, 0xd7, 0x00, 0x00, 0x00, 0x00,
  0x00, 0x8f, 0x00, 0xc4, 0x00, 0xda, 0xd6, 0x00, 0x39, 0x00, 0x2f, 0x00,
  0x00, 0x00, 0x00, 0x00, 0x33, 0x00, 0x00, 0x26, 0x00, 0x00, 0x2c, 0x00,
  0x00, 0x00, 0x30, 0xcb, 0x00, 0x00, 0x00, 0x00, 0x00, 0x00, 0x00, 0xc7,
  0xcb, 0x00, 0xce, 0x00, 0x00, 0x00, 0x00, 0xcb, 0x00, 0x00, 0x00, 0x00,
  0x00, 0x00, 0x00, 0x00, 0x00, 0x00, 0x00, 0x00, 0x00, 0x00, 0x00, 0xd0,
  0xc2, 0x00, 0x00, 0xd9, 0x00, 0x00, 0x00, 0x00, 0x00, 0xd3, 0x00, 0x00,
  0xd3, 0x00, 0xcf, 0xcc, 0x00, 0x00, 0x00, 0x00, 0xb4, 0x00, 0x00, 0x00,
  0x00, 0x00, 0x00, 0xcd, 0x3a, 0x00, 0x00, 0x27, 0x00, 0x00, 0xd3, 0x00,
  0xb9, 0x00, 0xd4, 0x6f, 0x41, 0x3a, 0xa4, 0x00, 0x00, 0x00, 0x2d, 0x3d,
  0x00, 0x00, 0x00, 0xd1, 0x00, 0xd0, 0x36, 0x00, 0x00, 0x49, 0x00, 0x30,
  0x00, 0xad, 0x00, 0x00, 0x47, 0xcb, 0x39, 0x3f, 0x00, 0x00, 0x29, 0x00,
  0x00, 0x00, 0xc2, 0x00, 0x42, 0x2f, 0x00, 0x00, 0x47, 0x00, 0xb5, 0x00,
  0x5f, 0xcf, 0x00, 0x28, 0x40, 0x00, 0x5a, 0x33, 0xbd, 0x00, 0x00, 0x00,
  0x00, 0x00, 0x00, 0x00, 0xbb, 0x00, 0x00, 0x00, 0xac, 0x8b, 0xb4, 0xb9,
  0x00, 0x00, 0x00, 0xcc, 0x00, 0x00, 0xa6, 0xcf, 0x32, 0x00, 0x00, 0x00,
  0x5d, 0xa5, 0x44, 0xc0, 0x98, 0x00, 0x00, 0xa6, 0xb7, 0x00, 0x00, 0xc3,
  0x00, 0xc0, 0x00, 0x66, 0x00, 0x30, 0x8d, 0x00, 0x00, 0x00, 0x2a, 0x00,
  0x00, 0x00, 0xc5, 0x00, 0x42, 0xd2, 0x39, 0x2c, 0x45, 0x00, 0x00, 0x00,
  0xca, 0x00, 0x00, 0x00, 0x4e, 0xd5, 0x00, 0x00, 0x00, 0xbe, 0x39, 0x00,
  0x00, 0x00, 0xa8, 0x28, 0x28, 0x00, 0x00, 0x00, 0x00, 0x00, 0xa5, 0x00,
  0x37, 0x00, 0x00, 0x3a, 0x00, 0x00, 0x4c, 0x00, 0x81, 0x29, 0x31, 0xc1,
  0x00, 0x00, 0x00, 0x00, 0x00, 0xb0, 0x00, 0x3b, 0xb1, 0x00, 0xac, 0x00,
  0x00, 0xcc, 0x00, 0xc2, 0x00, 0x00, 0xab, 0xce, 0x00, 0xd0, 0x00, 0xbc,
  0x00, 0xa3, 0x00, 0xcc, 0xbe, 0xbe, 0x00, 0x00, 0x00, 0xbf, 0x00, 0xcc,
  0xa1, 0x9d, 0x00, 0x37, 0x00, 0x00, 0x9d, 0x2f, 0x4e, 0x3b, 0x00, 0x32,
  0x00, 0x00, 0xb3, 0x00, 0x72, 0x00, 0x00, 0x39, 0x00, 0x00, 0x00, 0x00,
  0x00, 0x00, 0x00, 0x00, 0x00, 0x00, 0x00, 0x2c, 0xb9, 0x8f, 0x00, 0x00,
  0x00, 0xc8, 0x00, 0x00, 0x00, 0xcc, 0x00, 0x00, 0x00, 0x00, 0xb5, 0x2e,
  0x5c, 0x00, 0xc9, 0x00, 0x00, 0x00, 0x37, 0x00, 0x93, 0x41, 0xd5, 0x00,
  0x00, 0x00, 0x00, 0xc8, 0xc4, 0xc6, 0xa0, 0x42, 0x00, 0x00, 0x00, 0xcf,
  0x00, 0xca, 0x00, 0xc1, 0x00, 0x00, 0x00, 0xb7, 0x00, 0xcc, 0x00, 0xab,
  0x00, 0xbd, 0x00, 0xba, 0x00, 0x00, 0xb5, 0x00, 0x00, 0xcb, 0xb9, 0x00,
  0x00, 0xca, 0xca, 0x4f, 0x30, 0x37, 0x00, 0x00, 0x00, 0x00, 0x2e, 0x00,
  0x00, 0x00, 0x00, 0xd8, 0xbb, 0xde, 0x00, 0x00, 0x00, 0x2e, 0x00, 0x29,
  0x30, 0xca, 0x00, 0x56, 0x50, 0x00, 0x37, 0x29, 0x00, 0x00, 0x00, 0xdc,
  0x00, 0x00, 0x81, 0x29, 0x00, 0x32, 0x26, 0x00, 0x00, 0x00, 0xb8, 0x00,
  0x00, 0xb6, 0x00, 0x35, 0x36, 0x26, 0x00, 0x00, 0x00, 0xa1, 0x00, 0x2e,
  0x00, 0xb2, 0x00, 0x00, 0x00, 0x00, 0x00, 0xd1, 0x00, 0x00, 0xa7, 0x00,
  0x00, 0x2b, 0x00, 0x00, 0x00, 0x00, 0xb6, 0x00, 0xb9, 0xb4, 0x00, 0x00,
  0x00, 0x00, 0x00, 0x00, 0x00, 0x00, 0x00, 0xc3, 0x00, 0xa7, 0x2b, 0x00,
  0x00, 0xdc, 0x00, 0x00, 0x00, 0x00, 0xb3, 0x00, 0xcb, 0x00, 0x00, 0x00,
  0xdc, 0x00, 0x00, 0x00, 0x00, 0x00, 0x00, 0x00, 0x00, 0x2d, 0x00, 0x00,
  0x00, 0xa3, 0xce, 0x00, 0x00, 0xa9, 0x00, 0x2a, 0x00, 0x00, 0x00, 0x00,
  0x25, 0x00, 0xaa, 0x00, 0x00, 0x00, 0x00, 0x00, 0x00, 0x00, 0xd9, 0x00,
  0xbd, 0x00, 0x00, 0x00, 0x00, 0x00, 0x00, 0x00, 0x00, 0x00, 0xdb, 0x00,
  0x00, 0xc8, 0x32, 0x00, 0x00, 0x00, 0x00, 0xaa, 0x28, 0x00, 0x9e, 0x00,
  0x00, 0x00, 0x2d, 0x00, 0x00, 0xc9, 0xc3, 0x00, 0xc8, 0x00, 0x00, 0x00,
  0x00, 0x00, 0x00, 0x31, 0x00, 0xd0, 0x00, 0xc6, 0x00, 0x00, 0x2a, 0x00,
  0xbd, 0xc2, 0x00, 0x00, 0x00, 0x00, 0x00, 0x00, 0x00, 0x00, 0x00, 0x00,
  0xd2, 0x00, 0x3c, 0x00, 0xcb, 0x00, 0x00, 0x00, 0x93, 0x00, 0x00, 0x00,
  0x31, 0x00, 0xc3, 0x00, 0x25, 0x00, 0x00, 0x2c, 0x00, 0x00, 0x00, 0xdc,
  0x35, 0x00, 0xdb, 0x00, 0x00, 0x00, 0x00, 0x27, 0x00, 0x00, 0x00, 0x00,
  0x00, 0x00, 0x00, 0x00, 0x00, 0x00, 0xc5, 0x00, 0x00, 0x00, 0x00, 0x00,
  0x2f, 0x00, 0x00, 0x00, 0x00, 0x00, 0x2f, 0xc9, 0x00, 0x00, 0x00, 0x00,
  0x00, 0x00, 0x00, 0x37, 0x00, 0x00, 0x00, 0x00, 0x00, 0x00, 0x00, 0x00,
  0x00, 0x00, 0x00, 0x00, 0x00, 0x00, 0x00, 0x00, 0x00, 0x00, 0x00, 0x24,
  0x00, 0x00, 0x00, 0x49, 0x00, 0x00, 0xba, 0x00, 0x00, 0x00, 0x00, 0xc4,
  0xd2, 0x3e, 0x00, 0x00, 0x00, 0x00, 0x00, 0x00, 0x00, 0x00, 0x00, 0xd2,
  0x00, 0xc8, 0x00, 0x37, 0x00, 0xce, 0xd2, 0x00, 0x00, 0x00, 0x31, 0x00,
  0x00, 0x00, 0xc6, 0x00, 0x00, 0xc9, 0x00, 0x00, 0x00, 0x00, 0x00, 0x00,
  0x00, 0x00, 0x00, 0x00, 0xcb, 0x00, 0x00, 0x00, 0x00, 0x00, 0xcb, 0x00,
  0x00, 0x00, 0x00, 0x00, 0x00, 0x2d, 0xbc, 0x00, 0x00, 0x00, 0x00, 0x00,
  0x00, 0x00, 0x00, 0x00, 0x00, 0x00, 0x00, 0x00, 0x00, 0x00, 0xd5, 0x00,
  0x52, 0x00, 0x00, 0x00, 0x33, 0xbc, 0x00, 0x32, 0x00, 0x00, 0x00, 0x00,
  0x00, 0x00, 0x00, 0x00, 0x00, 0x00, 0x00, 0x00, 0x38, 0x00, 0x00, 0x00,
  0x00, 0x7c, 0x00, 0x00, 0x00, 0xcf, 0x00, 0x00, 0x54, 0x00, 0x00, 0x00,
  0xaf, 0xb1, 0x46, 0xbd, 0x00, 0x00, 0x00, 0xc9, 0xb6, 0x00, 0x00, 0x00,
  0x00, 0x00, 0xcd, 0x00, 0x00, 0x00, 0x00, 0x00, 0x00, 0x29, 0x00, 0x00,
  0x00, 0x00, 0xd0, 0x00, 0x2b, 0x00, 0x00, 0xb6, 0x2b, 0x00, 0xcd, 0x42,
  0x00, 0x00, 0x00, 0x00, 0x00, 0x00, 0x00, 0x46, 0x00, 0x00, 0x8c, 0x00,
  0x38, 0x00, 0x00, 0x00, 0x00, 0x00, 0x00, 0x00, 0x2d, 0x00, 0x00, 0x00,
  0x00, 0x2e, 0x38, 0x00, 0x00, 0xaf, 0x00, 0x67, 0x48, 0x00, 0x00, 0x00,
  0x56, 0x00, 0x00, 0xac, 0x00, 0xb7, 0x99, 0x00, 0x2c, 0x00, 0x00, 0x00,
  0x00, 0x73, 0x00, 0x00, 0xbc, 0x00, 0x00, 0x00, 0x7f, 0x00, 0x62, 0x30,
  0x00, 0x00, 0x32, 0x00, 0x00, 0x00, 0x00, 0x00, 0x38, 0x41, 0x00, 0x00,
  0x00, 0x00, 0x8f, 0xba, 0x39, 0x00, 0xc2, 0x00, 0x45, 0x68, 0x00, 0x00,
  0x00, 0x00, 0x00, 0x00, 0x00, 0x00, 0x00, 0x00, 0xc4, 0xb0, 0x32, 0x35,
  0x00, 0xaa, 0x00, 0x2f, 0xc2, 0x00, 0x00, 0x00, 0x00, 0x00, 0xb3, 0xd2,
  0x4e, 0x00, 0x00, 0x00, 0x00, 0x39, 0x00, 0x47, 0x68, 0x00, 0x00, 0x2a,
  0x4d, 0x00, 0x00, 0x00, 0xcd, 0x00, 0x00, 0x45, 0x00, 0x00, 0x00, 0x00,
  0x00, 0x00, 0x00, 0x00, 0x00, 0xd9, 0x00, 0x00, 0x00, 0x00, 0x00, 0xd1,
  0x00, 0x00, 0x00, 0x00, 0x00, 0x00, 0x00, 0x00, 0x00, 0x00, 0x30, 0x00,
  0xd6, 0x00, 0x00, 0xd4, 0x00, 0x00, 0x00, 0x00, 0x00, 0x3c, 0x00, 0x00,
  0x00, 0x00, 0x00, 0xce, 0x00, 0x00, 0x00, 0x00, 0x00, 0x00, 0x00, 0x00,
  0x00, 0xd8, 0x00, 0xda, 0xd2, 0x00, 0x00, 0x00, 0x00, 0xcc, 0x00, 0x00,
  0x00, 0xc8, 0x00, 0x00, 0x00, 0x00, 0x00, 0x00, 0x00, 0xd6, 0xb0, 0x00,
  0x00, 0x00, 0x00, 0x00, 0x00, 0x00, 0xa6, 0xd6, 0x00, 0xd1, 0x00, 0x00,
  0xc0, 0xd1, 0xda, 0x00, 0x00, 0xb8, 0x00, 0x00, 0x00, 0x00, 0x00, 0x28,
  0x00, 0x00, 0x00, 0x00, 0x00, 0x00, 0x00, 0x00, 0x00, 0x2a, 0x00, 0x00,
  0x00, 0x00, 0x00, 0x00, 0xcc, 0x00, 0x00, 0x00, 0x00, 0x00, 0x00, 0x00,
  0x00, 0xd2, 0x26, 0x00, 0x00, 0x00, 0x00, 0x00, 0x00, 0x00, 0x00, 0x00,
  0x00, 0x00, 0x00, 0x00, 0x00, 0x00, 0x00, 0x00, 0x00, 0x44, 0x00, 0x29,
  0x34, 0x00, 0x00, 0x26, 0xc8, 0x00, 0x00, 0x00, 0x00, 0x00, 0x00, 0x00,
  0x00, 0x00, 0x00, 0x00, 0x00, 0x00, 0x42, 0x00, 0x00, 0x00, 0x00, 0x00,
  0x38, 0x00, 0x00, 0x28, 0x00, 0x39, 0x32, 0x00, 0x00, 0x36, 0x00, 0x00,
  0x00, 0x00, 0x00, 0x00, 0x00, 0x3d, 0x00, 0x00, 0x2e, 0x2b, 0x00, 0x00,
  0x00, 0x00, 0x2f, 0x00, 0x00, 0x28, 0x7f, 0x00, 0x00, 0x00, 0x00, 0x00,
  0x00, 0x00, 0x61, 0x43, 0x00, 0x4f, 0x00, 0x00, 0x00, 0x2f, 0xcf, 0x00,
  0x30, 0x00, 0xd6, 0xc6, 0x00, 0x30, 0x00, 0x00, 0xb7, 0x00, 0x42, 0xad,
  0x00, 0x00, 0x68, 0x00, 0x00, 0xac, 0x00, 0x00, 0xb9, 0x00, 0x00, 0x2e,
  0x00, 0x32, 0xd6, 0x00, 0xb5, 0x00, 0x00, 0x00, 0x29, 0x34, 0xa7, 0x00,
  0x00, 0x4e, 0x00, 0xc8, 0xba, 0xd3, 0x33, 0xbc, 0xc4, 0x00, 0x00, 0x00,
  0x00, 0xbe, 0x00, 0x00, 0xc1, 0x00, 0x43, 0x00, 0x00, 0x33, 0x00, 0xd7,
  0x00, 0x00, 0x00, 0xd7, 0x00, 0x3d, 0x9a, 0x00, 0x00, 0x25, 0x00, 0x00,
  0x00, 0x00, 0xa2, 0x00, 0x00, 0x00, 0x00, 0x00, 0xc3, 0x00, 0x3e, 0x00,
  0x00, 0x00, 0x00, 0x00, 0x87, 0x00, 0x00, 0x00, 0x00, 0x00, 0x00, 0x00,
  0x00, 0xc6, 0x00, 0x00, 0x00, 0x00, 0x00, 0x3f, 0x55, 0x00, 0x00, 0x00,
  0x00, 0x00, 0x00, 0x00, 0x00, 0x00, 0x00, 0x00, 0x00, 0x69, 0x00, 0x00,
  0x00, 0xb4, 0x00, 0x00, 0x00, 0x00, 0x00, 0x00, 0x00, 0x00, 0x00, 0x00,
  0x00, 0x00, 0x00, 0x3b, 0x00, 0x48, 0x00, 0x00, 0x00, 0x00, 0x00, 0x00,
  0x00, 0x00, 0x00, 0x00, 0x00, 0x63, 0x00, 0x38, 0xca, 0x00, 0x3a, 0x00,
  0x00, 0x00, 0x00, 0x38, 0x00, 0x00, 0x00, 0x00, 0x00, 0x00, 0x00, 0x00,
  0x00, 0x00, 0x39, 0xba, 0x00, 0x00, 0x7d, 0x00, 0x00, 0x00, 0x00, 0x00,
  0x00, 0x00, 0x6a, 0x00, 0x00, 0x00, 0x00, 0x00, 0x00, 0x00, 0x00, 0x00,
  0x00, 0x69, 0x00, 0x00, 0x00, 0x60, 0x00, 0x39, 0x00, 0x00, 0x4f, 0x95,
  0x00, 0x00, 0x3b, 0x00, 0x00, 0x00, 0x00, 0x00, 0x00, 0x00, 0x5d, 0x4c,
  0x00, 0x3b, 0x00, 0x00, 0x00, 0x00, 0x00, 0x00, 0x00, 0x00, 0x00, 0xbb,
  0x00, 0x00, 0x00, 0x00, 0xab, 0x00, 0x00, 0xad, 0x00, 0x00, 0x69, 0x00,
  0x62, 0x00, 0x3d, 0x00, 0x00, 0x00, 0x55, 0x00, 0x00, 0x4e, 0x00, 0x00,
  0x00, 0x36, 0x00, 0x00, 0x00, 0x40, 0x00, 0x00, 0x00, 0x52, 0x00, 0x00,
  0x00, 0x00, 0x00, 0x81, 0x00, 0x00, 0x71, 0x00, 0x00, 0xae, 0x00, 0x00,
  0x00, 0x00, 0x5d, 0x00, 0x00, 0x4c, 0x00, 0x00, 0x00, 0x00, 0x00, 0xc1,
  0x00, 0x00, 0x00, 0xb9, 0x00, 0x54, 0x00, 0xc1, 0x00, 0x3c, 0x00, 0x00,
  0xb1, 0xb4, 0x00, 0x00, 0x00, 0xbc, 0x00, 0x00, 0xb7, 0xb6, 0x45, 0x00,
  0x00, 0x00, 0x00, 0xb5, 0xaa, 0x00, 0x00, 0xbb, 0x00, 0x00, 0xa7, 0x00,
  0x00, 0x00, 0x00, 0x00, 0x00, 0x00, 0x9e, 0xc1, 0xa6, 0x8c, 0x00, 0x00,
  0x00, 0x00, 0xa9, 0xb1, 0x00, 0x84, 0xba, 0x00, 0x00, 0x00, 0x00, 0xc1,
  0x00, 0xb1, 0x00, 0xab, 0x00, 0x00, 0x95, 0xb2, 0x00, 0x00, 0x00, 0x00,
  0x00, 0x00, 0x00, 0x00, 0x00, 0x00, 0x81, 0x00, 0x00, 0x00, 0x00, 0x1e,
  0x00, 0x31, 0x00, 0x00, 0x00, 0xcc, 0x20, 0x00, 0x34, 0xe3, 0x24, 0x00,
  0x00, 0xb5, 0x29, 0x00, 0x28, 0xd7, 0x00, 0x00, 0x00, 0x00, 0x35, 0x00,
  0x00, 0x00, 0x00, 0x00, 0x00, 0x00, 0x00, 0x00, 0x00, 0x2d, 0x00, 0x2e,
  0x00, 0x1d, 0x00, 0x1f, 0x00, 0x20, 0x00, 0x00, 0x00, 0x00, 0x00, 0x00,
  0x00, 0x00, 0x00, 0x00, 0x00, 0xd1, 0x00, 0x00, 0x00, 0x00, 0x00, 0xde,
  0x00, 0x00, 0x00, 0x00, 0x00, 0x00, 0x00, 0x00, 0x00, 0x00, 0x00, 0xde,
  0x00, 0x00, 0x00, 0x00, 0x00, 0x00, 0x00, 0x20, 0x00, 0x00, 0x00, 0x00,
  0x00, 0x00, 0xd1, 0x00, 0x00, 0x00, 0xab, 0x00, 0x00, 0x00, 0x00, 0x23,
  0x00, 0x3e, 0x00, 0x00, 0xb1, 0x00, 0x1b, 0x00, 0x00, 0x20, 0x00, 0x00,
  0x21, 0xc9, 0x00, 0x00, 0x00, 0xdc, 0x20, 0x00, 0x00, 0x1f, 0x00, 0x00,
  0x00, 0xd5, 0x00, 0x00, 0x25, 0x00, 0x00, 0x00, 0x1e, 0x00, 0x00, 0x00,
  0xbc, 0x00, 0x00, 0x00, 0x00, 0x00, 0x33, 0x00, 0x00, 0x00, 0x29, 0x00,
  0x00, 0x00, 0x00, 0x00, 0x00, 0x00, 0x00, 0x00, 0xda, 0x00, 0xe1, 0x00,
  0x00, 0x00, 0x00, 0x00, 0x00, 0x00, 0x00, 0x00, 0xda, 0x00, 0x00, 0x00,
  0x00, 0x00, 0x00, 0x00, 0x00, 0xdc, 0x00, 0x00, 0x00, 0x00, 0xe1, 0x00,
  0xc8, 0x90, 0xe2, 0x00, 0x00, 0x29, 0x00, 0x00, 0xcb, 0xbe, 0x00, 0x00,
  0xe4, 0x2e, 0x00, 0x00, 0xb3, 0x00, 0x00, 0xdf, 0xdc, 0x00, 0x00, 0x00,
  0x00, 0x00, 0xca, 0x3f, 0x00, 0x25, 0x00, 0x00, 0x3f, 0x1f, 0x00, 0xd1,
  0x00, 0x00, 0x00, 0x00, 0xd8, 0x00, 0x00, 0x00, 0x00, 0x00, 0x00, 0x00,
  0x86, 0x29, 0x00, 0xdf, 0x00, 0x2e, 0x00, 0x00, 0x41, 0x00, 0x23, 0x00,
  0x00, 0x00, 0x1c, 0x00, 0x38, 0x30, 0x00, 0xd7, 0x00, 0x00, 0x00, 0x00,
  0x00, 0x00, 0x00, 0x00, 0x2a, 0x00, 0x28, 0x1d, 0xde, 0x00, 0x00, 0x1c,
  0x00, 0x00, 0x00, 0x00, 0x00, 0xe3, 0x00, 0xdd, 0x00, 0x00, 0x00, 0x00,
  0x00, 0x00, 0x00, 0x35, 0x00, 0x00, 0xb3, 0x00, 0x00, 0x2e, 0x2f, 0x35,
  0x00, 0x00, 0xd2, 0x00, 0x00, 0xbd, 0x00, 0x39, 0x00, 0x00, 0x00, 0x2f,
  0x00, 0x00, 0x00, 0x00, 0x00, 0x00, 0x00, 0x34, 0x00, 0x00, 0x00, 0x00,
  0x00, 0x00, 0x00, 0x00, 0x00, 0x00, 0x2e, 0x00, 0x00, 0x00, 0xce, 0x00,
  0x00, 0x00, 0x00, 0x00, 0x00, 0x00, 0x00, 0x00, 0xb2, 0x00, 0x30, 0xcb,
  0x00, 0x00, 0x00, 0x00, 0xbe, 0xb9, 0x00, 0x00, 0x00, 0x00, 0x00, 0x00,
  0x00, 0x00, 0x00, 0x00, 0x00, 0x00, 0x00, 0x00, 0x00, 0x2c, 0x00, 0x00,
  0x00, 0x00, 0x00, 0x00, 0x00, 0x00, 0x00, 0x00, 0x00, 0x00, 0x00, 0x00,
  0x00, 0xd3, 0x00, 0x46, 0x2f, 0x00, 0x81, 0x2a, 0x00, 0x00, 0x00, 0x00,
  0x00, 0x00, 0x00, 0x00, 0x00, 0x00, 0x00, 0x00, 0x00, 0x39, 0x00, 0x3c,
  0x00, 0xb8, 0x00, 0x00, 0x00, 0xc6, 0x00, 0x00, 0x00, 0x00, 0x2a, 0xd0,
  0x00, 0x00, 0xb6, 0x00, 0x00, 0x00, 0x00, 0x00, 0x00, 0x00, 0xb1, 0x00,
  0x00, 0x00, 0x00, 0x32, 0x4a, 0x00, 0x2f, 0x00, 0xb5, 0x00, 0x00, 0x00,
  0xcd, 0x00, 0x00, 0x00, 0xd6, 0x00, 0x00, 0x00, 0xd5, 0xbd, 0x00, 0x00,
  0x00, 0x00, 0x00, 0xb5, 0x00, 0x00, 0x00, 0x00, 0x00, 0x00, 0x00, 0xd5,
  0x00, 0x00, 0x32, 0x00, 0x00, 0x00, 0x00, 0x00, 0x00, 0x00, 0xd0, 0xc8,
  0x00, 0xb0, 0x00, 0x00, 0x00, 0x00, 0x96, 0x00, 0x40, 0x00, 0x43, 0x2b,
  0x00, 0x00, 0xad, 0x00, 0x00, 0x00, 0x32, 0x33, 0x00, 0x2f, 0x00, 0x31,
  0x00, 0x00, 0x00, 0x00, 0x00, 0xc6, 0x00, 0x00, 0x00, 0x00, 0x00, 0x00,
  0x00, 0xca, 0x00, 0x00, 0x2e, 0x00, 0x00, 0x00, 0x31, 0x4a, 0xc3, 0x00,
  0x00, 0xd6, 0x00, 0x00, 0x40, 0x00, 0x3d, 0x00, 0xc7, 0x00, 0x00, 0xb8,
  0x00, 0x00, 0x00, 0x00, 0xd4, 0xd3, 0x00, 0x00, 0x00, 0x00, 0x00, 0x00,
  0x00, 0x00, 0x00, 0xc8, 0x00, 0x00, 0x00, 0x00, 0x00, 0x00, 0xcf, 0x00,
  0x00, 0xd6, 0x00, 0xc5, 0x00, 0x00, 0x00, 0x00, 0xb5, 0x00, 0xc3, 0x00,
  0x00, 0x00, 0x00, 0xd9, 0x00, 0x00, 0x00, 0x00, 0x00, 0x00, 0x00, 0x00,
  0x2c, 0x00, 0x41, 0x00, 0x00, 0x2f, 0x00, 0x24, 0x00, 0x00, 0x00, 0x00,
  0x00, 0x00, 0x00, 0x00, 0x00, 0x2b, 0x00, 0x00, 0x00, 0x2c, 0x00, 0x00,
  0x00, 0x00, 0x00, 0x00, 0x00, 0x00, 0x00, 0x00, 0x00, 0x53, 0x35, 0x00,
  0xae, 0x00, 0x00, 0x25, 0x00, 0x00, 0x00, 0x00, 0x38, 0x00, 0x23, 0x00,
  0x00, 0x30, 0x00, 0x00, 0x00, 0x00, 0x00, 0xc8, 0x00, 0x00, 0x2d, 0x00,
  0x2b, 0x00, 0x00, 0x00, 0x31, 0x3c, 0x00, 0x00, 0x00, 0x00, 0x00, 0x00,
  0x00, 0x00, 0x24, 0x00, 0x00, 0x00, 0x36, 0xe0, 0xdc, 0x00, 0x00, 0x00,
  0x00, 0x00, 0x24, 0xc8, 0x00, 0x00, 0x00, 0x00, 0x00, 0xdd, 0x00, 0x00,
  0x00, 0x00, 0x34, 0x00, 0x00, 0x00, 0x00, 0x00, 0x00, 0x00, 0x00, 0xd6,
  0x00, 0x00, 0x00, 0x00, 0x00, 0x00, 0x00, 0x00, 0x00, 0x00, 0x00, 0x00,
  0x00, 0x00, 0x00, 0x00, 0x00, 0x00, 0x29, 0x24, 0x00, 0x2f, 0x00, 0x28,
  0x00, 0x00, 0x00, 0xdb, 0x00, 0x00, 0x00, 0x00, 0x44, 0x00, 0x00, 0x33,
  0x00, 0x00, 0x24, 0x00, 0x00, 0x00, 0xdb, 0x00, 0x00, 0x00, 0x00, 0x00,
  0x00, 0x00, 0x00, 0x00, 0x32, 0x00, 0x00, 0x00, 0x00, 0x00, 0x00, 0x00,
  0x32, 0x29, 0x33, 0x00, 0x32, 0x00, 0x00, 0x00, 0x00, 0x00, 0x00, 0x00,
  0x00, 0x00, 0x00, 0xc8, 0xd3, 0x00, 0x00, 0x00, 0x00, 0x00, 0x00, 0x00,
  0x00, 0x7f, 0x00, 0x00, 0x00, 0x00, 0x00, 0x00, 0x00, 0x00, 0x00, 0xd7,
  0x00, 0x00, 0x52, 0x00, 0x00, 0xdc, 0x00, 0xd7, 0xc0, 0xbc, 0xbc, 0x00,
  0x00, 0x00, 0x00, 0x00, 0x00, 0x00, 0x00, 0x00, 0xdc, 0x00, 0x00, 0xc9,
  0xb7, 0xd5, 0xd5, 0xc6, 0x00, 0xd9, 0x00, 0xc7, 0x00, 0x00, 0xbd, 0x00,
  0x00, 0x00, 0x00, 0x00, 0x00, 0x00, 0x00, 0x00, 0x00, 0x00, 0x00, 0x00,
  0x00, 0x00, 0x00, 0x00, 0x00, 0x00, 0x00, 0x00, 0x00, 0x00, 0x00, 0x00,
  0x00, 0x00, 0x00, 0x00, 0x00, 0x00, 0x00, 0x36, 0x00, 0x00, 0x00, 0x00,
  0x00, 0x00, 0x00, 0x00, 0xd0, 0x00, 0x00, 0x00, 0xb2, 0xda, 0x00, 0xd0,
  0x00, 0xd3, 0x00, 0xcc, 0xb9, 0x00, 0x00, 0xbd, 0x00, 0x00, 0x00, 0xc4,
  0x00, 0x00, 0x00, 0x00, 0x00, 0x00, 0xd6, 0x00, 0x31, 0x00, 0xad, 0x00,
  0x00, 0x00, 0x00, 0x00, 0xcb, 0x00, 0x00, 0xbb, 0x00, 0x00, 0xd2, 0x00,
  0xa8, 0x00, 0x00, 0x00, 0x9c, 0x00, 0xda, 0x00, 0xda, 0xcf, 0x00, 0x00,
  0xd0, 0xd9, 0x00, 0x00, 0x31, 0x39, 0x00, 0x00, 0x00, 0x00, 0x00, 0x00,
  0xb5, 0x28, 0x00, 0xd5, 0x00, 0x00, 0x00, 0xcc, 0x00, 0x00, 0x00, 0x00,
  0x00, 0xd9, 0xc0, 0x00, 0x00, 0xbc, 0x00, 0x00, 0x36, 0x00, 0x00, 0x00,
  0x00, 0x00, 0x00, 0x00, 0x00, 0x00, 0x00, 0x00, 0xad, 0x00, 0x00, 0x00,
  0x00, 0xc8, 0x00, 0x00, 0xa6, 0x00, 0x00, 0x00, 0x81, 0x00, 0xcd, 0xd1,
  0x00, 0xce, 0xcf, 0x00, 0x00, 0xc3, 0x00, 0x29, 0x00, 0x00, 0x00, 0x00,
  0x00, 0x00, 0x00, 0x00, 0xda, 0x00, 0x00, 0x00, 0x00, 0x00, 0xd6, 0x00,
  0x00, 0x00, 0x00, 0x00, 0x8a, 0x00, 0xb2, 0x00, 0x00, 0x00, 0x00, 0x00,
  0x00, 0xcd, 0x00, 0x00, 0x00, 0x00, 0x45, 0xc0, 0x00, 0x40, 0x00, 0x00,
  0x00, 0x31, 0x00, 0x00, 0xcf, 0x00, 0x00, 0x00, 0x00, 0x36, 0x28, 0x34,
  0xb3, 0x00, 0xca, 0x00, 0x00, 0x34, 0x00, 0x00, 0x00, 0x00, 0x00, 0x00,
  0x00, 0x00, 0x2d, 0x00, 0x00, 0x36, 0x00, 0x2c, 0x25, 0x3a, 0x2c, 0x00,
  0x00, 0x44, 0x00, 0x26, 0xa6, 0x00, 0x34, 0x00, 0xc1, 0x00, 0x00, 0x00,
  0x00, 0xce, 0x00, 0x00, 0x42, 0x00, 0x2e, 0x27, 0x00, 0xc7, 0x48, 0xd2,
  0x00, 0x00, 0x00, 0x31, 0x31, 0x00, 0x00, 0x00, 0x00, 0x00, 0x30, 0x00,
  0x51, 0x00, 0x00, 0x36, 0x00, 0x00, 0xd0, 0x00, 0x00, 0x00, 0x00, 0x00,
  0x00, 0x00, 0x2c, 0x2b, 0xa5, 0xba, 0x25, 0xd1, 0x00, 0x00, 0x00, 0x00,
  0x00, 0x00, 0x00, 0x00, 0xce, 0xc1, 0x00, 0x24, 0x00, 0x00, 0x00, 0x00,
  0x00, 0x00, 0x00, 0x00, 0x00, 0x00, 0x00, 0x00, 0x00, 0x2a, 0x00, 0x00,
  0x23, 0x00, 0x00, 0x00, 0x00, 0x00, 0x00, 0x00, 0x00, 0x00, 0x00, 0x00,
  0x00, 0x3b, 0x00, 0x24, 0x00, 0x00, 0x00, 0x00, 0x00, 0x31, 0x00, 0x00,
  0x26, 0x31, 0x00, 0x00, 0x00, 0x00, 0x00, 0x00, 0x23, 0x00, 0x00, 0x00,
  0x00, 0x00, 0x00, 0x00, 0x00, 0x00, 0x00, 0x00, 0x00, 0x00, 0x25, 0x00,
  0xbc, 0x00, 0x00, 0x00, 0x00, 0x00, 0x00, 0x00, 0x3a, 0x00, 0x00, 0x00,
  0x00, 0x2c, 0x00, 0x00, 0x00, 0x00, 0x00, 0x00, 0x25, 0x00, 0xb3, 0x00,
  0x3d, 0x00, 0x00, 0x00, 0x00, 0x35, 0xd2, 0x00, 0xdb, 0xca, 0x00, 0x00,
  0x3c, 0x00, 0x00, 0x00, 0x00, 0xd5, 0x36, 0x00, 0x36, 0x00, 0x00, 0x00,
  0xd2, 0xd6, 0x00, 0xb6, 0xdf, 0x00, 0x00, 0xdd, 0x00, 0x00, 0x00, 0xd7,
  0x00, 0x00, 0x00, 0x00, 0x00, 0x2a, 0x00, 0x00, 0x00, 0x00, 0x00, 0xde,
  0x00, 0x00, 0x00, 0x00, 0x00, 0x24, 0xd0, 0x00, 0x00, 0x00, 0xb8, 0x00,
  0x00, 0x00, 0xdd, 0x00, 0x00, 0x00, 0x00, 0x00, 0x00, 0x00, 0x00, 0x00,
  0xa7, 0x00, 0x00, 0xd5, 0xd6, 0x00, 0x00, 0xdd, 0x22, 0xd3, 0xd0, 0x33,
  0x00, 0x00, 0x00, 0x26, 0x00, 0xb4, 0x00, 0x00, 0x31, 0x00, 0xa3, 0x00,
  0x38, 0x00, 0x00, 0x00, 0x32, 0x37, 0xe1, 0xd8, 0x00, 0xc6, 0x00, 0x22,
  0x46, 0x34, 0x38, 0x30, 0x32, 0x96, 0x27, 0x4a, 0x00, 0x00, 0x00, 0x00,
  0x00, 0x00, 0x00, 0xda, 0xc3, 0x00, 0x00, 0x00, 0x00, 0xda, 0xbb, 0xba,
  0xdc, 0x00, 0x00, 0x00, 0x00, 0x00, 0xd0, 0xd3, 0xdf, 0x00, 0xd9, 0x00,
  0x00, 0x00, 0x00, 0x00, 0xd6, 0x00, 0xd7, 0xd5, 0xc1, 0x00, 0xa6, 0x00,
  0x00, 0x00, 0xcd, 0xd9, 0xda, 0x00, 0xe1, 0x00, 0xd1, 0x00, 0x00, 0x00,
  0x00, 0xc6, 0x00, 0x00, 0x00, 0x00, 0x00, 0xe0, 0x2e, 0xcb, 0xe0, 0x00,
  0x00, 0xc5, 0x00, 0x00, 0x00, 0x00, 0x00, 0x42, 0x00, 0x00, 0x81, 0x00,
  0x39, 0x00, 0x00, 0x00, 0x2f, 0x00, 0x00, 0x00, 0x00, 0xc4, 0x00, 0x00,
  0x62, 0x25, 0x44, 0x00, 0x2c, 0xcb, 0x2d, 0x53, 0x00, 0xb9, 0x2c, 0x00,
  0x00, 0x00, 0x00, 0x00, 0x00, 0x00, 0x00, 0x00, 0x00, 0x00, 0x00, 0x00,
  0x00, 0x00, 0x00, 0x00, 0x00, 0x00, 0x00, 0x00, 0x00, 0x00, 0x00, 0x00,
  0x00, 0x00, 0x00, 0x00, 0x00, 0x00, 0x00, 0x00, 0x00, 0x00, 0x00, 0x00,
  0x00, 0x00, 0x00, 0x00, 0x00, 0x00, 0x00, 0x00, 0x00, 0x00, 0x00, 0x00,
  0x00, 0x00, 0x00, 0x00, 0x00, 0x00, 0x00, 0x00, 0x00, 0x00, 0x00, 0x00,
  0x00, 0x00, 0x00, 0x00, 0x00, 0x00, 0x00, 0x00, 0x00, 0x00, 0x00, 0x00,
  0x00, 0x00, 0x00, 0x00, 0x82, 0x00, 0x00, 0x00, 0x00, 0x00, 0x00, 0x00,
  0x00, 0x00, 0x00, 0x00, 0x00, 0x00, 0x00, 0x00, 0x00, 0x00, 0x00, 0x00,
  0x00, 0x00, 0x00, 0x00, 0x00, 0x00, 0x00, 0x00, 0x00, 0x00, 0x00, 0x00,
  0x00, 0x81, 0x00, 0x00, 0x00, 0x00, 0x00, 0x00, 0x00, 0x00, 0x00, 0x00,
  0x00, 0x00, 0x00, 0x00, 0x00, 0x00, 0x00, 0x00, 0x00, 0x00, 0x00, 0x00,
  0x00, 0x00, 0x00, 0x00, 0x00, 0x00, 0x00, 0x00, 0x00, 0x00, 0x00, 0x00,
  0x00, 0x00, 0x00, 0x00, 0x00, 0x00, 0x00, 0x00, 0x00, 0x00, 0x00, 0x00,
  0x00, 0x00, 0x00, 0x00, 0x00, 0x00, 0x00, 0x00, 0x00, 0x00, 0x00, 0x00,
  0x00, 0x00, 0x00, 0x00, 0x00, 0x00, 0x00, 0x00, 0x00, 0x00, 0x00, 0x00,
  0x00, 0x00, 0x00, 0x00, 0x00, 0x00, 0x00, 0x00, 0x00, 0x00, 0x00, 0x00,
  0x00, 0x00, 0x00, 0x00, 0x00, 0x00, 0x00, 0x00, 0x00, 0x00, 0x00, 0x00,
  0x00, 0x00, 0x00, 0x00, 0x00, 0x00, 0x00, 0x00, 0x00, 0x00, 0x00, 0x00,
  0x00, 0x00, 0x00, 0x00, 0x00, 0x00, 0x00, 0x00, 0x00, 0x00, 0x00, 0x00,
  0x00, 0x00, 0x00, 0x00, 0x00, 0x00, 0x00, 0x00, 0x00, 0x00, 0x00, 0x00,
  0x00, 0x00, 0x00, 0x00, 0x00, 0x00, 0x00, 0x00, 0x00, 0x00, 0x00, 0x00,
  0x00, 0x00, 0x00, 0x00, 0x00, 0x00, 0x00, 0x00, 0x00, 0x00, 0x00, 0x00,
  0x00, 0x00, 0x00, 0x00, 0x00, 0x00, 0x00, 0x00, 0x00, 0x00, 0x00, 0x00,
  0x00, 0x00, 0x00, 0x00, 0x00, 0x00, 0x00, 0x00, 0x00, 0x00, 0x00, 0x00,
  0x00, 0x00, 0x47, 0xbe, 0x00, 0x00, 0x00, 0x00, 0x00, 0x00, 0x00, 0x00,
  0x00, 0x00, 0x00, 0x00, 0x00, 0x00, 0x00, 0x00, 0x00, 0x00, 0x00, 0x00,
  0x00, 0x00, 0x00, 0xc8, 0x00, 0x00, 0x00, 0x00, 0x00, 0x00, 0x00, 0x00,
  0x00, 0x00, 0x27, 0x00, 0xdd, 0x00, 0x00, 0x00, 0x00, 0xb3, 0x2d, 0x00,
  0x00, 0x00, 0x00, 0x00, 0x99, 0x00, 0x00, 0x00, 0x00, 0x00, 0x00, 0x00,
  0x00, 0x00, 0x00, 0x00, 0x00, 0x00, 0xcd, 0x00, 0x31, 0x27, 0xc4, 0x00,
  0x00, 0x00, 0x31, 0x00, 0x00, 0xd3, 0xd8, 0xdc, 0x00, 0x00, 0x00, 0x00,
  0xcf, 0x00, 0xc6, 0x00, 0x3d, 0x00, 0x00, 0x00, 0x00, 0x00, 0x00, 0x37,
  0x00, 0x00, 0x00, 0x00, 0x00, 0x00, 0x3e, 0x00, 0x00, 0x00, 0x00, 0xcc,
  0xcb, 0x00, 0x00, 0x00, 0x2f, 0x00, 0x00, 0xb5, 0x00, 0x00, 0xb7, 0xc6,
  0x26, 0x00, 0x00, 0x00, 0x00, 0x00, 0x00, 0x00, 0x00, 0x00, 0xc4, 0x33,
  0x00, 0x00, 0xc1, 0x00, 0x00, 0x00, 0x00, 0x00, 0x00, 0xc6, 0x00, 0x00,
  0xcb, 0x00, 0x00, 0x00, 0x9c, 0x00, 0x9e, 0x00, 0x00, 0xc9, 0xba, 0x00,
  0x00, 0xd8, 0x00, 0x00, 0x00, 0xde, 0x00, 0x00, 0x34, 0x2a, 0xa8, 0x34,
  0x38, 0x2c, 0x37, 0x32, 0x00, 0x00, 0xc4, 0x00, 0x39, 0xc9, 0x24, 0x00,
  0x00, 0x00, 0xd2, 0x00, 0x00, 0xb7, 0xd8, 0x3b, 0x2d, 0xcf, 0x00, 0x38,
  0x00, 0x00, 0xbe, 0x58, 0x00, 0x00, 0xae, 0xd1, 0x00, 0x00, 0x00, 0x00,
  0x00, 0xd9, 0xb4, 0xba, 0x00, 0xb7, 0x00, 0x00, 0xac, 0x00, 0xac, 0x00,
  0x00, 0xc1, 0x00, 0x00, 0x2d, 0xc4, 0x00, 0x37, 0xdf, 0x00, 0x00, 0x00,
  0x30, 0x00, 0xcb, 0x00, 0x4f, 0x00, 0x00, 0x00, 0x00, 0xd1, 0xb4, 0x00,
  0x54, 0x00, 0x00, 0x3f, 0x00, 0x00, 0x00, 0x00, 0xd3, 0xc5, 0x00, 0x28,
  0x00, 0x00, 0x00, 0x00, 0x8e, 0x00, 0x00, 0x23, 0x00, 0x00, 0xd4, 0x33,
  0x37, 0x00, 0x00, 0x00, 0xdb, 0xd1, 0xc6, 0x34, 0x7f, 0x00, 0x2d, 0x45,
  0x00, 0x00, 0x00, 0x2e, 0x9f, 0x00, 0xc9, 0xdb, 0x00, 0x00, 0x00, 0x00,
  0xc1, 0xdf, 0x00, 0x00, 0x00, 0x00, 0x34, 0x00, 0x00, 0x00, 0x00, 0x00,
  0xcb, 0x00, 0x00, 0x00, 0xe2, 0x30, 0x00, 0xdd, 0xb3, 0x21, 0xbe, 0xe3,
  0x00, 0x1f, 0xb3, 0x1e, 0x00, 0x00, 0x00, 0x00, 0x00, 0x00, 0x00, 0x00,
  0x00, 0x00, 0x00, 0x00, 0x00, 0xde, 0x00, 0x00, 0x00, 0x00, 0x2a, 0x1f,
  0x81, 0x00, 0x00, 0x00, 0xd8, 0x29, 0x00, 0x00, 0x33, 0x00, 0xe0, 0x00,
  0x00, 0x00, 0x20, 0x00, 0x23, 0xdf, 0x00, 0xc5, 0x00, 0x00, 0xb1, 0x00,
  0x00, 0x00, 0x00, 0x00, 0x38, 0x47, 0xda, 0x00, 0x00, 0x00, 0x00, 0x00,
  0x3f, 0x22, 0x22, 0x00, 0x00, 0x00, 0x00, 0x1f, 0x22, 0x00, 0x25, 0x00,
  0xe4, 0x00, 0x00, 0x00, 0x00, 0x00, 0xdd, 0x00, 0xdf, 0xdc, 0x00, 0x00,
  0xce, 0xc8, 0xe2, 0xd3, 0x00, 0x00, 0x00, 0x00, 0xbb, 0x00, 0xae, 0xdf,
  0x00, 0x00, 0xc4, 0x00, 0x00, 0xe0, 0x00, 0x00, 0x00, 0x00, 0xd6, 0x00,
  0x00, 0x24, 0xcb, 0x00, 0x00, 0x00, 0x00, 0x00, 0x00, 0x00, 0x00, 0x00,
  0x00, 0x00, 0x00, 0x00, 0x00, 0x00, 0x00, 0x00, 0x00, 0xe2, 0x00, 0x2b,
  0x00, 0x00, 0x00, 0x00, 0x00, 0xdb, 0x00, 0x00, 0x00, 0x00, 0xda, 0x00,
  0x3e, 0x00, 0x00, 0x00, 0x00, 0x00, 0x20, 0x00, 0x00, 0x00, 0x00, 0x23,
  0x37, 0x2f, 0x00, 0x00, 0x00, 0x00, 0x00, 0x2a, 0x22, 0x00, 0x00, 0x00,
  0xe3, 0x1f, 0x00, 0x00, 0x00, 0x00, 0xd4, 0x00, 0xdb, 0x1f, 0x00, 0x00,
  0x00, 0xe0, 0xcd, 0x00, 0xd7, 0xdf, 0x00, 0x00, 0x00, 0x00, 0xc4, 0x00,
  0x00, 0xd5, 0x00, 0x27, 0x00, 0x00, 0x00, 0x00, 0x00, 0x00, 0x00, 0x00,
  0x00, 0x00, 0xc6, 0x00, 0x3c, 0x00, 0x00, 0x00, 0x26, 0x1d, 0x00, 0x00,
  0x2c, 0xdb, 0x24, 0x00, 0x00, 0x00, 0x00, 0x00, 0x00, 0xd2, 0x00, 0x00,
  0x21, 0x00, 0x00, 0x00, 0x00, 0xce, 0x00, 0x00, 0x00, 0x00, 0x00, 0x00,
  0x48, 0x00, 0x00, 0x00, 0x00, 0x00, 0x00, 0x00, 0x4e, 0x00, 0x00, 0x00,
  0x00, 0x00, 0x00, 0x00, 0xdc, 0x00, 0x34, 0xdd, 0x00, 0x00, 0x00, 0x00,
  0x00, 0x00, 0x00, 0xc6, 0x00, 0x00, 0x00, 0x00, 0x00, 0x00, 0x00, 0x00,
  0x00, 0x00, 0x38, 0x00, 0x00, 0x00, 0x00, 0x00, 0xa8, 0x00, 0x00, 0x00,
  0x00, 0x00, 0x00, 0x00, 0x00, 0x00, 0x00, 0x00, 0xc5, 0xc6, 0x00, 0x00,
  0x00, 0x00, 0x00, 0x00, 0x00, 0x00, 0x00, 0x00, 0xcc, 0x95, 0x00, 0x00,
  0x00, 0x00, 0x00, 0x00, 0x81, 0x00, 0x99, 0x00, 0x00, 0x00, 0xb8, 0x00,
  0x00, 0x00, 0x00, 0x00, 0xa7, 0x00, 0xbb, 0x39, 0x3e, 0x2a, 0xaa, 0x00,
  0x00, 0x00, 0x2c, 0x3c, 0x00, 0x00, 0x00, 0x00, 0x00, 0x00, 0x00, 0x31,
  0xb5, 0x35, 0xba, 0x30, 0x00, 0x00, 0x00, 0x5f, 0x00, 0xcb, 0x00, 0x42,
  0x00, 0x00, 0x00, 0x00, 0x00, 0x00, 0x00, 0x00, 0xc0, 0xda, 0xc3, 0xb1,
  0x00, 0x00, 0x46, 0x00, 0x00, 0x00, 0x00, 0x00, 0x9b, 0x00, 0x00, 0x00,
  0x39, 0x00, 0x00, 0x00, 0x00, 0x00, 0x00, 0x00, 0x00, 0x00, 0x00, 0x00,
  0x00, 0x00, 0x00, 0x00, 0xb3, 0x00, 0x00, 0x00, 0x00, 0xc5, 0x00, 0x00,
  0x00, 0xce, 0x00, 0x00, 0x84, 0x00, 0x91, 0x00, 0x00, 0x00, 0xad, 0x00,
  0x00, 0xd1, 0x00, 0x00, 0xda, 0x00, 0x00, 0x00, 0x00, 0x00, 0x85, 0x00,
  0x00, 0x00, 0x00, 0x37, 0x00, 0x00, 0x00, 0xd1, 0x00, 0x00, 0x2b, 0x00,
  0x00, 0x00, 0x00, 0x00, 0x00, 0xb7, 0xb6, 0x41, 0x34, 0x00, 0x2d, 0x2c,
  0x45, 0x3a, 0xd3, 0x00, 0x00, 0x00, 0xab, 0x00, 0xa8, 0x2b, 0x00, 0x00,
  0x00, 0x00, 0xa9, 0x00, 0xb0, 0xbb, 0x29, 0x00, 0x96, 0xc8, 0xa9, 0x00,
  0x00, 0xc0, 0x00, 0x34, 0x46, 0xc1, 0x00, 0x2a, 0x00, 0x00, 0x00, 0x00,
  0x00, 0x00, 0xa2, 0x2f, 0x00, 0x00, 0x2d, 0x00, 0x2a, 0x00, 0x00, 0x00,
  0x00, 0x00, 0x00, 0x00, 0x95, 0x00, 0x00, 0x00, 0xb4, 0xc4, 0x00, 0x00,
  0x00, 0x00, 0x00, 0x00, 0xc9, 0xb7, 0x41, 0x00, 0x00, 0x00, 0xc5, 0x3d,
  0x49, 0x00, 0x2c, 0x00, 0x00, 0x00, 0x00, 0x00, 0x4a, 0x00, 0x00, 0x2f,
  0x00, 0x00, 0x00, 0x00, 0x00, 0x00, 0xd1, 0x00, 0x00, 0x00, 0x33, 0x00,
  0xca, 0x00, 0x00, 0x00, 0x00, 0x00, 0x00, 0x00, 0x46, 0x00, 0x00, 0x00,
  0x00, 0x00, 0x3b, 0x00, 0x00, 0x00, 0x00, 0x00, 0x00, 0x00, 0x2b, 0x00,
  0x00, 0x00, 0x00, 0xd0, 0x00, 0x00, 0x00, 0xd1, 0x00, 0x00, 0x00, 0x9b,
  0xc3, 0x00, 0x00, 0xd0, 0x00, 0xc4, 0xbb, 0x00, 0x00, 0xd1, 0x00, 0x00,
  0x00, 0x00, 0xbd, 0x00, 0x00, 0x00, 0x00, 0x00, 0x00, 0x00, 0x00, 0xa9,
  0xc5, 0x00, 0xd1, 0x00, 0x00, 0x00, 0x00, 0x00, 0x00, 0x00, 0xb9, 0x00,
  0xc5, 0x00, 0xcc, 0x00, 0x37, 0x00, 0xb3, 0x00, 0xca, 0xbf, 0xc4, 0xcc,
  0x00, 0xc6, 0x00, 0x00, 0x00, 0x00, 0x00, 0x00, 0x00, 0xba, 0xba, 0x00,
  0x46, 0x00, 0x00, 0xae, 0x00, 0x00, 0x30, 0x00, 0xcf, 0x00, 0x00, 0xcd,
  0x2c, 0x00, 0x00, 0x00, 0x89, 0x34, 0x00, 0x00, 0x00, 0x00, 0x00, 0x00,
  0x00, 0x00, 0x00, 0x00, 0x00, 0x00, 0x00, 0x00, 0x4d, 0x35, 0x00, 0xbf,
  0x00, 0x00, 0x00, 0x00, 0x00, 0x00, 0x00, 0x00, 0x36, 0x00, 0x00, 0x00,
  0x00, 0x00, 0x00, 0x00, 0x00, 0x00, 0x00, 0x00, 0x00, 0x00, 0x00, 0x00,
  0x00, 0x00, 0x00, 0x00, 0x3d, 0x00, 0x00, 0xc4, 0x00, 0x00, 0x00, 0x00,
  0x00, 0x28, 0x00, 0x00, 0x00, 0x00, 0x00, 0x34, 0x00, 0x00, 0x00, 0x2a,
  0x00, 0x00, 0x00, 0x00, 0xcc, 0x00, 0x00, 0x00, 0x00, 0x00, 0x00, 0x00,
  0x00, 0x00, 0x59, 0xad, 0x00, 0x00, 0x7f, 0x00, 0x00, 0x2d, 0x00, 0x00,
  0x00, 0x00, 0x5e, 0x2f, 0x00, 0x4c, 0x00, 0x00, 0x00, 0x00, 0xc7, 0x00,
  0x00, 0x46, 0x00, 0xc9, 0x00, 0x6c, 0x00, 0x00, 0x00, 0x52, 0x2e, 0xaf,
  0x00, 0x00, 0x51, 0x00, 0x00, 0x00, 0x00, 0x00, 0x00, 0x33, 0x5d, 0x44,
  0x00, 0x00, 0x00, 0x00, 0xc1, 0x44, 0x00, 0x00, 0x31, 0x00, 0xb0, 0x00,
  0x00, 0x5e, 0x00, 0x00, 0xc0, 0xd0, 0x00, 0xb4, 0x00, 0x00, 0x38, 0x00,
  0x2b, 0xd1, 0x00, 0x00, 0xb8, 0xc6, 0x3f, 0x32, 0x00, 0x00, 0x00, 0x00,
  0xc0, 0x00, 0x00, 0x00, 0x00, 0x31, 0x00, 0x00, 0x00, 0x00, 0x00, 0x00,
  0x00, 0x00, 0xdf, 0x00, 0x00, 0x00, 0xad, 0x00, 0x00, 0x29, 0x2d, 0x3a,
  0x00, 0x32, 0x00, 0x00, 0x00, 0x00, 0x00, 0x2e, 0x42, 0x3f, 0x2c, 0x00,
  0x3d, 0x00, 0x29, 0x33, 0x00, 0x00, 0x38, 0x00, 0x45, 0x00, 0x00, 0x00,
  0x00, 0x00, 0xcb, 0x00, 0x00, 0x00, 0x00, 0x00, 0x00, 0x5e, 0x9f, 0xc3,
  0xdd, 0xb9, 0x00, 0x2d, 0x47, 0x00, 0x00, 0x00, 0xd7, 0xbe, 0x36, 0x00,
  0x00, 0x00, 0x00, 0x00, 0xd3, 0x00, 0xd4, 0x00, 0x00, 0x00, 0xc6, 0xc8,
  0xd4, 0xdb, 0xc4, 0xcb, 0xd1, 0x36, 0xb3, 0xbf, 0x29, 0x00, 0xd5, 0x00,
  0x00, 0xbc, 0x25, 0xcc, 0x00, 0xc2, 0x00, 0x00, 0x00, 0xb9, 0xd0, 0x00,
  0xd7, 0x99, 0x00, 0x44, 0x00, 0x00, 0x9d, 0x00, 0x00, 0x00, 0x00, 0x00,
  0x00, 0x00, 0x00, 0x00, 0xd0, 0x00, 0x00, 0x00, 0x00, 0x00, 0x00, 0x00,
  0x00, 0x00, 0x00, 0x54, 0x25, 0xdb, 0x00, 0x00, 0x00, 0x00, 0x00, 0x00,
  0x00, 0x00, 0x81, 0x24, 0x00, 0x00, 0x00, 0x2c, 0x00, 0x00, 0xc8, 0x00,
  0x00, 0x00, 0x00, 0x00, 0x4e, 0x00, 0x3a, 0x29, 0xbc, 0x00, 0x2e, 0x00,
  0x27, 0xde, 0x00, 0x00, 0x00, 0x00, 0x00, 0x00, 0xd8, 0xdb, 0xba, 0xcd,
  0x00, 0x00, 0x00, 0xd9, 0xd9, 0x00, 0xc4, 0xb9, 0x00, 0xca, 0x00, 0xd1,
  0x00, 0xb1, 0x00, 0xd2, 0x00, 0x00, 0x00, 0x00, 0x00, 0xc5, 0x00, 0x00,
  0xd7, 0x00, 0x00, 0x50, 0x00, 0x00, 0xc4, 0x00, 0x00, 0x00, 0x00, 0x26,
  0x00, 0x00, 0x00, 0x00, 0x31, 0xdc, 0x27, 0x00, 0x00, 0x00, 0x00, 0x00,
  0x00, 0x00, 0xdc, 0x27, 0x00, 0xc9, 0x00, 0x00, 0x00, 0xd0, 0x00, 0x00,
  0x00, 0x00, 0xbe, 0x00, 0x47, 0x00, 0x00, 0x00, 0x29, 0x00, 0x00, 0x00,
  0x59, 0x00, 0x00, 0x27, 0x3e, 0x00, 0x27, 0x00, 0xd6, 0x00, 0x00, 0x00,
  0x00, 0x00, 0x00, 0x00, 0x00, 0xe0, 0x00, 0x36, 0x00, 0x00, 0x00, 0x00,
  0x00, 0x00, 0x00, 0x00, 0x00, 0x00, 0xcd, 0x00, 0x23, 0xd2, 0x00, 0x00,
  0x00, 0x00, 0x00, 0x00, 0xd7, 0xce, 0x00, 0x00, 0x00, 0xca, 0x00, 0x00,
  0x00, 0x00, 0x00, 0x00, 0x27, 0x00, 0xdf, 0x00, 0x00, 0x00, 0x00, 0x00,
  0x00, 0x42, 0x36, 0x00, 0x00, 0x00, 0x00, 0x00, 0x26, 0x00, 0x00, 0x00,
  0x29, 0x00, 0x00, 0x3b, 0x00, 0x00, 0x25, 0x00, 0x46, 0x28, 0x00, 0x27,
  0x00, 0xd8, 0x99, 0x00, 0x00, 0x27, 0x00, 0x00, 0x00, 0x00, 0x00, 0x00,
  0xc3, 0x00, 0x00, 0x00, 0x48, 0x00, 0x00, 0x00, 0x00, 0xb5, 0x00, 0x00,
  0x00, 0xcb, 0x00, 0x00, 0x24, 0x00, 0xd2, 0xb4, 0x00, 0xad, 0x00, 0xc7,
  0x27, 0x00, 0xc5, 0xd0, 0x2c, 0x77, 0x00, 0xdc, 0x00, 0x00, 0xc5, 0x00,
  0x4f, 0xc7, 0x33, 0x00, 0xc8, 0x00, 0x00, 0xbd, 0xbf, 0xd4, 0xd3, 0xb9,
  0x00, 0x9b, 0x00, 0x00, 0x00, 0x2b, 0x00, 0x00, 0x00, 0x00, 0x00, 0x00,
  0xca, 0x00, 0x43, 0x00, 0x00, 0x00, 0x00, 0xd2, 0x00, 0x00, 0x00, 0x00,
  0x00, 0x00, 0x00, 0x00, 0x00, 0x00, 0x00, 0x00, 0x00, 0xcf, 0xcf, 0x00,
  0x28, 0x35, 0x00, 0x00, 0x00, 0x00, 0x2d, 0x00, 0x00, 0x00, 0x4f, 0x00,
  0x81, 0x00, 0x00, 0x00, 0x00, 0x4b, 0x00, 0x00, 0x4b, 0xc0, 0x00, 0x76,
  0x2e, 0x00, 0x00, 0x00, 0x00, 0x00, 0xc2, 0xbe, 0x00, 0xca, 0xa5, 0x00,
  0x00, 0x00, 0x00, 0x00, 0x4b, 0x7f, 0xb9, 0x00, 0xc8, 0xb7, 0x00, 0x00,
  0x00, 0x00, 0x00, 0x00, 0x00, 0x95, 0x5a, 0x00, 0x00, 0x00, 0x00, 0x00,
  0x00, 0x00, 0xcf, 0x2a, 0x00, 0xd7, 0xcb, 0x00, 0xcb, 0x00, 0xd0, 0x00,
  0xdd, 0x00, 0x00, 0xcc, 0x00, 0x00, 0x00, 0x00, 0x00, 0xce, 0x00, 0xbc,
  0x00, 0x00, 0xa6, 0x00, 0x00, 0x00, 0x00, 0x00, 0xcc, 0x00, 0x00, 0x00,
  0x00, 0x00, 0x00, 0x00, 0x00, 0x00, 0x25, 0x00, 0x00, 0x00, 0x00, 0x00,
  0x00, 0x00, 0x00, 0x00, 0x00, 0x00, 0x00, 0x00, 0x00, 0x00, 0x00, 0x44,
  0x00, 0x00, 0x00, 0x00, 0x00, 0x00, 0x00, 0x00, 0x00, 0x00, 0xcb, 0x00,
  0x00, 0x00, 0x00, 0x00, 0x4f, 0x00, 0x00, 0x00, 0x00, 0x00, 0x00, 0x28,
  0x00, 0x00, 0x44, 0x00, 0x00, 0xd9, 0x00, 0x4a, 0x00, 0x00, 0x00, 0x00,
  0x00, 0x00, 0x00, 0x00, 0x00, 0xb6, 0x00, 0xcb, 0xb3, 0x00, 0xcc, 0x00,
  0x00, 0x00, 0xcb, 0x00, 0x00, 0x00, 0x00, 0x00, 0x00, 0x00, 0x00, 0xcf,
  0x00, 0x00, 0x3a, 0x00, 0xb2, 0xbf, 0xc1, 0xcd, 0x00, 0x00, 0xc9, 0x00,
  0x00, 0x00, 0xcc, 0x00, 0x00, 0x00, 0x00, 0xc8, 0x00, 0x00, 0x00, 0x00,
  0x00, 0x00, 0x00, 0x00, 0xbb, 0x00, 0xa5, 0x00, 0x00, 0xaf, 0x00, 0x00,
  0x00, 0xac, 0x2f, 0x00, 0x00, 0x00, 0x00, 0x00, 0x38, 0x59, 0x00, 0x00,
  0xc9, 0x00, 0x00, 0x39, 0x00, 0x00, 0xb2, 0xc6, 0xad, 0xa7, 0x34, 0x00,
  0xbc, 0x00, 0x00, 0x00, 0x00, 0xa6, 0x00, 0x00, 0x5d, 0x00, 0x00, 0x00,
  0x00, 0x00, 0x00, 0xcc, 0x00, 0x00, 0x00, 0x00, 0x00, 0x00, 0xce, 0x00,
  0x00, 0x00, 0x00, 0x00, 0xab, 0x00, 0x00, 0x00, 0x00, 0x00, 0x00, 0x00,
  0x00, 0x00, 0x00, 0x00, 0x00, 0xcc, 0x00, 0x00, 0x00, 0x00, 0x00, 0x3c,
  0x34, 0x00, 0xac, 0x00, 0x00, 0x00, 0x00, 0xce, 0x00, 0x8f, 0x81, 0x00,
  0x00, 0xa0, 0x00, 0x00, 0x00, 0x00, 0xa6, 0x00, 0x00, 0x00, 0xba, 0x00,
  0x00, 0x00, 0x00, 0x34, 0xbc, 0xc8, 0x00, 0x51, 0x43, 0x3e, 0x9d, 0x36,
  0x33, 0x00, 0x00, 0x32, 0x00, 0x00, 0xa9, 0x00, 0x00, 0xb7, 0x00, 0x00,
  0x00, 0x00, 0x00, 0x00, 0xa4, 0x9e, 0x00, 0x00, 0x00, 0x00, 0x30, 0x00,
  0x00, 0x00, 0x00, 0x00, 0x3e, 0x00, 0x00, 0x00, 0xb9, 0x00, 0x00, 0x37,
  0x00, 0x9b, 0x00, 0x00, 0x00, 0x00, 0x00, 0x00, 0x99, 0x00, 0xb4, 0x34,
  0x00, 0x00, 0x00, 0x00, 0x00, 0x00, 0x00, 0x00, 0x00, 0x00, 0x00, 0x00,
  0x00, 0x00, 0x9a, 0x31, 0x00, 0x38, 0x00, 0x00, 0x00, 0x00, 0xb6, 0xcd,
  0x00, 0x00, 0x00, 0x00, 0xd0, 0x00, 0xa5, 0x00, 0xc4, 0x00, 0xc8, 0x00,
  0x00, 0x00, 0x00, 0x3e, 0x00, 0xc8, 0x00, 0x00, 0x00, 0x00, 0x00, 0x3e,
  0x00, 0x00, 0x00, 0x00, 0x00, 0x00, 0x00, 0x45, 0x4f, 0x00, 0x00, 0x60,
  0x66, 0x00, 0x42, 0x4d, 0xc0, 0x00, 0x00, 0xbd, 0x00, 0x00, 0x00, 0x00,
  0x00, 0xc2, 0xcf, 0x00, 0x00, 0x00, 0x00, 0x00, 0x00, 0x00, 0x00, 0x00,
  0x00, 0x00, 0x00, 0x00, 0x35, 0x00, 0x00, 0x00, 0x00, 0x00, 0x00, 0x00,
  0x2c, 0x00, 0x00, 0x53, 0x00, 0x00, 0x00, 0x00, 0xcc, 0x00, 0xb9, 0x36,
  0x00, 0x30, 0x81, 0x00, 0x00, 0x00, 0x2d, 0x00, 0x00, 0x00, 0x00, 0x00,
  0xd4, 0x00, 0x00, 0x00, 0x00, 0x00, 0x00, 0x00, 0x28, 0x95, 0x00, 0x5c,
  0x3c, 0xba, 0x00, 0x00, 0x26, 0x00, 0x00, 0x00, 0x00, 0x00, 0xaa, 0x00,
  0x46, 0x00, 0x00, 0x2c, 0x00, 0x48, 0x00, 0x00, 0x27, 0x00, 0x00, 0x00,
  0x63, 0x00, 0x4f, 0x00, 0x00, 0x00, 0x55, 0x00, 0x00, 0xdf, 0x00, 0x00,
  0x00, 0x00, 0x00, 0x00, 0x00, 0x00, 0x00, 0xd0, 0xbc, 0xc1, 0xcf, 0xd4,
  0xcd, 0x00, 0x00, 0x00, 0x29, 0x00, 0xdb, 0x00, 0x00, 0x00, 0x00, 0x00,
  0x00, 0x00, 0x00, 0x00, 0xd5, 0x00, 0x00, 0x00, 0x00, 0x00, 0xae, 0x36,
  0x36, 0x00, 0x98, 0x00, 0xd0, 0x00, 0x00, 0x00, 0x00, 0x00, 0x00, 0xd8,
  0x00, 0x00, 0x00, 0x00, 0x00, 0x00, 0x00, 0x00, 0x2b, 0x00, 0x00, 0x43,
  0x00, 0x00, 0x00, 0x29, 0x58, 0x00, 0xd6, 0x00, 0x00, 0x00, 0x00, 0x00,
  0x2e, 0x00, 0x00, 0x00, 0x00, 0x6d, 0x00, 0x00, 0x00, 0x00, 0x00, 0x00,
  0x78, 0x00, 0x70, 0x00, 0x00, 0x00, 0x00, 0x00, 0x00, 0xc6, 0x00, 0x00,
  0x00, 0x00, 0x00, 0xcc, 0x00, 0xd1, 0x00, 0xc0, 0xc2, 0xdf, 0xd9, 0xc5,
  0x00, 0x00, 0x00, 0x00, 0x00, 0x00, 0xcf, 0xcf, 0x00, 0xb5, 0x00, 0xbf,
  0x00, 0x00, 0x00, 0xd0, 0xd1, 0x00, 0xd7, 0x00, 0xca, 0xbb, 0xa5, 0x00,
  0x00, 0x00, 0xd7, 0x00, 0xcd, 0x00, 0x00, 0x00, 0x00, 0x00, 0x00, 0x00,
  0x87, 0x00, 0x00, 0xc9, 0xda, 0x00, 0x00, 0x00, 0x56, 0xd9, 0x00, 0x50,
  0x00, 0x00, 0x00, 0x00, 0x00, 0xd2, 0xc5, 0x00, 0x00, 0x00, 0xdc, 0x00,
  0x00, 0x00, 0x00, 0x34, 0x00, 0x00, 0x00, 0x00, 0xa5, 0x00, 0x00, 0x00,
  0x00, 0x00, 0x53, 0x36, 0x39, 0xdc, 0x00, 0x39, 0x00, 0x00, 0x00, 0x00,
  0x00, 0x00, 0x00, 0xd7, 0x00, 0x00, 0x9a, 0x00, 0x00, 0x00, 0x00, 0x00,
  0x00, 0x32, 0x97, 0x00, 0x00, 0xaa, 0x00, 0x00, 0x00, 0xcc, 0x00, 0x00,
  0x83, 0x00, 0x3a, 0xbd, 0x00, 0x00, 0x00, 0x00, 0x00, 0x00, 0x41, 0x00,
  0x00, 0x00, 0x00, 0x00, 0x00, 0x00, 0x00, 0x00, 0xd7, 0x00, 0x00, 0x34,
  0x47, 0x00, 0x00, 0x00, 0xc5, 0x00, 0x00, 0x00, 0x00, 0x00, 0x00, 0xbd,
  0x00, 0x3b, 0x00, 0x00, 0xbe, 0xc0, 0x4f, 0xb6, 0x00, 0x00, 0x00, 0x00,
  0x50, 0x00, 0x00, 0x00, 0x00, 0x00, 0x00, 0x3d, 0x00, 0x33, 0x00, 0x2d,
  0x29, 0x00, 0x00, 0x00, 0xc3, 0x00, 0x00, 0x00, 0xcb, 0x00, 0x00, 0xd8,
  0x00, 0x00, 0x00, 0x00, 0x00, 0x00, 0x00, 0x00, 0x00, 0x00, 0x31, 0x00,
  0x00, 0x00, 0x00, 0x2d, 0xb1, 0x2b, 0x00, 0x00, 0x00, 0x00, 0x00, 0x00,
  0x00, 0x00, 0x00, 0xb2, 0x00, 0x00, 0x00, 0x00, 0x41, 0x00, 0x00, 0xaa,
  0x00, 0x00, 0x00, 0x00, 0x00, 0x00, 0x00, 0x00, 0x00, 0x00, 0x00, 0x00,
  0x00, 0x00, 0x00, 0x00, 0x00, 0x00, 0x00, 0x00, 0x00, 0x00, 0x00, 0xb1,
  0x00, 0x00, 0x00, 0x00, 0x48, 0x49, 0x00, 0xb9, 0x00, 0xd7, 0x33, 0x00,
  0x00, 0x28, 0x00, 0x00, 0x29, 0x00, 0x00, 0x00, 0x00, 0x00, 0x00, 0x00,
  0x00, 0x00, 0x00, 0x00, 0x00, 0x00, 0x00, 0xac, 0x00, 0x29, 0x00, 0x00,
  0x2e, 0x00, 0x00, 0xc0, 0x00, 0x00, 0x00, 0x28, 0xc7, 0x00, 0x00, 0x00,
  0x00, 0x00, 0x00, 0x00, 0x00, 0x00, 0x00, 0xca, 0xa9, 0x00, 0x00, 0x00,
  0x00, 0x32, 0xc5, 0x00, 0x00, 0x34, 0x00, 0x00, 0x45, 0x00, 0x2f, 0x87,
